/**
  ******************************************************************************
  * @file    network_data_params.c
  * @author  AST Embedded Analytics Research Platform
  * @date    2024-11-11T16:37:08-0600
  * @brief   AI Tool Automatic Code Generator for Embedded NN computing
  ******************************************************************************
  * Copyright (c) 2024 STMicroelectronics.
  * All rights reserved.
  *
  * This software is licensed under terms that can be found in the LICENSE file
  * in the root directory of this software component.
  * If no LICENSE file comes with this software, it is provided AS-IS.
  ******************************************************************************
  */

#include "network_data_params.h"


/**  Activations Section  ****************************************************/
ai_handle g_network_activations_table[1 + 2] = {
  AI_HANDLE_PTR(AI_MAGIC_MARKER),
  AI_HANDLE_PTR(NULL),
  AI_HANDLE_PTR(AI_MAGIC_MARKER),
};




/**  Weights Section  ********************************************************/
AI_ALIGNED(32)
const ai_u64 s_network_weights_array_u64[105425] = {
  0x3e27090dbd92115bU, 0xbe2cd0c93de50f56U, 0x3f839b32bf71499aU, 0xbf14e9b53f8548b2U,
  0x3db43e0e3f873d6cU, 0x3fa32130bef20dffU, 0xc01a1e6bbf889836U, 0xbfa00db83f2768f7U,
  0xbefd914fbd77a25dU, 0x3ea659503f35365fU, 0xbf1b94463eb22ca1U, 0x3f11035abfaffc60U,
  0xbfd7b406bb9a5146U, 0x3f27a9413da306b0U, 0x3fa3796abf911c2eU, 0xbeac25833ef52913U,
  0x3e12a4d9bf1a0f68U, 0x3f3be3a8bf9b8549U, 0xbf4ba65f3f03dc1fU, 0x3f863026be8a4d39U,
  0x3f781304bf80b0c2U, 0xbf75bff33f38eb4cU, 0x3f3263573ee6637aU, 0x3f79a54cc0058b5cU,
  0xbf9e40863f21bc2bU, 0x3f48c2383f1cf230U, 0x3e822309bfa36e2aU, 0x400a3f8a3fa59e35U,
  0x3ea75bf43fb6b59fU, 0x3ffc00adbe15d40cU, 0xbfebbb28be36c144U, 0x3f98e05fbf45924cU,
  0x3f84722d3f942a58U, 0xbfe9d4b93d9682d7U, 0xbfeaa4d8bf7b1a99U, 0xbf9566c8bf8dc58aU,
  0x3f9b68cbbd112b1fU, 0x3f3f7393bf332c4cU, 0xbe2172453e949547U, 0xbfd7a9acbedb4650U,
  0xbf135a5bbe36626eU, 0x3ec365c53edd72b2U, 0xbf30e917bededa34U, 0xbdf1cf22bf190a8fU,
  0xbce142f6bf68398bU, 0x3ef5c3ca3f8631f5U, 0x3ebcc38cbd1e3efeU, 0xbe2d9cc13ed6423bU,
  0xbf03ace8beb9fed2U, 0x3d2ed180be86535cU, 0xbe7f593b3f113b8aU, 0x3f3e030d3f469bf4U,
  0xbdd4be723de72a3aU, 0xbdb5a12d3edc4452U, 0xbee0c65ebf17b7aeU, 0xbf3fd721bbeaf992U,
  0xbf1b020fbf933e0cU, 0xbe3afc6cbf2e8b3aU, 0xbdf63d0fbeb4f01bU, 0x3cdf4368be1909f7U,
  0xbe1fc88c3e45542eU, 0x3ec042153e48ad72U, 0xbe3850f03cc2ef65U, 0x3eba21d93e68b468U,
  0x3f4fafcd3ee7832bU, 0x3f1f607c3f216f6dU, 0x3f2740293e395e5dU, 0xbef56cdd3e824866U,
  0xbfcf0e8cbfaed9a3U, 0xbeedb9ab3f132cfaU, 0x3e00075abfbc6f13U, 0x3f5095cb3ec4ab72U,
  0xbf1bfdb03f292f64U, 0x3f4d4c0abf79a18fU, 0xbf8e3ccabf7f83f4U, 0xbe0b15473f56e3f2U,
  0x3f8d284bbe7b8464U, 0x3f979da2be4c13f6U, 0xbecb084dbf682598U, 0x3f7a4e083edb1341U,
  0x3f152244be7b13feU, 0x3e8c5442bf07193cU, 0xbef3f9c63f180095U, 0x3ece428b3df1ad0aU,
  0xbe48490cbd4c47d3U, 0xbe7962bf3e05a41eU, 0x3e356f00be416c1cU, 0xbd4c6a92be79a022U,
  0xbf02e2c23f7e955fU, 0x3ef0abcfbdd2f495U, 0xbea83b3bbe930d28U, 0xbd6a58ba3eff2964U,
  0x3e745b0ebeae345eU, 0x3d7f647bbd2f9e65U, 0x3e43238f3e394fe1U, 0xbd58593b3da75966U,
  0xbd9a367e3e423a72U, 0xbb9edcee3db45ca8U, 0x3e644076be295142U, 0xbe5051e33ec663d6U,
  0x3ec9e8583e40931fU, 0x3d647f523daa6ac5U, 0xbeb374ae3e02b6d2U, 0x3a4461293e6293c0U,
  0x3d7dc5febec1e485U, 0xbe3ab6a73e1c0affU, 0x3d5e59943d0e85d9U, 0x3da387f8becd73ceU,
  0x3ed294344008928cU, 0x3e830d81bd07fa40U, 0x3fad16f23f3c06efU, 0x3f0572243efdb191U,
  0xbea867c73d040926U, 0xbddd83a93da5a03cU, 0xbeb9fc653f7b7ae7U, 0x3f4021a6be1676d0U,
  0xbf3dbb583d0bf080U, 0xbf985852bd504b63U, 0x400180ddbde2b3f7U, 0xbf7770963eecb1cdU,
  0x3f4848963f8b09c2U, 0xbe9a11f2bd3fb73dU, 0x3d5fbfe53e9051d3U, 0xbf458fbbbf7583a3U,
  0x3e62f1d23d7f67a4U, 0xbf862c24bf1bf221U, 0xbfa7b6fe3f6774b3U, 0x3f8a4ad2bf62a85eU,
  0xbe50a98c3ffa8f13U, 0x3f9e15b6bf8ed18bU, 0xbf8c24a2be15c6b6U, 0xbedea779bf83f993U,
  0x3fd349243e7278ecU, 0x3da1092cbf0426d5U, 0xbe5e19793fbd45e0U, 0xbf103140bee7b99fU,
  0x3f1c2c18be7d3675U, 0xbed80ca8bd947901U, 0x3f9f31513f4bd7dcU, 0x3e8be3f33e15404cU,
  0xbf46df71bfeb6a4aU, 0x3f00ab803fb4dc86U, 0x3edae9ebbf21fc7dU, 0x3fb853a63ff1cdbeU,
  0xbe3ab115c0647602U, 0xbe9ed6183eea89d4U, 0x3f01128abfac075aU, 0xbe044d793f5862daU,
  0xbd2080f8bc348afcU, 0x3ed036b23f88e820U, 0xbe106b9c3f13a14cU, 0x4011b8eebe8f923fU,
  0x3f0e91523f253dd7U, 0xbe2798103e41fc6fU, 0x3d2990013e35e93aU, 0xbe8255d23f0c49cbU,
  0xbf29dc553b23584aU, 0x3da0252a3ee64c3bU, 0xbdcb178d3e419cb5U, 0x3f0d05a0be079d34U,
  0x3edefe123e3f0567U, 0x3e11709dbed189e5U, 0xbefe2d57beb24916U, 0xbdf3e7353c5a62c5U,
  0xbe9b7b6ebdcec605U, 0x3d2687213ce88fe2U, 0xbdc38a343c32ac0dU, 0xbc7346513ebb490eU,
  0x3f199810be5da23fU, 0xbd848a6cbb986cd6U, 0xbe4ad3c2bdd09fa4U, 0xbe4581503ecb36f2U,
  0xbe041ca83e84d4c0U, 0xbe6cffd3bead4fd6U, 0x3dc9a4573ed237baU, 0xbe3dd0c3bd7e8821U,
  0x3ece38cdbe33dc26U, 0x3d95f1db3ecda91fU, 0xbeb7f5433e5ef7c2U, 0x3ed3ce133e87d503U,
  0xbe2dd9883f2c156eU, 0xbeec5a473ecd5484U, 0x3f0ef645bf4db1e1U, 0x3d1a22423ea20605U,
  0xbe45949d3e823843U, 0x3eb387003ef4ec17U, 0x3f03db933f12607eU, 0xbe7b5512bca6761aU,
  0x3e0b6071bd033c2bU, 0x3f17e1e6bdbd0eb8U, 0x3e5d9966bed992beU, 0xbca70f08bdde8d7aU,
  0x3dc7d2883e3ab8a1U, 0xbf1c0ec13f0cc559U, 0xbb09e406bd53c9a5U, 0xbb2d485ebe4787cfU,
  0xbf30ed063f94bcdbU, 0x3f3012adbf10bf94U, 0xbede6d7fbcbf2842U, 0xbe7eadaa3fc32c71U,
  0x3ec8e783bdde3234U, 0x3d23da593c72a8c0U, 0x3ea682183d4801a0U, 0xbe6ea0a8bf284af3U,
  0xbeadd0163e4267a6U, 0x3ec131e2bd902b61U, 0x3eb2435c3f9e3d5dU, 0xbe8d03f2bd0ac760U,
  0xbe190ff03ef7c867U, 0xbeb1a524bcca9b49U, 0x3edbc83e3df97fdfU, 0x3e5650c63da1eba1U,
  0x3d8a88eabd6e69aeU, 0x3f041e51be373472U, 0xbeba5a99bd2405e5U, 0x3e0b0257be3c72a6U,
  0x3e06e516bf6123e4U, 0x3f28ec6a3f3850b0U, 0x3f3510763e8720caU, 0x3df8a522bec9639dU,
  0x3edbcf0fbf896eb3U, 0xbf5bc4ec3f0b13bcU, 0xbf915ac63ef35218U, 0x3e9e46893e3f28dbU,
  0x3f0205b23ea67187U, 0x3e84c0a23e9859cfU, 0x3e3590083ebb2df0U, 0xbe534876be307a62U,
  0x3e126501be67ce6fU, 0xbdade755bb9fa4d7U, 0x3eabd6183ee6c1beU, 0x3ed2179ebdcd1fd9U,
  0xbd495c643ef865c2U, 0x3ec747f1ba1c476bU, 0x3ebfcf2f3eb1829bU, 0x3e9c7f2d3edaf85fU,
  0x3df770863e225cb0U, 0x3f664c4c3cb88efaU, 0xbe2c7b073f59230eU, 0x3f423ae73f44ecf0U,
  0xbe88c9693dc0ea0bU, 0x3c2a55b1be282203U, 0x3da3cc393f2849e9U, 0x3e144c5fbde16852U,
  0xbd11bc6d3f06b410U, 0x3dec7e02bbdf8570U, 0xbe5b0a6b3e769700U, 0x3e209755bf05eaa9U,
  0xbe16a9b8beb0e091U, 0xbe7b6d003e84eae3U, 0x3e2c663d3e4e29daU, 0xbea598ac3c36d13cU,
  0xbd497a63bee5e3c5U, 0xbf01ecd6be51d4deU, 0xbcedcddc3cc810dbU, 0x3e8db366bcee7971U,
  0xbdd786333c704fddU, 0x3ef484e63eaee60bU, 0xbdd81939bd300938U, 0x3e7f29f13f0cc953U,
  0x3e5ac73a3ea075caU, 0x3e977a403d37e5acU, 0x3d2a53f13ec88932U, 0xbede916cbef1e0c1U,
  0x3f0177eabe87d1d9U, 0x3e1b29683f1ecd6fU, 0x3ed4a9bb3e344f9cU, 0xbc874b9c3f0e0345U,
  0xbdd19bd5bdd0bbebU, 0xbf37437c3db907feU, 0x3f4e7c8e3f26240fU, 0x3f8bde21bfe162d8U,
  0x3e20c41cbdd45d0eU, 0xbe4c65f1bea86c89U, 0xbd0693f7be4ed131U, 0xbe4e20a0be0f8c0bU,
  0x3cb0b2dabe03cdb2U, 0xbbf85b87bd820e70U, 0xbf51c56dbf47cac6U, 0xbe3c0075beafd0b7U,
  0x3f157ce03efff456U, 0x3e8fd26cbe1295a0U, 0xbea4cae93f00719dU, 0xbd16334bbe8fba5bU,
  0xbee856bbbe588cf1U, 0xbd8d95aabd81f586U, 0x3b70ae84be73cf5aU, 0xbe8973893f078f15U,
  0x3f1867bebea72f4fU, 0xbf0724a9bda459b0U, 0x3e98d7f93e88b112U, 0x3ee5f58cbf059a2dU,
  0xbd94259e3eaecb4fU, 0x3f2b7bca3e704402U, 0xbd5ebe023e14bc19U, 0x3e79c2b23de28d0aU,
  0xbd239f803af88380U, 0xbe1271b03d54c979U, 0x3ff6fb8ebf116c72U, 0xbeb05a383fe6183cU,
  0xbebbccb0bd781592U, 0x3f9990c93e240370U, 0x3fbc937c3f3547b9U, 0x3d37f441bd61f8d4U,
  0x3e8722a8be833728U, 0x3eb6fd8f3ebc3112U, 0xbe8555273debf20aU, 0xbe75a760be8c9a3dU,
  0x3f8f54a23e203afbU, 0xbe137acebde50becU, 0x3c978899be59c1c4U, 0xbef3ae9abde8e0e3U,
  0xbdf339853dea563eU, 0xbebf3fb83edcf3fdU, 0x3d897c893e0d50aaU, 0x3d8455173cedf317U,
  0x3e0415b33e295c6eU, 0x3de896c4bd6588ffU, 0xbe7b162a3c91a7c2U, 0x3d374d20ba8f7670U,
  0xbe13f2453f4ecc68U, 0xbf039a363ecc5995U, 0xbe66366f3d95a108U, 0xbc4a726cbe8cfb92U,
  0xbe7119d93d86df51U, 0xbe881db13dea0f13U, 0xbdd065b63e624805U, 0xbd81bc87be359c3bU,
  0x3f25c0443fa38176U, 0xbdb2266abd6acb82U, 0x3e123989bea1f390U, 0xbf08c19bbea9e5faU,
  0x3eb153c93e8c8b12U, 0x3dd0eafdbdf6b029U, 0xbe89f64e3e4f7f36U, 0xbd87fd3abf4bd7ddU,
  0x3c8e14dbbc25bb79U, 0x3d461e90be7831d5U, 0xbdc7a2f43ec8a9faU, 0x3e91a4923e2d23b1U,
  0xbd2567b9be3d70d6U, 0x3dbe1fd13ee220c7U, 0xbe275a96bc03c3bbU, 0x3f18b0e63e58c55fU,
  0x3d9d9d13bd53d606U, 0x3ceb8a90be1cbf5aU, 0xbe1dbbb4be08249aU, 0x3ed3e822be2d6dd2U,
  0x3eb21cf5bd8e52a4U, 0xbd2d1a97bf2929bdU, 0x3de302523d053641U, 0xbec04d7cbdc5249aU,
  0xbf67a8c7bf04cf44U, 0x3f08198bbe3d66b1U, 0xbe1e181b3eeab003U, 0x3e2346e6bdfc7d24U,
  0xbe90e47abd99bd3eU, 0x3cfff7b7be98e60dU, 0x3ea6500fbe964850U, 0x3e328b823dcba34fU,
  0xbe13478e3e0c0b99U, 0x3f1d68be3eb7a30dU, 0x3e2c9dcb3e60e85dU, 0x3e0111fe3dabee64U,
  0x3d852b823eacad45U, 0xbd68cc4bbbb029d0U, 0x3e58c0163ea7e7a3U, 0x3d9c5e24bdcae6bcU,
  0x3db59a47bbe709b0U, 0x3e40a7c63d89e76eU, 0xbcd018093f1532b7U, 0xbdc69fc6be8701edU,
  0xbe684d0a3daa0515U, 0x3ddb1a8c3d0c7154U, 0x3c8d00123ea89a4cU, 0x3e82f1ef3c45ec27U,
  0x3ecee0003ea8a71bU, 0xbd854bb93e63bb52U, 0xbf2c62ddbed3044fU, 0xbe0abd16bd91890aU,
  0x3e3d1e2b3d3d68b8U, 0xbf1137123e035624U, 0xbe4f38be3f724be3U, 0x3d25fd933f805fafU,
  0xbee928353eaa8195U, 0x3f409d80be61da59U, 0x3d01f837bf90a175U, 0x3ea089d03f84c151U,
  0x401930b73f0ebb5bU, 0x3e0c90943e831582U, 0xbe02d0273ea32960U, 0xbf417df4bf1bf0fcU,
  0xbeb30f47be025f94U, 0xbf58fb07bd8bfb0bU, 0x3d8545f63e3d4e26U, 0x3e68c4103d8ac768U,
  0x3edce66bbdc8939fU, 0x3d5589193e21666aU, 0xbe9898c3bcfb5933U, 0xbebc6949bdb2a631U,
  0xbea08c54bf99753aU, 0xbf9d63063ea0e70bU, 0x3f2431c0be8763a7U, 0xbc78ecc2beacc85fU,
  0xbd21139e3e9532d8U, 0xbd78b9b6bd3ceb9aU, 0xbe82ddc1bf1ffeefU, 0x3dca673b3c42e21eU,
  0xbf0eb468be031087U, 0xbe9e860c3e775073U, 0xbe697e773f010506U, 0xbee4f46c3e2289d5U,
  0x3f31224fbefa17b8U, 0xbf4590eb3e06809bU, 0x3f04f227be8471caU, 0x3ec3019f3f0b21adU,
  0x3d4851b03daaa5c7U, 0xbf839af4bf09894bU, 0x3f02dc6e3e46318cU, 0xbea89c0cbec57268U,
  0xbda26a81be4e06edU, 0x3e506bde3e0ad4c8U, 0x3e803cd4beb4e060U, 0x3ed808843ea91642U,
  0xbe9840b9bdb98dd1U, 0x3e1f563bbec00af0U, 0x3ea051263e50fd50U, 0x3f8b3450bf1d1806U,
  0x3ebefae3befd5693U, 0x3ef9808d3c82998aU, 0x3eb73733be3add12U, 0x3ec410743f47db7eU,
  0xbdc935463da6fb06U, 0xbf7b64b43f2b866aU, 0x3d4a001a3ebd1644U, 0xbdb57c27bf3cb0faU,
  0xbcda915abd11d550U, 0x3d24ba55bd3abffaU, 0xbe12a060be57b416U, 0xbb8b7b88bdd9cd84U,
  0xbcbc0d453d5ce642U, 0xbe3d7f49bdf6aec6U, 0xbe3a179bbdfa46c5U, 0x3e25aea33c62fcb0U,
  0xbe11d3a6bda6c73bU, 0xbe071587bdd35390U, 0x3d76f81d3e07fdf9U, 0xbe96f42fbe7de12bU,
  0xbf5c45ee3e4989d5U, 0x3ecc60adbe4d28d3U, 0x3dfc56c7be968e84U, 0x3f5dd6353e21b254U,
  0xbe86a31e3eb7bb9eU, 0xbe61f1a5be284d0cU, 0xbf3a2150bd994e95U, 0x3f8d64df3e91279cU,
  0xbddd605d3ea56f14U, 0x3e3ee223bd747748U, 0xbd9db5833ddab2ebU, 0x3daa60dbbe5c0aafU,
  0xbe14117bbe1bd781U, 0xbea7b5cd3d0b0de3U, 0x3d295d143b95c482U, 0xbdd472ca3d940283U,
  0xbecd1285be9ac21aU, 0xbf22b0be3d976f04U, 0x3d440592be6edddaU, 0xbeb0ecacbe794783U,
  0xbe14daaa3dfe7bc5U, 0x3ce156aa3e0fa3a5U, 0xbe8ab1b93e03b136U, 0xbe0c90f8bdc70421U,
  0x3da4d6843e501519U, 0xbeb5fb49bead1153U, 0xbea6852b3d12f494U, 0x3df1f58abd027c29U,
  0xbe8be5073e9281aeU, 0x3e5d396e3d37ae21U, 0xbefe768c3d94feffU, 0xbe74ddfc3de3ad96U,
  0xbcb9b01ebe3bf289U, 0xbee8aa833dc44c2fU, 0xbc229b8ebe09c412U, 0xbd3c3e18bd9f23d7U,
  0x3c71bcd83cc43807U, 0x3e3fcb47bc5ecf77U, 0x3c4bc9463c2b648dU, 0x3e5253b63cf51058U,
  0x3f54fbb5be7296abU, 0x3ebe16013e5b9719U, 0x3e7b37aabd7b2243U, 0xbee8f8a1be719a3aU,
  0xbdd5dce93e3ff84eU, 0xbe820a40bb682f64U, 0xbebd535b3ec0d381U, 0xbe68ec77be7d56a1U,
  0xbe25f24d3dd48d50U, 0xbe1246563e74ff6eU, 0xbd4b2d513e24117bU, 0xbce48061be731391U,
  0xbcf1513e3d87f746U, 0xbd3d51073cf586faU, 0xbc0cf013bd7c9da5U, 0xbd745abe3cb8576fU,
  0xbeb0b18ebe15aa12U, 0xbf14624cbd8a79e2U, 0x3db1a1dbbe411647U, 0xbdacbb25be7a8e23U,
  0xbdbc48b23dfca774U, 0x3d4de5573d358678U, 0xbe25fffcbc83816eU, 0xbcea7f8a3d44c1dbU,
  0xbe1543fdbea843c9U, 0x3e68e7ee3eee3f82U, 0xbeedb76b3e913781U, 0x3f12231dbe6b8473U,
  0x3f101afc3f12b3e9U, 0xbf303d1139907ebaU, 0xbd3e177ebe8ae8e0U, 0x3ed3a6aebe54b8b5U,
  0x3d392056be15c7deU, 0xbe9693cbbe110964U, 0x3d46afabbdec06d2U, 0xbd692d87bb9fdbdfU,
  0x3dec92463d67b3f4U, 0x3c84c7dd3c3ffa15U, 0xbd86b536bd8bdcfaU, 0xbd9b0b713cbf1f34U,
  0x3eb7fc643d2f3076U, 0xbd8966053e973e21U, 0xbe1152cbbc64c4b1U, 0x3e2bcdc03e8ed928U,
  0xbd88bb99be269999U, 0xbe8fc8c83d3a8bc7U, 0x3b809f68bdf007b6U, 0xbe5989e9bd977274U,
  0x3e3f0dc9be1ccdc5U, 0x3d66d6fc3e1fbb25U, 0xbde0fbc0be6341e1U, 0x3cc5cc3ebd9574d0U,
  0x3e494f7e3eb382bfU, 0x3d3c1c753e96d7e2U, 0xbf165ac03ca8d810U, 0x3e76d67bbd91141bU,
  0x3e2bcca53d9e007cU, 0xbe77a5813cf9d60bU, 0xbd131397be2742f9U, 0x3ea618723d88ab2bU,
  0xbd9937e03cb0c251U, 0xbd6219e63f260724U, 0x3dec209d3cf912ffU, 0x3e29cc1ebc6e858fU,
  0xbb22527abd5ec304U, 0x3d107ca83e2a603eU, 0x3efa8876baf7fd67U, 0x3d4ce95e3d966bdeU,
  0xbd8d14bd3da99dc6U, 0x3c255cd43caa11c4U, 0x3e1344fe3cddbcf0U, 0x3be61d5e3d1e8312U,
  0x3eb4dc4fbee5202dU, 0xbf26ff073fb3661aU, 0x3f7be406be1d3d80U, 0xc00448a83e30803cU,
  0x3eaf2057be7baea5U, 0x3ff44b97c0661fc7U, 0x3f09cb6a4033a575U, 0xbfa758d03fc74931U,
  0x3fe7d98a3fe54c61U, 0x3f5366aabec79af2U, 0x400ac1074033d162U, 0xbe588fd03f9075ccU,
  0x40172cae3f855566U, 0x3fb95726be3f9a43U, 0x3edbe65a3f28a781U, 0xbe34c2ae3ea40ce5U,
  0xbf84d8183ea93da2U, 0xbefa40823d1b4daaU, 0xbf3c38ca3fc13715U, 0xbf2886713c81b693U,
  0xbf0f668a3eeb9814U, 0x3f6c9a92bef3ba6cU, 0xbe412f5bbf43350fU, 0xbf0da6773fa7355eU,
  0x3e950179bde2a3e1U, 0xbee9549cbde324dcU, 0x3c95f4c43e1b15beU, 0xbedd2726bf51465eU,
  0xbe2311e33e1bd801U, 0xbe70e3ad3e7ae599U, 0xbe067c2f3de98b4dU, 0x3f1eae1a3e9c7216U,
  0xbdbde19eb91d69afU, 0x3d08afd93f2d34c6U, 0x3eab148cbda4ec10U, 0xbc503ae6becdc28bU,
  0xbe9c4eaa3fef2fbcU, 0xbfebbe8bbebcc6e9U, 0xbe0803983f4e74aeU, 0xbf04b7d83fbfd0cbU,
  0xbfcaad2e3d7ba883U, 0x3da906353f0b6a1aU, 0x3d8911713e211be7U, 0xbe25a948beb0b894U,
  0xbf0d9ad13e3a6e3bU, 0x3d566fc4be982989U, 0xbf894c43bf18c4a6U, 0xbeedba573edc61cdU,
  0xbe09015abe27e4cdU, 0x3f1f0a863de0f499U, 0x3bdbba6b3f31c039U, 0xbe74d5c23f23409eU,
  0x3f9d2e7f3d927e11U, 0xbc37c2c63ec8d895U, 0x3e3c025d3f17d346U, 0xbfa5e67bbf3f328bU,
  0xbea77178bf030e20U, 0x3dc4e6c13e4e1104U, 0x3e7c05abbe2451dfU, 0x3e24bc433e8725a7U,
  0x3e4614623e7a0422U, 0x3c789bc93df2ef26U, 0x3e2b5c15bde23854U, 0x3e8b4d013ed5fe2aU,
  0x3db7fcd4bd5f8d6cU, 0xbdf466ec3e269002U, 0x3f6a97293f1af40dU, 0x3b8ba790bf55c4f4U,
  0x3eb2d1173f288480U, 0xbf0eec5bbf66c355U, 0xbebe01c6be61ad77U, 0xbd0b733dbe63aedbU,
  0x3f37df643e55d5eaU, 0x3f4ca470be8e37c5U, 0xbdd881df3ed2f891U, 0xbe04a34b3d430ed2U,
  0xbf1ad349be9b1a73U, 0xbab089a6be7a5015U, 0x3cec72183d548d3aU, 0xbdd7990abd22f28aU,
  0x3de0297ebec1440eU, 0xbeda5c6fbe7a64a8U, 0xbf1a2f7cbe9df6beU, 0x3d0811cdbdd8e0beU,
  0x3e8e3ed4bf625f34U, 0x3f6c69a73d9d8772U, 0xbe4a4015bf263fb2U, 0x3e3ff0423d8e7f56U,
  0xbf45ba78bed9fab6U, 0x3e92436cbeccf0ceU, 0xbe6c959e3e855a71U, 0x3f5bc4803ebf7692U,
  0x3dc04358bdc036ccU, 0xbf0adf873f65ad17U, 0x3fb1ab963e843b7eU, 0xbe83cff5bfb7ccfaU,
  0xbf9331f83ea4588cU, 0xbe9986e4bde33e9fU, 0x3cb45bc9bdbbefdbU, 0xbeccd03ebf2953abU,
  0xbde07d773dc6829eU, 0xbf397712bb483f9fU, 0x3f33d9f83e929676U, 0x3f07823ebfb6a728U,
  0xbf8262853f9ab432U, 0x3ebbb9923e8fd3b2U, 0xbf45348ebf3d9132U, 0x3f017d0a3f45bcfdU,
  0xbf295c40bf8c1770U, 0x3ec682153f1143daU, 0xbe40a73fbf80313dU, 0xbe83703ebec77d4dU,
  0x3f54a26ebdcf8f42U, 0xbdbb743e3ef85a45U, 0x3f1fad733f17e195U, 0x3ff922f43f52f630U,
  0x3c57b781be939c85U, 0xbdefb6593faec29bU, 0xc02175febf90d2aaU, 0xbf096ac6be78ed36U,
  0x3e8525f0bd6007c9U, 0x3f1e68d3bdaa8d4cU, 0x3d833de63f65279bU, 0x3cfb9b48bd93d1b8U,
  0x3ebb9a123fa985f6U, 0x3fd009adbfa90555U, 0xbfd82cfc3ef11326U, 0xbed6185f3dac1340U,
  0xbf856897bf76f6caU, 0x3f1a1ba63e5d3394U, 0xbf0759e3bf865760U, 0x3db6401c3fb2d9f8U,
  0x3f47edafbfa668d1U, 0xbf95a871be58c55aU, 0x3ee7652abe0326acU, 0xbe23b1c83fa5c9bdU,
  0xbc2f07abbef96da9U, 0x3e64531bbe5eaaf8U, 0x3ebc24984003198bU, 0x3f476f3f3f68c4d4U,
  0x3f8b65f2bfb78950U, 0xbfe2476fbfde9dcbU, 0x3fe890a53f49ceeeU, 0xbfb3bfa73efa5728U,
  0x3d915767beea1194U, 0xbd1d820cbf567b93U, 0xbe270799bf094288U, 0x3ef605a13da07a8dU,
  0xbf6fda36bf5cfeceU, 0xbe33855d3eb01efeU, 0xbecc96acbf39543dU, 0xbdb68930bf1d64caU,
  0x3edaf994bf22d442U, 0x3cf089d83fe31c81U, 0x3f0e3d89bd47df32U, 0xbe0bd591bde39e81U,
  0xbf11b5423f3f7381U, 0x403a0c3dbea76dcaU, 0x3f2fbd6cc00e04ceU, 0x3ff1ecbac06da1c5U,
  0x3d5b86943e1979efU, 0xbedc67163fa7660eU, 0xbdae9758bb5952c0U, 0xbf31e6b63f3fd7c2U,
  0xbe1e4af8bc8b8308U, 0xbe1cb1f4bf1f1426U, 0x3fb7c74cbe9c5ad0U, 0x3d5ed7f43f662b12U,
  0x3e7af1eabea82854U, 0xbda3adc03fc378cdU, 0xbeeee6723fa0bdbcU, 0xbe670fc2bda8fc9cU,
  0x3e95e4683e632a6cU, 0xbefcc361bd9cd110U, 0x3fdb922b3e1f1a5dU, 0x3f3464eebf391e34U,
  0x3e0a40c1be2c78eaU, 0x3eb7a2f63e8d2f90U, 0x3e2a65ef3c61156fU, 0xbe18a929bf0135b8U,
  0xbed4dcf03b011bb0U, 0x3e448417bcbae62cU, 0x3e82311c3ede6b99U, 0x3e5d9c54bef0664eU,
  0xbef2a62b3e4ed359U, 0xbe84de343e1239a0U, 0xbe00fe04bdf260ceU, 0x3de31f473ea5170eU,
  0xbf29b619bed863b1U, 0x3d2fc96e3d8dbb87U, 0x3e0e80ab3f1f45f6U, 0xbeaddc54beabf0daU,
  0xbd5c0d8c3e01107dU, 0xbd6b312b3e4e8e2eU, 0x3db5f06e3e13f41cU, 0xbdfa78b1bea12ee4U,
  0xbdc63ad5be92a7f4U, 0x3e24174cbe9e2984U, 0xbd78b5acbd6a5879U, 0xbdb8f551be4557c1U,
  0xbe5a102c3de73cacU, 0x3c7bb977becd419cU, 0x3ec928483e47db13U, 0x3dffbf7c3e85ef99U,
  0x3edf5c313e6259c7U, 0xbe6370333f0dc404U, 0xbf1d89773ec3ad70U, 0xbda471b2bd10d851U,
  0xbc0420b5bd33658aU, 0x3d29d53f3d71f424U, 0x3d91ba20bc1bbbd6U, 0x3d44e930be245038U,
  0x3d8ce3e0bd0a20c4U, 0xbdc918a4bd741425U, 0x3e412e77be32357dU, 0x3e3c5a45bb73a5b7U,
  0xbafb94323e4ff9b5U, 0xbd9840083c2dcbe4U, 0x3ebbfb2cbe1240eeU, 0xbc38c45c3de4cc13U,
  0xbdad5e0fbe3205f8U, 0x3e7f28913d425caeU, 0xbe3e5502bda482a8U, 0x3d6f332b3d06c7dcU,
  0xbeac6546bd888218U, 0xbe3fc7133efc2d98U, 0xbcb93b213dff70c0U, 0xbd21ad29be704828U,
  0xbf13ad9a3df26d21U, 0x3e6c7764bd34bfd1U, 0xbefab81abd0971ddU, 0x3ee71c3ebe35f895U,
  0x3dc9187ebe915bd9U, 0x3e4b101ebf1c7173U, 0x3ec0d4ee3f0e6dbdU, 0xbe6e94d03eb42b3fU,
  0x3d9c68f93b68f962U, 0xbea767103daa254fU, 0x3f9cd13dbf423854U, 0xbe4ce0c13ec6be8aU,
  0x3dda3978be377193U, 0xbece324ebd4f79edU, 0xbd996027bd73a274U, 0xbe3714ca3d6c4385U,
  0x3eb397cabe9e87daU, 0x3d94c2a63d9ed794U, 0xbd9f6a4bbd23034aU, 0x3dd462c4bdd5f925U,
  0x3f63ffbdbe2ad6e9U, 0x3e2d1e49be14456eU, 0x3e7aa9243dff7e89U, 0xbe4fa81abe3a87daU,
  0x3ebd3ea83e5d2a47U, 0xbb94f71ebedccc15U, 0x3ee057d63c4054c1U, 0xbb027a943e57a757U,
  0xbd7b60283de734a9U, 0xbddc21ffbe59c310U, 0x3e03a4c43d970fc7U, 0x3ca2cc37bb76134cU,
  0x3d5187b93b0b9839U, 0x3dc9dab4bda3c9aaU, 0x3c603dba3de33ab8U, 0x3dac3d43bdc0f071U,
  0x3e30ae413e332d7fU, 0x3d824befbe3e19c9U, 0x3dc39c823d73d39dU, 0xbd9139e33e350e7fU,
  0xbcfd773e3d92d44bU, 0x3e0847c7bbb578d4U, 0xbdb4bef83d11f08fU, 0x3d8f02343db0c92bU,
  0x3d9fb0993dbce1bbU, 0xbdfa282bbd8c1092U, 0xbe0e0d933db7e83fU, 0x3e9433993e89ecd9U,
  0xbd880e1f3e3c9d8fU, 0xbdd3e8b8bee73727U, 0x3e609b3abe05d837U, 0xbd60e976bda2f3bdU,
  0x3e1f03a23e1788c1U, 0x3dc5f77d3db5a1f5U, 0xbe56f3d83d2366e7U, 0xbe036d2dbde2bf9cU,
  0x3c116b28becb9048U, 0x3f3612523d04ed74U, 0x3cfe7e55bd6f295eU, 0x3e8de633bd3be47dU,
  0x3e8831e33e3b6d8cU, 0x3da354203c982e56U, 0x3ea118a63e078befU, 0x3ee8bc333d9010a7U,
  0x3d72e5c43dd0bcf2U, 0x3f010e1d3e2379ecU, 0x3e0a2278be128738U, 0x3e05fd6fbe315789U,
  0x3e30767dbeaadc49U, 0x3dd9ddc0beae974fU, 0xbcdd15183efa17e9U, 0x3997c9cfbd507f71U,
  0xbc8168753e2d0941U, 0x3f1490933eebc90cU, 0x3e749d803e8c8fb1U, 0x3e1b29adbdf14987U,
  0x3da1369a3d8fe5e1U, 0xbdacbc4fbd3b9b50U, 0x3d202111be2e258eU, 0xbe19197a3e2df621U,
  0x3d8fcc22bd7087efU, 0xba1e9b193e4672a8U, 0x3e3bb2d2bb302c5cU, 0xbe435df1bde827a9U,
  0x3d2f3fbabe98d2b8U, 0xbd6d0bed3e814872U, 0x3e9ce3dc3e22e86cU, 0x3eaa5ee7bd8d0580U,
  0x3df816493e2e8db3U, 0x3e1001fcbd02e5b7U, 0x3e177032bc533fdfU, 0x3f32111bbdc470efU,
  0x3d58ec963da5147cU, 0x3d7334d03d10d5dbU, 0x3d5a13663df2f7deU, 0xbcd98593bd5bfc41U,
  0x3c96e3abbbc128a4U, 0x3d51bc393d0c04fbU, 0xbe125f90bd247fbdU, 0x3c69fbb2bdae3d59U,
  0x3b7ca6473d175860U, 0xbba43f8bbe286262U, 0xbdd079903d509551U, 0x3cd24fcf3cec06f1U,
  0x3bd21be53db77c07U, 0x3d7fc5883d2e19c6U, 0xbdd732ea3dd9001bU, 0x3b7654d1bcf99c88U,
  0x39c93fd0bd36f682U, 0xbd156f2a3e5a774aU, 0xbdb69d4cbbbcd875U, 0xbe18e24a3ddea8fcU,
  0x3dbc5004be04c5efU, 0x3e1cf95a3e83cd3aU, 0x3ab254f6bcb9818aU, 0xbd329196be2c3a95U,
  0xbd363089bc410aeeU, 0x3dd5aa023e0d8798U, 0x3be3d73cbca34dd8U, 0x3e3912db3df688d0U,
  0x3e2990f33e00dad0U, 0x3e1bd800bde4458bU, 0xbe2c93edbe20882fU, 0x3cabab2d3d9cbfa7U,
  0xbbb4178f3cecb5b5U, 0xbe89b6923e3c1a83U, 0x3d1f71febc3bbbd6U, 0xbd43297cbd3d1c8bU,
  0xbe2ddac5be89a991U, 0xbe33e02b3d3d4b54U, 0xbe2d8b893c3ce8d9U, 0x3c254c42bd2336dcU,
  0x3da78be5beae8179U, 0x3e193badbe3668eeU, 0x3e335b96be2fa413U, 0xbd0117fabe8e6fd4U,
  0x3d85b086bed45060U, 0x3e2df7cb3e1f3f7bU, 0xbdad7fa3be2e7321U, 0x3e299399bda54380U,
  0x3e98cdb1bdb305feU, 0x3e6ce70bbe742403U, 0xbdaf972cbdaec86dU, 0x3e0dfd82be2b10ebU,
  0x3dfaba083e7ae2b4U, 0xbda307b03eaf9de2U, 0x3e6a64aabe817602U, 0x3dce3d4dbe997736U,
  0x3e76c4833e92a7f9U, 0x3e3cbbe5be89046dU, 0xbc31a1ce3e3f465eU, 0xbd800b33be9b99c1U,
  0x3cd2a5d73e81a480U, 0x3d9117b3bdf9435cU, 0x3e901e63be16bdebU, 0xbde75ac33d654537U,
  0xbf2b0ead3cb752c1U, 0x3e736a0abee48ba4U, 0x3df0bb123bc653eaU, 0xbdb7ed8d3d8993c8U,
  0x3ead79bfbe4a9326U, 0x3ce7f1f0bdf8edbcU, 0xbe110080bb7471f3U, 0xbb888c053c32262eU,
  0xbc11ce84bede8e73U, 0x3dbe61a9becdcc16U, 0xbeddfe2ebde980a6U, 0xbe293171bdca3c3aU,
  0xbe0c4d3ebe3b3f05U, 0xbe3eccafbe0949feU, 0xbe5685a5bdf6ac40U, 0x3d72eee83ebf3ac4U,
  0x3e004af93df6178cU, 0xbeac0c5dbf4d8bf7U, 0x3d3172f83d64f6daU, 0xbe0932a03e2fce77U,
  0x3cc1888e3d5cde65U, 0xbdf40a75bed6c54bU, 0xbd931aa73f1221e2U, 0x3e0f3081be9280a0U,
  0x3e920fc6bdb7b85bU, 0x3d53e355bf0afe99U, 0x3eb4ad62be6319a1U, 0xbf1148793edc8f15U,
  0x3ea306bebd62c198U, 0x3dea17583e8551d0U, 0xbd89c698bd96705cU, 0x3e0d2a053e090523U,
  0xbb5b41b03df4e5ddU, 0xbd361d6e3a2c563cU, 0x3e25795a3e9a284dU, 0xbc3e8aadbdd92a45U,
  0xbdbaadd63d63d20cU, 0xbd8323db3d225fceU, 0xbc49005fbd370152U, 0x3de4cf8cbccaaf67U,
  0x3d012e543b0a912dU, 0x3baa7ded3d3f9e50U, 0xbca8e7c33b273926U, 0xbd7bffc63cba06b8U,
  0x3da4fa7b3d718b4aU, 0xbb39f8b0bdcbb782U, 0xbda8eec1bd38f78aU, 0x3e611d963e6e288eU,
  0xbe006f613de7deb5U, 0xbe1ad02bbe48161fU, 0xbd4dd80fbc61a207U, 0x3cc1e7fb3dd31ef1U,
  0x3e1b53eabe37296aU, 0xbc3ba7353c34f10bU, 0x3d85b730be7df873U, 0xbe1b637d3e6e17d3U,
  0xbc110bf4bcff0994U, 0x3ea8a423bcc25589U, 0x3d8d6762bce86c19U, 0x3dacb0543d06c068U,
  0xbd9062133e53cd01U, 0x3eb21d34bd89ceb6U, 0xbd5e7e98bddd7a60U, 0x3f035e41bd28c216U,
  0x3e943b323df9c28bU, 0x3dd873ed3e1417b6U, 0x3e45a5583e0a39b4U, 0xbe3464293de6b49dU,
  0x3ddecaa8be28f576U, 0xbe39f26a3cf95bdaU, 0x3e13531bbe5ffad8U, 0xbd95338bbd829577U,
  0x3e4706ff3ee58915U, 0xbea54cfbbdfc9147U, 0xbea2395ebe19ca1aU, 0x3e8b439fbeb52429U,
  0x3d39ced23e9139d1U, 0xbf121e04be66121eU, 0x3f05b34bbf0a5925U, 0x3e259317be15f261U,
  0xbe6a12ffbd2a2dd8U, 0xbe4bbb543e223745U, 0xbb51f12d3c45227fU, 0x3de2a484bdc4f01eU,
  0x3d1c3230be92b7ffU, 0xbe0acdc1bd1110e9U, 0xbcba36e0be2fd110U, 0x3d320d773e237bcaU,
  0x3e1187f93ec85c72U, 0xbe59625abb182b86U, 0x3e3d5d3e3d82f757U, 0xb933d348bdf22415U,
  0xbe68f5a73eb387e0U, 0xbdbc1f993e314976U, 0x3ca3e00dbc963615U, 0x39a583623cc82a38U,
  0x3d6de3dbbdb25360U, 0xbe9fd51b3d6d4c21U, 0x3ea2c9ee3e3d3fe9U, 0xbeb367243defdb20U,
  0xbc2847d23da23e4bU, 0x3e85dbc0be3fe81dU, 0x3e8b10b2be46cadeU, 0x3f104538be58efcdU,
  0x3d85e4bdbe846072U, 0x3ec6c317be4d5975U, 0x3d91a5d83eeff0b7U, 0x3d8fe3efbc932d31U,
  0xbd9fa106bc8aaf32U, 0xbe4c801ebe2e41d1U, 0x3ce6a5df3e83736aU, 0xbdbd00283eb4ddb5U,
  0xbee84743bddb1292U, 0xbe109de6bdc59817U, 0xbd5aee6bbe378014U, 0xbdae7b7abcb68bc7U,
  0x3eac23ed3ed90189U, 0xbe2133b43e234e73U, 0x3e3288c83ee36998U, 0xbe45f5e6bdb4e9b8U,
  0x3e31f2733eeb045cU, 0x3f1626853d88d4d0U, 0xbdb72e623e423634U, 0x3ebc5a853f7fc46fU,
  0xbee1aee1bed62020U, 0x3eb6c25c3ecd4611U, 0xbd9536b0bda995bcU, 0xbd976e5fbd602a5dU,
  0x3e0745cd3d17a584U, 0xbe1115c1be150127U, 0x3db36f413ce277feU, 0x3b433e053ce778a0U,
  0x3d1dad3c3dbbd82cU, 0xb95876773e5c2168U, 0xbe212950bc82e9daU, 0xbba0a3123b7463ecU,
  0x3dd5ca923bca1060U, 0x3ec8a5c8bdcd6109U, 0x3e32210abded1cc6U, 0xbe172733be0df054U,
  0x3ddd54663d106761U, 0x3db58d16bb23c61bU, 0x3d47cb43bd4ab7e9U, 0x3d8efb85bce05fb9U,
  0xbe44d423bd8d355aU, 0x3dcca6cf3e343e00U, 0xbdfe1aaebc1c6dd5U, 0x3ddeff60be03e9d8U,
  0x3da2b6723e21fc61U, 0xbdaf71eb3e1cefa5U, 0x3d0846d5be5ec2bdU, 0x3d439ca73e056645U,
  0xbde549fabe321b97U, 0x3d8a4cf23e23daa4U, 0x3cf0cd9d3ec2cea1U, 0x3d7640c4bdf8bc90U,
  0xbdf7e51cbd3dc1b0U, 0x3cd31e28bd07fbe3U, 0xbcc54eebbd82c814U, 0xbb4d7dc7bdb468edU,
  0x3ed01dd3be598620U, 0xbe0fc4463d8a62aeU, 0xbec5e431bde961f3U, 0x3d3bb1473e80e314U,
  0x3df714323c49a5adU, 0x3e4b27bc3e172537U, 0xbf365332be2b6b93U, 0xbe16e9a7bc30a4c3U,
  0x3e636f96bd678889U, 0x3e8f74e7be19835cU, 0xbe0344bbbddc7cfcU, 0x3eaf83a4be9021c9U,
  0x3e4e53e33f09fefbU, 0xbd23bc11be3a484fU, 0xbeb7beb7bec0bd12U, 0xbe6c280e3e2f8677U,
  0xbc9e9995bdec29b2U, 0x3c383fadbd9d43c6U, 0xbd80f795bd902de2U, 0xbd0e2393bda70b99U,
  0xbd0870993e1fd9baU, 0x3c3db1d93d07c829U, 0x3defface3e0f5bc9U, 0x3d89427cbe1dbc16U,
  0xbda083b83d0e2efcU, 0x3ea1aa3b3db347dbU, 0xbe4f559cbb3cb049U, 0x3c6955193ea129ccU,
  0x3e4247f13e456a25U, 0x3e3291f7be1c2c9fU, 0xbde588ecbe0b95ffU, 0xbdac6ee43e1bd020U,
  0x3eb32013bce65e7dU, 0xbc3cdebd3d1800c9U, 0xbde09cf1be7b254cU, 0x3ec0a6923c627fe8U,
  0x3c98626f3b820437U, 0xbeda921ebe54afb1U, 0x3e9093e23e8cfe5aU, 0xbe98f0223e87ddb6U,
  0xbd5a757abdab2eaaU, 0x3d83060f3d98d874U, 0x3e87b8e6be87a127U, 0xbd4298a33e092ca7U,
  0x3cc80a5bbc8c624eU, 0x3e2b807abdacf19dU, 0x3e8de882be8f2cceU, 0x3ecf1a66be756ea6U,
  0x3e82b70cbd2fd146U, 0xbe0fd5f0bc91b421U, 0xbbec36763e54c65fU, 0x3d9560ecbd9d244dU,
  0x3d6231ee3f06b03eU, 0x3ec02cfc3cb38ac1U, 0x3e6bb30bbe9bdeb2U, 0xbe3ba51a3e976260U,
  0x3e3abeca3e8fae4cU, 0xbe80bb02be72c4deU, 0xbdf473ec3da16d8eU, 0x3f311d453e0c3a05U,
  0xbc181336bb2b13beU, 0x3b57e2f43d04ca9aU, 0xbdeb1bd8bdb82f01U, 0x3d9e76283e56f442U,
  0x3dd21b8c3ebbb679U, 0xbe060561bd2c3eedU, 0x3ed3bc923ef1c560U, 0xbe35ed223e5957c1U,
  0xbed268dabd76d576U, 0x3e129e30b92d1d99U, 0xbdb655f23cca664dU, 0x3ec5499cbdfaf00eU,
  0xbe26b56f3e34b195U, 0x3d1b7ca0bdce238dU, 0xbe39554e3e8bf30bU, 0xbced249e3d24715cU,
  0x3da5972b3e0989bbU, 0xbda3c5a73e0578a7U, 0x3d651c1dbe3ee399U, 0x3e6c511fbe489ff0U,
  0x3e3d6babbb4719e1U, 0x3eb0daa3be9f7407U, 0x3cb02de9bdd72351U, 0xbeeaea353e8680b8U,
  0xbe7889893d9b1b88U, 0x3ef0421ebd86c827U, 0x3d8ea96dbec59519U, 0x3d8c2fcfbdff9ddcU,
  0xbdabfcbe3e5fab26U, 0x3d88eb323cd9f172U, 0x3e811d30bce25423U, 0xbdaeca9f3d1f63e5U,
  0xbcd6bbdf3e91cb81U, 0xbe1b56963caf6032U, 0x3e85bf92bcbac0d7U, 0x3cd0b51a3e164a11U,
  0x3e1ca05f3cd1cb63U, 0x3e6f96b73da6d974U, 0x3dc10623bcf707d8U, 0xbe98a8143d6a0e61U,
  0x3dd6291abd2a8df9U, 0xbe281009be298c2fU, 0x3edf878b3e038457U, 0x3b7aec79be4aeba2U,
  0xbad298683e782f6dU, 0xbeb971dfbeb8a937U, 0x3e77793fbc6aa2f7U, 0x3ec8e7b3becb30afU,
  0xbe347705be710a2aU, 0xbed90a743e3112f5U, 0xbeb9252a3f0ff152U, 0x3cbca41abdb77232U,
  0x3e214f2b3de9761eU, 0xbb5eda07beec9946U, 0x3e542a72bdd596b1U, 0xbea25dbabe9b6118U,
  0x3dedee17be7d0c65U, 0xbe416358bee9de0eU, 0x3e00d68d3f208de3U, 0x3e83b424bf340089U,
  0x3de784e6bda3e691U, 0xbe8f7595bd8d055eU, 0x3d2cc61abeec8ea8U, 0xbec5fe383db7fbcaU,
  0x3e854a9ebf488693U, 0xbe2cc5ebbbf8967eU, 0xbe2e93f3be3ed3eaU, 0x3be64a163b6d1dc2U,
  0xbebd746ebca5ad86U, 0x3dc9a87cbd8377cbU, 0xbc2e663dbe0639eaU, 0xbe157a67be655567U,
  0xbd96cf4f3e9935c1U, 0x3cf1743a3e9625a0U, 0x3e7a40ba3e4f8f88U, 0xbd2f73433e5bd930U,
  0xbdf31616bdd6e5dfU, 0xbebc330abd84d77cU, 0x3edddf72be52ac0fU, 0xbdc8a74a3e2ec6dfU,
  0xbe45e370bd80675aU, 0x3e9ab3853d6708f9U, 0xbd845d57bd5798f2U, 0xbde6e3f4bc8cc6b0U,
  0x3ef24f033e156034U, 0xbeb1b2e23ea73c0fU, 0x3ee3c4d7bea33294U, 0xbface200bb83e450U,
  0x3f36d885bfb7edd4U, 0x3f818cf83e316f60U, 0x3ff488de3e7464d6U, 0x3ea2bb733f24de1eU,
  0xbe519d9d3dc6bacfU, 0xbedaf9d03ef9e1efU, 0x3ec05b3fbef324e6U, 0x3f65043f3ec51fecU,
  0xbf58344f3f0d2447U, 0x3e018829be490916U, 0x3e7b19303e091ab8U, 0x3ec160443fe4d1f3U,
  0x3eb3b7f23dffee18U, 0xbc9e258f3e58122dU, 0x3e8d64903e80a3d8U, 0xbd652834be84527bU,
  0xbd29aac33e7196a8U, 0x3e5b4f5e3e412decU, 0x3e8b0b14be7a7fd0U, 0xbeb0cf053ed18ef0U,
  0x3e5e50b2be6951ffU, 0x3dad1ac93e73d3b7U, 0x3ed23ae4bd483890U, 0x3e7f6c563f04ca0cU,
  0x3f10f1493e40de6eU, 0x3eabbe403ece7e62U, 0xbe0652ec3e754fdeU, 0x3ea2365f3e95cb6aU,
  0x3d35f4f83e26c454U, 0x3e95a9ae3e7fef7bU, 0x3ea2d36b3e322447U, 0x3eaa79703e1af027U,
  0x3e788f413ef45c8cU, 0x3e2c5f873de9234fU, 0x3f18b4d33df46f04U, 0xbf26aaabbe80c968U,
  0xba9e68793f9955bdU, 0x3ed9f683bf7bd048U, 0xbf34f7b7bdf82890U, 0x3cc37d203eb952e8U,
  0x3f2267b8bed5a5d9U, 0xbf2672583d357c4bU, 0xbd09b50c3ea3af49U, 0x3de724dcbec8a4dbU,
  0x3dc201d93e597a1aU, 0x3ecaecd73e70378cU, 0x3d9d06e13df3c653U, 0x3cbb08d23e285a8bU,
  0x3f3021ed3f329d10U, 0x3f3d84483db461b1U, 0xbd86ec8b3f20d02cU, 0xbd529cbf3e338e29U,
  0x3f094523be5a2e9fU, 0xbfc1a6e4bf3639adU, 0x3d48c6983f887130U, 0x3f588c95bf98ad71U,
  0xbe8c61793f40d553U, 0xbca15899bdb0abcfU, 0xbec90cffbe2e38adU, 0xbeed5b24bf192168U,
  0xbf24ccbabf0fe9feU, 0x3e96bf1abe8ecc32U, 0x3e82736f3ec00688U, 0x3f2d3d473ec36a0cU,
  0x3e3a896e3f029ce4U, 0x3e8b16433ecdcf7eU, 0xbe75c13f3deed284U, 0x3d54dad0bed0f017U,
  0xbec3bdfdbee9ff5fU, 0xbe967818bdee4128U, 0x3e8aa499be89ea4fU, 0x3e0670b23e8fee1bU,
  0x3ed8d08e3e997b47U, 0x3e3863133e52dd57U, 0x3e113f933e767537U, 0x3e97e4383e1002f5U,
  0x3e2eb1693de6a717U, 0x3e66a8183edf4c3dU, 0x3e4766e43daeb32dU, 0xbf15e96a3df47a4cU,
  0xbea10910bf68a8e1U, 0xbfd64e5ebf5229a2U, 0xbeb329c5bf4e3151U, 0xbf10d99cbf4cfde6U,
  0x3e3a41663e226966U, 0x3e9635e13e090b91U, 0x3e9375923f00753eU, 0x3ea93a383e3dc83fU,
  0x3e23e1b53e073ec6U, 0x3eb4d3e13e2bb560U, 0x3edb6671be8220edU, 0xbf255eee3f11610cU,
  0x3ee48a173e7ac54bU, 0xbf05e281beb75417U, 0xbec603f3bed1a70bU, 0xbf123e34bf143e75U,
  0xbe1f5cecbe9344f7U, 0x3e15ea77bdea4b8cU, 0x3e6a02783e91d465U, 0x3ed475a03e7403d2U,
  0x3d83035b3e9a2f51U, 0x3e0edde23e241807U, 0xbe43d268bdd1c486U, 0xbe464430be4b0fc7U,
  0xbec8d51fbef4df74U, 0xbe345645be24befcU, 0xbf6f43c5bde7d22cU, 0xbf06a26cbf845f49U,
  0xbd8a04b93e3d4a2aU, 0x3f5c895e3cb5186aU, 0x3ed825d23f29c4b3U, 0x3f2dfcd8bcc9b086U,
  0xbf7566353f6f05e1U, 0x3f1b009c3e5d3e39U, 0xbf02243bbf2594bfU, 0x3e67440f3d2337a1U,
  0x3dd448bd3e81580bU, 0x3ecbd57f3eae96b5U, 0x3e32eff03e294252U, 0x3dbdea3b3e4b3fa9U,
  0xbf0f75afbeb7d9ffU, 0xbecbf386be87f5abU, 0xbf14cf36bf862b70U, 0xbf1e763dbe664eebU,
  0x3ed6841fbf4c6977U, 0x3e22498d3f0fc645U, 0x3f36c4cb3ee540b7U, 0x3dadc8693efa0654U,
  0x3ee90e153ecafb92U, 0xbed707f8be75a75eU, 0xbeb40b1ebe067eddU, 0xbe36b184bf1a282aU,
  0xbe9cec15bdae6e9fU, 0x3e46c900bdadd2a8U, 0x3e6dfcf93ea12eebU, 0x3f1c4a623ee2f31cU,
  0x3e5392763ea3579bU, 0x3dfc95ff3ea6d191U, 0x3e7b71283e1bfa71U, 0x3e6aacdc3e299a10U,
  0x3e63970b3e8d81c3U, 0x3e97050e3e9be974U, 0xbe1f58e73e093a29U, 0xbe073db8be4ccec4U,
  0xbeea67d4bed279f1U, 0xbec73d2fbd8dfaadU, 0x3d4e2e03bec5c835U, 0x3e3d7bd83ee78969U,
  0x3edbfd60be4cc72cU, 0xbec24ab2bdfec0b6U, 0xbe8396913d60df37U, 0x3eb46ab4be9af337U,
  0xbd20e9ce3eb0affeU, 0x3f15bd443ef66a54U, 0x3dc598a43e3001ccU, 0x3e0828ab3e7e67ccU,
  0xbd891faebe0ed15cU, 0xbf46a6ddbf63f552U, 0x3e87d76e3d0549a0U, 0x3d1d70e7bd83b3e2U,
  0x3e57c1c6bda20f29U, 0xbf91398a400cb992U, 0xbedffdda3fa24276U, 0x4099538d3da2af20U,
  0xbeb4d782bda0e07cU, 0xbed350fa401206b3U, 0x3db7b90b3fba06d8U, 0xbe78fc9bbeaaf090U,
  0xbe8e52224066505aU, 0xbd1511543fcac93bU, 0x3ff2f3d7bf084900U, 0xbe23b40bbd19af38U,
  0x3e9717123e1e2caeU, 0x3e70d8cabec8ab34U, 0xbccb9f893dee4e52U, 0xbe24c4293d4ad7c4U,
  0x3d70127abe3f0ed3U, 0xbdd846f8bddb1d31U, 0x3e51b200bcc6a18dU, 0xbbd6c083bdc16f30U,
  0x3e15a18cbe9ff92aU, 0x3da70fa0bcef0dfeU, 0xbb1507fb3e4a1fe6U, 0x3dcdcf953dff0d0cU,
  0x3ce19d7fbe3c602cU, 0x3e3c63693c1b97aeU, 0x3eb3b8a5bdfa01c0U, 0xbe66b4a53c1e072bU,
  0xbe31b35e3e1466edU, 0x3d56db8bbe00c9f9U, 0xbdf50a19bec5034eU, 0xbe03a0b1bb8bf706U,
  0xbea621f6bdccec19U, 0xbe52df89bcaed9c4U, 0x3f07a6423be4e2b0U, 0xbc62d99cbd1e59faU,
  0xbe135d0dbd83e050U, 0x3d6872c33e7c1b15U, 0x3d993000bda798a3U, 0xbb7974063e09532eU,
  0xbdc402d1be3bc9e5U, 0x3df335fbbe6eccf6U, 0xbde05b67beda8ad5U, 0xbdf70d6e3d7747baU,
  0xbd84cc4fbe040ec6U, 0xbe264231bd8f0335U, 0xbdec17543d3fa226U, 0x3dfaadde3ddba1f9U,
  0xbe266c983e1fcb0aU, 0xbe231ab33d76d333U, 0x3d1873cfbde78976U, 0xbe79c6893e00f00aU,
  0xbd5053563dfc890cU, 0xbd3130833d69da46U, 0xbd31f93fbe173a17U, 0xbdf7eca2bda13be9U,
  0x3dbf80bfbdaf6bd9U, 0x3d246d2fbccc4afeU, 0xbe1ca884be24604dU, 0xbda40b49bc9bc017U,
  0xbe2442afbdb6bbfcU, 0xbe95fef93d302cf5U, 0xbe813bc13ca7b92dU, 0xbeb37aaebce035bbU,
  0xbe3f2dfabe6567ecU, 0x3e9c316ebdcf4028U, 0x3ef79f9bbd94783fU, 0xbed3dae33e870332U,
  0x3dbe1f55be395f5eU, 0xbe29ffe9bd8349efU, 0xbe252e8abcd16241U, 0x3e09ba2a3e299234U,
  0xbeb20fcebc1affc1U, 0xbe42db5dbd2a1297U, 0xbe2e9c21be0992c0U, 0xbef4363cbdb19232U,
  0xbd599ea6bdc75605U, 0x3d6bf9a93dbe2752U, 0x3d934ca13d60ea2fU, 0xbdec39273d7ae6f3U,
  0x3c81f5fb3ee7aac9U, 0x3dc2dc8e3dd37796U, 0xbb73107f3e28efbaU, 0xbe42cd03bdfdedb8U,
  0x3db5cf113dcf4ea1U, 0x3e920a563d810d86U, 0xbe0900943e90390cU, 0xbebe1589bcff5ce1U,
  0x3eec2279be50e1c3U, 0x3f144f7f3e3996f8U, 0x3d457cd1bda3efd7U, 0xbe22a535bd8d88fcU,
  0x3e6beb393e148c99U, 0x3e604feb3daf3dbdU, 0xbc02914fbe798e5aU, 0x3e24102bbe4ae57bU,
  0x3ed7a34ebe6e11a0U, 0xbde869a43dac36bdU, 0xbd4f73bebce293bbU, 0x3e56cb06bdbc9a4cU,
  0x3cef4dd6be58daa0U, 0x3e8149f63cb69bc9U, 0xbc448ef1bd6e9567U, 0xbe6132563daf9a58U,
  0xbe337fe5ba4c2887U, 0x3e94bdbb3c515363U, 0xbdc0f173be1561f0U, 0x3e968e37be33acb8U,
  0xbe79065ebb42e35cU, 0x3d4411dd3e1ca15cU, 0xbe0f3be63e992afeU, 0xbda6d07c3e28a93eU,
  0xbdd77fa3bd9dc7abU, 0xbdfeb7f9bdb78c7aU, 0x3e30d5b63da8b7aeU, 0xbebefab63e19cb98U,
  0xbdf5e3fdbe845849U, 0x3ec78b333e23b1dbU, 0xbcb774943d9225ccU, 0x3c27dbc73ee3511bU,
  0xbdf97e68becac963U, 0xbef660043c24d948U, 0xbc84cd4bbe990ef8U, 0xbe5696cc3e93def4U,
  0x3cf8ecb03bd13b07U, 0x3dfbc6ea3d9532d4U, 0x3bb3c5313d3efe2bU, 0x3e124e13b9d739c9U,
  0x3d1c2a41bd29b4adU, 0x3ba339423aa34c5dU, 0x3d7bb151bd9478bbU, 0xbdd9a2c2bdaa97d8U,
  0x3bcc4b2cbe047190U, 0x3e738c61bca3c454U, 0x3c909f00bd836944U, 0x3ccb863f3cb88f8aU,
  0xbde5cf5e3d294661U, 0x3d818616bd51e238U, 0xbc33bef8bda27481U, 0xbb9462e0bdbe004bU,
  0xbc946156be4d7430U, 0xbc3541153eae1214U, 0x3e6707633d9b0c8bU, 0x3deaf7243dc45cfaU,
  0xbd5d8f773b8012eaU, 0xbe1ac5babe066dfbU, 0xbe242f85bd2f9293U, 0x3d93a1143e764ddbU,
  0xbd4f2f4d3e211028U, 0xbe447a9ebe15f1f7U, 0xbdb5f1b0bddd74f0U, 0xbdd02ed73d1832f9U,
  0x3d028576bd86f646U, 0x3d8f0f1bbe5aa80fU, 0xbd219a86bd9a67e6U, 0xbe9cb1403e877832U,
  0x3ce93464be594c2cU, 0xbdd71ea9be1f74c3U, 0x3e32a6d3be9d83bcU, 0xbddd40a03e83970eU,
  0xbdc87be1bc6b5a8fU, 0xbf1ba6dbbeab5be9U, 0xbcac89b73e4ba2a3U, 0xbd9621db3f3803c1U,
  0xbd7f04213e8a459dU, 0x3d86adf9bdd1ab8bU, 0x3df5005bbe9fc883U, 0xbd6bb3773e8f50ddU,
  0x3c4f899ebf0ac403U, 0x3de04a98bea379e2U, 0x3de5ff84be791422U, 0xbea1fca33e14c8d9U,
  0x3eb49ca93e47857dU, 0x3eed53053db340f2U, 0xbdb9984a3e95dec0U, 0x3db9b5c7bd7b4d69U,
  0x3e1f49373e9afb07U, 0xbd9de098be2903b4U, 0x3d8721b13d0c3218U, 0xbe5202683eac6e52U,
  0x3c583ee4be097701U, 0x3bdf5866bd2486f7U, 0x3e8baaad3e817160U, 0xbe2b475a3ea42225U,
  0x3c4c20f93e054ba0U, 0xbe6318b93d556f32U, 0x3e2a7c5b3df4d919U, 0x3eab9a06bdc4be7dU,
  0xbe6d40a43d836624U, 0xbde86c973dcfa98aU, 0x3e47a15a3ef2b69fU, 0xbd250431bc185663U,
  0x3d84ca523d81e80aU, 0xbe72bb683c120407U, 0xbdcb850ebbf2877aU, 0x3e57ddc03e0724a7U,
  0xbe5acaa73db5a825U, 0x3e703114bc8898a5U, 0xbbd1af67bd012ab9U, 0xbe97013b3dcb48bcU,
  0xbdcf8fa8bd5d693bU, 0xbe11f16bbe6ef490U, 0xbeb18f08be3eecdbU, 0xbecab2dabd7a6e6bU,
  0xbde28487be7a46c3U, 0x3cb9c9a3bdfd97c3U, 0x3d891c14bddd57ceU, 0xbe9f3319be5a0edfU,
  0x3e71f9c4bd348fc9U, 0xbcaf01663d684806U, 0xbea5a696bdedcd24U, 0xbf18767c3f411c2dU,
  0xbee651123da28b60U, 0xbde2b0b6bf23683fU, 0x3e058d20be213c42U, 0xbd008ae43ec1274cU,
  0x3bceb2ecbdff3572U, 0x3d72aa123e1b76fdU, 0xbe721419bf00dab8U, 0xbe87d5f53eceaac5U,
  0xbd078213bd94d9ceU, 0xbd9e69e23d02fbeeU, 0xbe3845e1bc8d5121U, 0xbbeddcc93d69280aU,
  0xbd51f6353e2c7d85U, 0x3c88f97dbd18ec0cU, 0xbdb39be9bde5ef78U, 0xbdbab4ad3e919dc5U,
  0xbc9e67363dd85896U, 0x3dadf315bdbdab94U, 0x3cb2bb873c5a7b9bU, 0xbe045a0a3dd117d5U,
  0x3d789456bc5fac94U, 0x3d69b72d3da5d3b6U, 0xbd85ac1a3c10ed04U, 0x3bf9fda6be01732dU,
  0xbe31ba4b3e073b08U, 0x3e0434263d818185U, 0x3dfd2c49bd73c63dU, 0xbeddb3eb3d02844eU,
  0x3d55513c3e78dd79U, 0x3c1272793e1b3792U, 0xbc0327293daefe19U, 0xbe13fcbe3d264b70U,
  0xbdc86b093ea56093U, 0x3d0698103e38d87eU, 0x3dd7fdbd3e080be4U, 0xbe885d193de9062bU,
  0x3ec207d03d8086a1U, 0xbf14f8d13e178c75U, 0x3e0e428e3eb15af9U, 0x3e03d984bd18f892U,
  0x3d2fd0d4be24051cU, 0x3e0677b23d0edb39U, 0x3dcee539bdab5b6eU, 0x3edbe5643e83ec76U,
  0xbed11355be9720ddU, 0x3e8e05b03d8f7eadU, 0x3da97656be68ed2cU, 0x3f18b2ba3e1508e6U,
  0xbda99c423ed7072aU, 0x3dfa87b53dddd161U, 0x3d4aa728bea2238eU, 0xbe809df63e9111e1U,
  0x3e51d2b3bf02642eU, 0xbea2c5c5bdd4b60eU, 0x3e4b84b1befae947U, 0xbe51875dbb74a0c8U,
  0x3c8baf5dbd49fc7aU, 0x3d950f5a3d939ccdU, 0xbd0b933abe07a73aU, 0x3dd60b513c764976U,
  0xbd2b98faba733d87U, 0xbdacf68b3e4218ddU, 0x3df4e538bdefcbd9U, 0xbde19b013d908078U,
  0xbdd91c31bcd237ddU, 0xbd237fa23d8b8f51U, 0xbaf5d941bda1cb76U, 0xbd5b3d293d3d4efeU,
  0xbcb7041e3dc7ad10U, 0xbd0fb703bca56b72U, 0xbdf0fdf73db77ab9U, 0x3e998129bdb67e8cU,
  0x3dd78c4d3ce9814bU, 0xbe001ecebed0384cU, 0x3e89a9f63f7e0c13U, 0xbddac4a5bd218c06U,
  0x3f3858773e40daf3U, 0xbe9f63cabe4d6ceeU, 0x3edab80ebdcc6504U, 0x3d0f8c26bcaba2fcU,
  0x3f270bcf3e510089U, 0x3ca2b6df3e8b6c20U, 0xbde9445e3d5c51eeU, 0xbf694f88bdbe75dcU,
  0x3dc212233e929907U, 0xbed5f3953e6c21bcU, 0x3d12ec9c3d3f7e76U, 0xbeb30e5cbefddb06U,
  0x3c5ee811bdf239c3U, 0xbd7da79cbe493419U, 0x3dd4107c3de45f33U, 0xbe734353bcca9a85U,
  0x3b5614bf3deb5793U, 0x3e4f95ffbe82f350U, 0xbe0ca3bb3d33a46bU, 0x3db95084bd283fd4U,
  0x3d560a483e542fdfU, 0x3d866cadbd8b83b4U, 0xbd5f499c3ca5b3e4U, 0x3d1e4cc23dfbcf50U,
  0xbd860287be50307dU, 0x3db34e333dd104d1U, 0x3e432088be574000U, 0xbcf5d56d3d9f6097U,
  0x3d211925bf052233U, 0x3e688bb8be97ad10U, 0xbe22e270bccc63f6U, 0x3e16880ebdbb1078U,
  0x3e0e0e99bd65aa48U, 0x3f612f57bea7b03eU, 0xbe5b9bc93aabef8dU, 0x3d672af0bda556f4U,
  0x3e334b6abe4455bcU, 0xbdbb8513bd888505U, 0xbe531eec3ecd6a14U, 0x3d90cb8d3e2b23bdU,
  0xbe54f7b33e8fc4b9U, 0xbeab1e2a3e5d96d6U, 0x3dfbea4cbdff03f9U, 0xbe3c4c98bec84cc6U,
  0xbe0cb84c3d8c8756U, 0x3e668a293d64b675U, 0x3da381c3bc90657eU, 0xbeabdbffbde466baU,
  0x3d27a428bb911df0U, 0xbef156af3df7ca8eU, 0xbe83a6813eb88f79U, 0x3dc4492e3ef61825U,
  0xbd83ad03bddc74efU, 0x3dd91c2a3e1066a3U, 0xbeb82bb03e1f9b87U, 0xbd25ddf3bd9871c7U,
  0x3dbc3500be502cbaU, 0xbd199a46bdb9d14dU, 0x3d06214fbcc161eeU, 0xbe34c54f3e199e43U,
  0x3e3bfbe2be23bb98U, 0x3e8c8e9c3d9a1d3aU, 0xbd8d19d5bd11b174U, 0x3dc524823d943a82U,
  0x3dd829213cbcf0a3U, 0xbea4e5f63ee71240U, 0x3e65f605bebadc4dU, 0x3d9e21173e46d59eU,
  0xbc2828073da3dedaU, 0x3dcbbe7f3ddf9923U, 0x3c13754e3dbfe2feU, 0xbd737c39bd309585U,
  0xbc4791633e11c9c0U, 0x3cca90ac3aa690b5U, 0xbd3f96203f162e45U, 0xbe36f73fbe71a45aU,
  0x3de2461a3c5f58b8U, 0x3dccd773bd5bc519U, 0xbd2fe1293cc84db0U, 0xbdcdd9a6bdba3ea2U,
  0xbea362c2bd70d2b6U, 0x3df848d83e508d7bU, 0xbe9b8faf3d83a60bU, 0xbee01d703f4635beU,
  0xbdaa54823d4f4f5dU, 0xbda6477dbd1768f1U, 0x3dd64e5bbd8aa7d2U, 0xbe1f057a3ea02e86U,
  0x3e355296be37c9bbU, 0x3ee7afe43dddaad1U, 0x3c862458befd2abbU, 0xbe8470113e155c78U,
  0xbd81c8823d35c7d9U, 0xbe2e9bf1bd4aebf1U, 0xbea3a9c43e541a94U, 0xbd892ac3bd9edc82U,
  0x3ca56f01be3bcbd2U, 0x3b59b9bcbc18a7fcU, 0x3e862454bd32b1b5U, 0x3e5f7c31be90106cU,
  0xbdceab3ebe4de901U, 0x3ccf28993e090c9fU, 0x3cec3bc53d989862U, 0x3e357568be877605U,
  0xbe6a08ae3cc7e31aU, 0xbee2641b3e5708e3U, 0x3e01fc843cdf1fa1U, 0x3e234bec3d05cd91U,
  0xbd45389b3e288795U, 0x3de6c03ebd9cb3bbU, 0xbe3841c9be7efbc3U, 0xbc4308e3bc40f7ceU,
  0xbdff191f3ce18c8eU, 0xbe0089373d70a7e7U, 0xbcc52e0abcd9fa50U, 0x3da5649dbe1d5d14U,
  0x3de0c851be6356abU, 0x3d26268a3d703e4eU, 0x3df080343d8a1958U, 0xbe35b6ddbda136dfU,
  0x3c988fea3dd85623U, 0xbd2cd1923d07311eU, 0xbb14f02dbd89fa2bU, 0x3e0c8ff83d978626U,
  0x3da7fe24bcd77ac2U, 0x3ce6498f3e350972U, 0x3bf061143ef3f009U, 0x3f1844f13e0f7938U,
  0xbed66d89bd55e29eU, 0xbef978fb3e21a4f1U, 0x3dccd660bd386513U, 0xbe2d81b6bc5bdee2U,
  0x3ebaf543be8ef877U, 0x3d3cda793da76c38U, 0x3e2ac7a1be25e19fU, 0xbed00f563d0b754eU,
  0xbe2c32113dc7ad01U, 0xbe64a70d3d3aa898U, 0x3d923afb3df0debeU, 0x3e04b5123da0674dU,
  0xbd6dbc523e5aa8baU, 0xbdb2f6453dbe0b58U, 0x3e720d393df9892cU, 0x3d49f9febd45de52U,
  0x3b073bf33eaca1f7U, 0xbcd092bfbe2ab340U, 0xbd45a5233ea10421U, 0x3ea1c079be9226faU,
  0x3dd6cae53dd8ceb6U, 0xbe13de433e38f122U, 0xbdac57ad3da72610U, 0x3e528216bda2991aU,
  0x3e800a9abd83ae63U, 0xbedd8e6e3e23074fU, 0xbc88923f3e2b975aU, 0xbd366e363e2f32a7U,
  0x3e6c3c423e7957f3U, 0x3ea9af503f061631U, 0xbdc57924beaf56f4U, 0xbe13d4ea3df33b58U,
  0x3e2677823f1a6aabU, 0x3e3fb67dbd63b200U, 0xbf000f24bdc411d2U, 0x3e9a4417be0b7aaeU,
  0xbebebd683f05715bU, 0xbeb4566d3e86df30U, 0x3e8a78813e1b1614U, 0x3e7f75ebbeafa43eU,
  0x3e61f8083e1454eeU, 0xbe2fd1653cf87fe4U, 0x3ef5bc8abed4ff4bU, 0xbdd8c6593d05ee2bU,
  0x3ebb223d3ec53c1bU, 0x3e5f4dd5be13d86eU, 0xbdefa0a0be1927f7U, 0xbe6e7fbdbd9c7023U,
  0x3d06ff193da98b6cU, 0xbee35a473ea67f3fU, 0xbedb8caebe8ecd6bU, 0xbde9c6c63eda3360U,
  0x3e80b78ebec77d3eU, 0x3df9f1df3da1f92dU, 0x3ea229bdbdef9bdaU, 0xbf03c5c23eff0848U,
  0xbe4214c73d4d82f1U, 0x3e4d1d8bbe251265U, 0xbe4201f33eeb788cU, 0x3e9a97d2be7b10dfU,
  0x3dc02c49be0176b5U, 0xbcfa8ec13e1b2080U, 0xbe756aa8bdf92922U, 0xbcbea77abe177dadU,
  0xbdf624b3bd66cf06U, 0xbd7c2cb53cba0ff1U, 0x3b9f5675bdfefb7cU, 0xbe7cf80c3f3417beU,
  0xbe02b62abe768895U, 0xbe9f8d3c3e3f3feeU, 0xbe2ccb7bbe2bd09dU, 0xbc47dab43db5d790U,
  0x3d2efa993b96b7f4U, 0x3e4f868fbda66012U, 0x3d0ca562bd04da2cU, 0xbe07c6923e09a4d6U,
  0xbcc89df8bda3f439U, 0x3d803840be0b8f6dU, 0xbc4bae083e874f0dU, 0xbe4fe5e33d9573ecU,
  0xbd3aa8ed3e2f604cU, 0xbe21a2d3bc99ab24U, 0x3dfdb7ca3d3df5d8U, 0xbdf97e9d3e250aebU,
  0xbd9e2a1f3dbe023eU, 0x3b5a13e2bd954093U, 0xbdcee9dc3e0fc23aU, 0xbde481a1be0c0351U,
  0x3d865beb3d765a97U, 0xbe5141773e1bf040U, 0x3dbcb3e4bd896a83U, 0x3da3341e3c06a864U,
  0xbd1b12453e6f94b5U, 0xbdb8a0333dddec35U, 0x3e3315b8be5b9434U, 0xbdaa0033bcb19d13U,
  0x3d562a2a3c9d9fc7U, 0x3a2c01dfbd63362cU, 0xbd03725c3e072c26U, 0x3e491f90bdfbea3fU,
  0x3d36a0cdbd1990efU, 0xbd8525b13d7df49dU, 0x3de45427be1c53d7U, 0xbd4eb7f53ca9b296U,
  0x3d2cdddbbd5a2d1bU, 0x3c8c0eb5be4273abU, 0xbe4beb1bbd5049ccU, 0x3de4f9713c22498cU,
  0xbee879acbe2ef4cfU, 0xbebc5925bd797b6bU, 0xbda38012bdf8035aU, 0xbf1aa1443c8d6a49U,
  0xbef6b91b3ea5b801U, 0xbebd32eabc0eee97U, 0x3e7a15f33e1e9592U, 0xbec1752bbdddfaa3U,
  0xbd7a783b3e9c9011U, 0xbe784aa43e7c4a54U, 0x3eaf0bc33e467042U, 0x3cd203d7bee0e7cfU,
  0x3ee03949bdc81245U, 0xbd31761bbe906b55U, 0x3df30af2bdcd02a1U, 0x3e1080953d6bad9bU,
  0xbde774343e3df647U, 0x3dfb4a4ebcf9fea7U, 0xbd872eb6bdc01b4cU, 0xbe11f6ce3d5e767eU,
  0xbde601b53d1d039bU, 0xbdedc9c73cd2edadU, 0xbd89a7063daf14d7U, 0xbd95ffe23dc0e740U,
  0x3c6d9f22bda4fd65U, 0xbdfa0ff23e278f65U, 0x3d33255dbe2abb89U, 0xbda5005ebd50e56fU,
  0x3d660610bea1bc5aU, 0x3da678a33dcd8aacU, 0x3e05f1453e093e21U, 0x3e0f80343dfdb0b0U,
  0xbada850c3bea5b91U, 0x3e3e87d73da58ddeU, 0xbce32521bd22a969U, 0xbe257afabda266c6U,
  0xbda5f413be8757ddU, 0xbe0e25e939ba41b2U, 0xbe1d09bebd64ff01U, 0x3e7d9b2a3dcf2cd5U,
  0x3ca3d3a3bde58977U, 0x3d1c9e593d25fa07U, 0xbdb8533b3e124c01U, 0xbe26a714bdcf96afU,
  0x3caba803bde8e71eU, 0xbe123684bd370f45U, 0x3e173d6cbe23bdd4U, 0xbd2055563d6256b1U,
  0x3d5401b3bcffb9cbU, 0xbdf9df813cec8f52U, 0x3d93ffdc3cb1a65cU, 0x3e17a43c3d85cc81U,
  0x3dcfc83d3c0d04c5U, 0xbd85a3373cfc9197U, 0x3e3bbf36be035f2fU, 0xbd2cc1943dbd819cU,
  0xbcc2a2723e0eb0b5U, 0x3e283ff73b86eb85U, 0xbc88b51dbca38623U, 0x3d34028abd2390d4U,
  0xbdfa968d3ba86654U, 0x3cfdc335bda73e7fU, 0xbd992d813df723e3U, 0xbdaeb7bcbcb30134U,
  0x3da1deedbe503b7dU, 0xbdd5cf203dfe7d6bU, 0x3e0e9b1ebe2d260aU, 0x3e0a25f63dd32632U,
  0x3c85808b3f127effU, 0x3eb60902bcef88daU, 0x3d71d5eabdb5e532U, 0xbec0e89dbcdf7108U,
  0x3d3bcf463f31fa2fU, 0x3cf20a5fbdfcdb8aU, 0xbe284fffbc02d53cU, 0xbcb0ea603d049e2aU,
  0x3efc84ccbcecf1daU, 0xbdf511af3d875cf3U, 0x3e1fc7533e0fc724U, 0x3c793e643dc5fa72U,
  0xbe980ea0be78ccd9U, 0x3c724b43bd35e5ddU, 0xbe59564d3d026c10U, 0xbe318021bd0be354U,
  0x3dddb165bd94eef7U, 0xbc5f99b6be3fb5b6U, 0xbd8d302cbe20e1b6U, 0x3e09b1583f486b93U,
  0xbe1ef378bef2cfb8U, 0xbead10803e963f33U, 0x3d47185cbe8a27eeU, 0x3dead8f33e870b36U,
  0xbdb218d9bf438effU, 0x3d82c63b3e41a417U, 0x3d67cd353cf8e01dU, 0xbe842625bdf054ceU,
  0xbc9645de3d83d5ccU, 0xbe7d5b8b3eef69e7U, 0x3e043a10bec7773fU, 0x3db8a9143cd06932U,
  0x3bc6f6183e124b9bU, 0x3ea7d70bbc89a2a3U, 0xbea62e53bd787ef1U, 0xbee9b2b53c523c53U,
  0xbe31b740bd8d4e1eU, 0x3e71e25cbef39f41U, 0x3f1392333d0a244aU, 0xbe21ef423e3963deU,
  0xbe2920323e4c9f66U, 0xbe149960bdc8efa0U, 0xbe8577debd9a8123U, 0x3f2946e5bc723af6U,
  0x3c24aa5a3d2f4e29U, 0xbd5f16da3d926630U, 0x3dd4f5e4bd3257bdU, 0x3d32d98e3d1dab61U,
  0xbdb525843e56520bU, 0xbd7fa281bb43bc72U, 0x3d44951dbdb9aefdU, 0x3cb175cf3c1215d9U,
  0x3ca21ad33e6fe0f3U, 0xbe2bb4a1bd48a21eU, 0xbd80bb34be15e539U, 0x3cd42233bbed3ff6U,
  0x3e2079823cba1eadU, 0xbcc232c6be033476U, 0x3d3d8e943e52595fU, 0xbdb82bff3e069416U,
  0xbd8e9e9fbd2c73baU, 0xbb69f3a5be800fbeU, 0xbbba27f3bf00afcfU, 0xbeabb984bdbf50f8U,
  0xbdb41304bd985e5fU, 0x3d2f7dbc3e4c4025U, 0x3deafc0d3e1557afU, 0x3e83cdb5bd21f2f6U,
  0x3db1053c3e1548bbU, 0x3decce4a3dbc7954U, 0xbc1caaf3bc1610aeU, 0xbe367a0f3e56a32fU,
  0x3d2504273e130594U, 0x3ecacc0fbd1a02baU, 0x3dd5b81dbd87c7c7U, 0x3dcb630fbdecc94dU,
  0x3e122db33db0a281U, 0x3e477b4a3d9e2196U, 0xbc2ead1cbdf38b5fU, 0xbe10415fbe2004ccU,
  0x3db9207c3d0d9385U, 0x3d8795fabd95ea5bU, 0xbe59d880bd42f23fU, 0xbe258debbeb29091U,
  0xbe6eeea1be54820aU, 0x3f28bf613d22e16bU, 0xbdc9464d3df4ec83U, 0x3e3d6eb13cc7e13eU,
  0xbe7715073e371293U, 0x3c329b563ddaaf3fU, 0xbdf922f8bd61f9ebU, 0x3dc04e84be224c45U,
  0x3e017b873a549beeU, 0x3cbd06193e671997U, 0xbe837772be369933U, 0x3c9b54073e208051U,
  0x3c0cbd0a3e0a8584U, 0xbebadb0c3e8bf8ddU, 0xbe84850b3ea5ce52U, 0xbed4fb663c8b04e3U,
  0x3d16375f3e137d3cU, 0x3dba34c1be792f09U, 0x3d533985bbe48cebU, 0xbebe0cc2bde570b2U,
  0xbd988256be44c57dU, 0x3bd6f381be04e43bU, 0x3efba582bde6f3baU, 0xbd1c3193bdbad5ddU,
  0xbe467d92be411820U, 0x3d6610edbd06c416U, 0x3ce728c73e4b32e1U, 0xbe96eb643e23d4e7U,
  0xbd8714e23ee67a3cU, 0x3e8af678be262f3aU, 0x3e5c0e5e3debb8d7U, 0xbe10dcba3d43252dU,
  0xbd33e297bbc88766U, 0x3f101f26bd1a0e98U, 0x3e0b46f63e960003U, 0x3e9d8cfb3e39eba7U,
  0x3db395473eb2752dU, 0x3ee5e8e8bd038ba7U, 0x3dbc49723dcc0556U, 0xbea8a9913dfae9beU,
  0xbe3f1575bebdb78fU, 0x3e0b5486be66acbbU, 0x3e6be62fbd6e5ca2U, 0x3ddc8f79bdb9be9fU,
  0x3cf6dec53d176975U, 0xbebf4cc33cade349U, 0xbe375c1bbdf53596U, 0xbe82fe753e3fd973U,
  0x3d0e10fc3e3141d4U, 0x3eb015fabe90caa6U, 0xbd930497be8cc726U, 0xb9e484763e3f287dU,
  0x3cb4a796bc92df46U, 0x3e92256c3e05e479U, 0xbcb3a71a3e2a4540U, 0x3e89773e3e5d8539U,
  0xbda168ab3d654b3eU, 0xbbff65ef3e270620U, 0x3b863b55be6746dfU, 0xbca16f84bca0ebe2U,
  0xbd0f06743d31f352U, 0xbd2ae17c3ccdb892U, 0xbd33e9413cd034c6U, 0x3c644e043d69be57U,
  0x3c305485bc71a504U, 0xbc91e118bb094476U, 0x3e2404fa3d83d6ddU, 0xbe075b8abd5820b4U,
  0x3d3aaa7ebd578d73U, 0xbe7bfb76bd169eebU, 0xbcdd472ebd6ee6b1U, 0x3da6f069bdeff7d3U,
  0xbdbb443d3dd90673U, 0xbd5d919d3ddf430eU, 0x3e4916eebba1eacbU, 0xbd08ed40bc5eb738U,
  0xbe2f10b63d00440fU, 0xbea3ed523cc1e171U, 0x3e9791ba3e908ad8U, 0xbd3831643d790d16U,
  0xbd0183cebc717b9aU, 0x3d1c4b51bee32255U, 0x3d11af8ebe4d09b1U, 0xbd71dc1abce7669aU,
  0xbcdb27d6bdde8316U, 0x3db8daec3d699dd4U, 0xbcbbe511be948050U, 0x3eab41e43e6448d1U,
  0x3dfc0afebdb2b5cbU, 0x3c61d77fbbd23a1aU, 0xbd08f2e6be2a5a20U, 0x3e5787463e1a6b4aU,
  0x3df36308bcb4a87dU, 0x3c611fb3bd5b8522U, 0xbe3fdb66bc0b89f9U, 0xbcaf592dbd024f3dU,
  0x3da959da3c83447cU, 0xbe47713dbda9515eU, 0x3d1719d33d69242dU, 0x3e9e06163c799cfbU,
  0x3bd89b793d8e85b5U, 0x3d3fe4ebbe2c5746U, 0x3e90a6073d009c06U, 0xbdebdd47be24d8a5U,
  0xbe0df4f7bc599b5eU, 0x3f00967f3e55cb16U, 0xbe4082d3be41f16dU, 0xbdf8ed40bdfa9f66U,
  0xbe45a1b9be1b5e39U, 0x3e95d5efbdcdf32fU, 0x3edfb66b3e0c76fbU, 0xbed9d2823de3d833U,
  0xbdb8d2d53e66b8a7U, 0xbdecb7e93e545662U, 0x3dab35ac3eb29e27U, 0xbec43d6b3e54a57dU,
  0xbd32f7c4be5b8292U, 0xbcdbdd3e3e1a6636U, 0x3f12c551be743195U, 0x3e3a92a9bd8976b2U,
  0x3d5e32db3da74b4bU, 0x3c8212373e600655U, 0x3954d25bbda9f123U, 0x3ce108e23d3c4c28U,
  0x3bb570bbbd3e42f0U, 0xbd5b9c483dc96684U, 0x3e3648eabd03bce0U, 0xbdc3acc83cbf170cU,
  0xbdb3d18dbda397cbU, 0xbe1a3e0b3bdc63beU, 0x3d728a23be1e11ecU, 0xbcc593fa3c3ea3c8U,
  0xbda9098d3d56aa1cU, 0x3d1e035fbdc76cddU, 0x3c8bc1613c8e9d23U, 0x3e99b8f23d017c98U,
  0xbe4389a33eca4c75U, 0xbe2f7f51bf1196fbU, 0xbea3bfa03ec5cd8eU, 0xbf2f26b0bcaecdecU,
  0xbe8a32093c2c9d60U, 0xbd9b75de3f5ad51bU, 0xbf232e923dbbf115U, 0xbe1040453e9c8139U,
  0xbecce5edbe9a18b2U, 0x3d84b928bef0022dU, 0xbf033f62bf128b27U, 0x3e29e9af3e1d0f30U,
  0x3e856377be86466fU, 0x3e6ec0923f914458U, 0xbe4a8d0c3e877ec5U, 0xbde4ac373e6c5f0fU,
  0xbd62a8313dce48e7U, 0xbc099c32bdf21205U, 0xbd24ed81bcfe3f1aU, 0x3d04776e3c876967U,
  0xbc70dd1c3cfb67dfU, 0x3dbd127ebe8f0c8fU, 0xbe01551b3ceb86f6U, 0x3c26fa673d6ec4c2U,
  0xbd1ee729be2bd7ecU, 0xbca2344d3dc652ddU, 0x3c252bc9bcb547d8U, 0xbc41f82dbdae6f91U,
  0xbcfe117abe3f6b8cU, 0x3da7959f3d32954dU, 0xbbe1ed9bbd23a03dU, 0x3dcca2dbbd1b8193U,
  0xbd59f0173e1f089cU, 0xbe37f3f6be393878U, 0xbca1987c3df514caU, 0xbe1db5643d3e3dccU,
  0x3e0c70d13cedf370U, 0x3e890089be957d1aU, 0xbdaae7633d37d883U, 0xbd1833a73e84dcacU,
  0xbda99c15be18930fU, 0x3bb947d33e8d0cd6U, 0xbb28e4c53e32fbf2U, 0x3d8a4f20bdf26ae1U,
  0xbd52f1cabe986850U, 0x3d27b81c3e3593fcU, 0x3dbd53743dab2ed5U, 0x3de401dc3dbe2f2eU,
  0x3d3065043b4289a1U, 0x3c77c728be1c80c1U, 0xbde143ac3e0f12c1U, 0xbd5a95443e8e277fU,
  0xbdc2d79c3dd04a8cU, 0xbe0d4b74bd0716d4U, 0xbe1c3db2be037763U, 0xbde5d308be1fb4f1U,
  0x3dc24a363d6c775dU, 0xbc4095b83d77fb29U, 0x3be22642bd070d85U, 0xbd938bcebd06f083U,
  0xbdb515b8be95468eU, 0x3d8685a8bdb2ae87U, 0x3ebf9b81be27fffdU, 0xbe04f1ce3e82cadeU,
  0xbdd05a46be44e5b9U, 0x3d9200e43e530440U, 0x3df1bbd7be069940U, 0x3df5c1bdbcbd02b8U,
  0xbe458d8ebe25c542U, 0xbe9e7146bd359e80U, 0x3de58b8cbe7e5017U, 0xbe1c8bd13e92e848U,
  0xbdd363953eae89faU, 0x3df4d4323dc62991U, 0xbd91bcbabe94278eU, 0xbbe63958bd71b229U,
  0xbd84bfaabd9d208eU, 0xbd937754be411b6cU, 0xbe119cd9be82721fU, 0xbe151872be0751c5U,
  0x3d245272bda898f9U, 0xbcd9ffb8bd7dcae5U, 0x3d4079e43e6dc965U, 0x3d292df53db516ffU,
  0x3cc717c4bd73b6efU, 0x3d7b9fe6bd960339U, 0x3da59c8c3d037535U, 0xbdb773383cfe66f2U,
  0x3d1419493e18288eU, 0xbb8c532a3b390cc9U, 0xbc9d7e86be07ccb7U, 0x3ddddf18bcbdeffbU,
  0x3d372ebb3cb6ef62U, 0xbd91b596bcf878ffU, 0x3db5d0a2bc8aeb3dU, 0xbe30b1b03c4d25dfU,
  0xbe6ad4b93d9623beU, 0xbd8173143e2eb043U, 0xbdab1c8abea69574U, 0x3e396655bd2c6a3fU,
  0x3cc65baf3d5e6436U, 0xbe8c57263e1d1ed1U, 0xbeaaaf9ebe15f52fU, 0x3e6a347bbb13da2dU,
  0xbe46b3893e3683abU, 0xbe0f5a99bd77d8d8U, 0x3e93899fbdb82394U, 0xbe8c8cda3deab73cU,
  0x3d92f979bd0e6879U, 0x3de99adbbe990cd6U, 0xbeea39a7bd865d3eU, 0xbe06b169bdefe531U,
  0x3cb40ce83d76fbd4U, 0x3e1a9f333d705d98U, 0x3e45d3003da0b043U, 0x3dafd9dfbc2df761U,
  0xbc04ad11bca24279U, 0xbd043529bd2fb2b5U, 0xbd8967adbdaf6cddU, 0xbdcf3026bcac8c35U,
  0x3cd98dc1bdc907b3U, 0x3e919ba1bd2c8e64U, 0x3dfab363bc14e4c9U, 0xbbdaef843e01d603U,
  0xbda33ebebc0a40e4U, 0x3e3b27f93d3eb40eU, 0xbb0623f0bcbd7eebU, 0x3d86e215bbdf7723U,
  0xbcff140abdc3b5abU, 0xbe341fd53d695d5cU, 0xbe2718003e40ec1dU, 0xbef9bcd7bd5e2cd7U,
  0x3daee82bbeee472aU, 0xbe1e7879bef04437U, 0x3d387a2f3e6624fbU, 0x3e214cf9be73a586U,
  0x3e0e64b4be57dfd8U, 0xbde783c53d3f53e1U, 0xbe226abbbe36a096U, 0x3e9ea1353e3cde9cU,
  0xbe651df2bf0819a5U, 0xbeec2d0b3d48687aU, 0x3d342c2abe0e4bf8U, 0xbedad29cbbc4b1b7U,
  0xbdd641d13d003e8cU, 0xbc965bd23dc79193U, 0xbba3082a3ea327a9U, 0xbd5bfb923ddd90b8U,
  0xbcb8ef65bd6ba446U, 0xbe13f2abbcb10a9dU, 0xbc76706cbe859de6U, 0xbe33cea83e01e201U,
  0x3db56bcf3e6d4dc0U, 0x3e9ab5a2be881d83U, 0x3d8f5339bddcca9fU, 0x3db641c5be1751f4U,
  0xbde16a463d6dd41aU, 0xbd1fd27a3e2220ecU, 0xbe5c91663f03ef32U, 0x3ae40d8abe5d52abU,
  0x3badd6e4be85223dU, 0xbd00d2573e4616dfU, 0xbce56941be73c425U, 0xbe0e0a703daf370aU,
  0xbdc2a9503e741e45U, 0x3d2fe44cbdfae521U, 0xbd4d9f86bcb498c2U, 0xbd593ccb3cf8a4d9U,
  0x3c0a24b5bc082614U, 0x3e40de003deac2d0U, 0x3e4857a6be17b6eaU, 0xbd2585eabe1f01a5U,
  0x3e28dad0bdbec510U, 0x3ebfc16ebc837029U, 0xbcb85b1d3e8afbecU, 0x3d67208fbe23377dU,
  0x3b838b84be77f47cU, 0x3d2fbc193ebd0c95U, 0xbe63a4f53ec1606fU, 0xbdcfdc64bdc12b27U,
  0x3e6ec44fbe0aa45cU, 0x3da7b1b1be2e1a22U, 0x3e17af0f3e5e3119U, 0xbe70784f3e1680ceU,
  0x3de2c8393ae2fd30U, 0x3ea20154bb8b032cU, 0x3cca8c5e3e7a3687U, 0xbdf886ce3e421ab2U,
  0xbdde1ed2bde4c2e1U, 0xbf077b55be1c81dcU, 0x3da2e14f3e8d7407U, 0x3e92de73bd7c8361U,
  0x3e84435c3b747d34U, 0x3bf655d3be0ba6abU, 0xbe0516913ebd67b8U, 0x3dddd303bd402841U,
  0xbe2cdc7abd260a55U, 0x3e88c570bdf29e25U, 0xbea8b67f3c95972eU, 0xbc5951353f065e44U,
  0xbe264b79be1ffd36U, 0xbe9b66f9bc0b3653U, 0x3c52be67be587851U, 0x3e2805373e16d364U,
  0xbdd9fa093e4de230U, 0xbcffd338be23afd9U, 0xbe7ab738be0693aaU, 0x3e0f6b8a3e293a46U,
  0x3e7b7247be72fd70U, 0x3e7f36b5bd66ed25U, 0xbe02f9af3eba3718U, 0xbe6bb8f13e6e8b28U,
  0xbe8cfda8be66f0efU, 0x3cbacace3cc3bf18U, 0x3dee281d3c5bbf3bU, 0x3eee8a66bd5decfdU,
  0x3d6223e63e9ca334U, 0xbe5ecf1cbe445a7cU, 0x3bddd4adbdc3011bU, 0x3f039e5b3ea7ee43U,
  0x3ec5efa8bdbf2d6aU, 0xbf5b4c553e3e4cceU, 0x3d114920be46301cU, 0x3df89e5fbca373cdU,
  0x3fbe816b3ddfc68bU, 0x400263213fa01643U, 0xbda0ff71bf56c24aU, 0x3f25f7453fb9895dU,
  0x3f5ce5793f463941U, 0x3f786270bf8b7060U, 0x3f058aa83fd08f81U, 0x3df2a1753c7a9624U,
  0xbebee2f73f06a201U, 0x3edc94723eb59ba2U, 0xbf1a324f3ed54f48U, 0x3f4136ccbeb21a6eU,
  0xbd37b61d3f813c24U, 0xbf689a30bd60cd5eU, 0x3ee2b99c3ec4580bU, 0x3f73fb5e3f0b141cU,
  0x3f0080d53fab4f66U, 0x3e5456eb3f632e4cU, 0x3f637951bf266c7cU, 0x3ec68ac43f309af5U,
  0x3f386a6cbeb72d7aU, 0xbfec66963f75853bU, 0x3f9d71a43d5771ecU, 0x3ec3ad6a3ee64ff2U,
  0x3ee2d9b7bf4ff9d6U, 0x3f4975953ed64af0U, 0x3f6fd58f3cf44e24U, 0x3ed227773fb32f5eU,
  0x3d172f343fc26efcU, 0xbca7f53a401f2f66U, 0x3d3f5784bded83faU, 0x3d15ccfd3db12118U,
  0x3ec5e0f33d8d6d28U, 0xbf40790cbec0f2b1U, 0x3f02633b3f73e9f7U, 0x3f4465d3bf0ea840U,
  0x3e91aacf3ee93360U, 0xbedae92abdb26400U, 0x3f4486653ecd2961U, 0x3e6ce3503df3783bU,
  0x3e795c903f008808U, 0xbeab3737bf632e86U, 0xbf87ea623ee49702U, 0x3f3f40fa3c9961abU,
  0x3ee23adebee6ddb7U, 0xbeedcae13f0a18b4U, 0xbe929cd8be6b4955U, 0xbedcbbb2beca0d3bU,
  0xbd254131be435862U, 0xbec6069abe933d24U, 0xbe4dcf51beec7655U, 0xbed32ad1bebce13cU,
  0xbe9d8e14bf4cc592U, 0xbdc79dbdbe551c5dU, 0x3e5077aa3d0b6571U, 0xbe486c35bd29b038U,
  0x3f6767f13e0d693cU, 0x3ce577ff3f434022U, 0x3e1214193dead32cU, 0xbe941a163de64a04U,
  0xbf409db3be0ef0bdU, 0xbe5adde4bf18f5a1U, 0xbe969647bf31d37eU, 0x401dcb01be38b8eaU,
  0xbf8ba659bfb26302U, 0xbfc313503f0d832bU, 0xbfa05388bee458bfU, 0x3f8d30bcbed1266aU,
  0xbe4e0fcbbf576162U, 0xbddcf09b3ef3415bU, 0x3ca1a6eb3fde9868U, 0xbf3f3526be65091fU,
  0xbe487996bea72b5dU, 0xbe28d339bd779decU, 0x3f650f823e2b1806U, 0x3dd6c7c63dbd8a8aU,
  0x3d89ed723e793e7cU, 0x3f6e63fc3ea680f1U, 0x3ee52773be73a617U, 0xbf0aed023dde16adU,
  0xbf32ce2cbe83220dU, 0x3d40669e3d89c688U, 0x3e55e0823f8bdf23U, 0x3f0c39423e03c019U,
  0xbf3f3f253e25a0dbU, 0xbf84d7dcbfb03261U, 0x3f5b10febde97f7fU, 0xbf1d97133e427a51U,
  0x3f3530363ca4ff14U, 0xbf4ac016bc663930U, 0xbfd7fc69beedebf1U, 0xbfa60da83f69f42fU,
  0x3fa4092ebf302c53U, 0xbd8fa7febed5946cU, 0x3df7fe55bcfe9cccU, 0x3e97353e3e33e268U,
  0x3f0d5447bf1f0b6dU, 0xbf9902df3f8390a9U, 0x3e452444bdde2e50U, 0xbe5f9805be097d7cU,
  0xbe948119befb6218U, 0xbe8dfcbabedbb2b7U, 0xbeb927eebe905520U, 0xbe0f5f59bc6a42eaU,
  0xbf320e11bf7c14abU, 0xbf36cfc43fa2a398U, 0x3f812be9bed2d363U, 0x3e6f0438bf0b9ad0U,
  0xbe7b870f3f6f2b9aU, 0xbebd5b57bdfba545U, 0x3e6e0e743e187ebcU, 0x3e9b8d15ba3046b3U,
  0x3e2ffe193f149714U, 0x3e775807bf48b8e7U, 0xbf6bbeca3f0b5bb3U, 0x3ef0ba173ef90e8cU,
  0x3f595c6ebf513cdeU, 0xbe9250fa3dc14b1eU, 0xbeb5ed99bf79c0eaU, 0x3e085fad3e5b4038U,
  0x3e11457fbd63de36U, 0xbd5f06343ebd0830U, 0x3f3e4964bed76914U, 0xbfc0b1323e41ac89U,
  0x3f2cbe9e3ebe5b35U, 0xbf17d2c4be7ec792U, 0xbf1857df3ed41781U, 0xbe2263a6bf3d5a84U,
  0x3f95715e3f7b7803U, 0xbf02ef02bd527ba2U, 0xbde97908be3b750dU, 0x3e6d7c803f948477U,
  0x3d842f2dbee8b2deU, 0xbe5c5ac2be9f8012U, 0xbc4ea7dabf0b2d24U, 0xbee528da3dc25609U,
  0x3f8179cd3cf9a4cfU, 0xbf3adbef3c8f9de9U, 0xbee2fe9e3f0977d1U, 0xbe192359bea15e4eU,
  0xbf561cee3f1ad18aU, 0x3f69a3c33e837795U, 0x3f635aeec004b10dU, 0xbf96f2893e6ede94U,
  0xbd807c213ec6d4d7U, 0x3d9c1ef63eab2431U, 0xbee2b264be0a6a33U, 0xbeadef1d3f9649acU,
  0x3e40f437be7d3acfU, 0xbf094b96be092b68U, 0x3f2290e2be59e1f2U, 0xbf26a2cebe27340fU,
  0x3f1f89b13f78d14cU, 0xbe982dfabdf9dd43U, 0x3e065eef3d686340U, 0xbe95b3eebec21479U,
  0x3de8c296bf016bbcU, 0xbed09553bd216f3eU, 0x3ecf95a03e4e8d89U, 0xbf39d04f3c6ed771U,
  0x3f44832b3e8b4a7fU, 0xbece6b98beb6add5U, 0xbf17f473be516a2cU, 0xbec8e49bbf010fbbU,
  0x3e6104833f012759U, 0x3eac8739bf7a1430U, 0xbe6405bc3f100296U, 0x3e93ab19bf0c965eU,
  0xbd03d9dd3f7ed967U, 0x3ed704d43f8757dbU, 0x3e9897c23ea039ebU, 0x3e06db3cbf6c3062U,
  0x3e3f594fbd6ddfecU, 0xbf2bf730bee35c88U, 0xbef261943f89a400U, 0x3f8d5666bf418d78U,
  0x3ebcaac53e301202U, 0x3e9eea133e0a1151U, 0x3c0aaf323f37b7dcU, 0x3eadee293e849c72U,
  0x3fa4db193dde6494U, 0xbe9a25c63fb52fd4U, 0xbe026d2abbb43173U, 0xbf218216bea757d4U,
  0xbe546b27bf7ed7b8U, 0xbfc367a2bfb4c018U, 0x3ed8d435bdf98eccU, 0x3e46571c3fb0fbc1U,
  0x3fa433313eb14230U, 0x3ccb5f0fbef8dc19U, 0xbf10a3bc3f7720f6U, 0x3fc69924bf336bf9U,
  0xbf669e393ef60947U, 0x3efdeebcbea945acU, 0xbe936e0bbf1da368U, 0xbe48c0c73eee55f1U,
  0x3c80e2dabf2d8c8cU, 0xbe23f9933dca20e3U, 0x3b828aaabeaa71f6U, 0xbe403227bdd758d7U,
  0x3f88929b3db84c51U, 0xbe9915e7bf3bd767U, 0xbecf50a3bf383e0fU, 0xbda0717cbe7d65d5U,
  0xbd6af37cbeaaf791U, 0xbddc3ce9bedab19dU, 0xbe8a196abe2d0684U, 0x3ff8531dbe87c668U,
  0xbf2b504d3d0c6245U, 0xbf211c33bf0f76c4U, 0xbf12d299bd6b304dU, 0x3e8717c1bdaf8d35U,
  0x3f868d1c3ef998adU, 0x3e08c6eb3e3dfe00U, 0x3e60f3473efa3573U, 0x3e92ce54bcb86b61U,
  0x3e878a073ca56ff8U, 0xbe8f793cbee51d6bU, 0x3e8414ab3fa27b4aU, 0x3e6d7a7cbf8fb4f2U,
  0x3cd1a56e3e993762U, 0x3e03793fbec33506U, 0xbe94fecbbdffb6adU, 0xbc91fe373d30c39aU,
  0x3f54d6d13ec95ddfU, 0x3ea6ef663efe61b7U, 0xbdcca0573eb30397U, 0x3e9216563e957e16U,
  0x3e532021bd6edbfaU, 0xbe32ff81b97cf135U, 0xbf48b306bee73224U, 0xbf1d650f3ec83cc8U,
  0x3eba377d3ddbe639U, 0x3d58126ebdd14561U, 0xbfac7bc2be1191dcU, 0x3e781ed7be985406U,
  0x3fcb01f2bde571c9U, 0x3f0de8ea3f43bd39U, 0xbf3843a23e927d81U, 0x3e9c7e82bf0c74f8U,
  0xbf9fdc60bcd07c6cU, 0x3ed22d7d3f7cda77U, 0x3f5c286bbf323c18U, 0x3f32fe703dd7d455U,
  0x3f521e683fb2be4dU, 0x3dd35a7abe07700dU, 0xbf2f594ebf0695e3U, 0xbedc4366bf8bf55aU,
  0x3e0f12373d921026U, 0x3ee9dec63ddd1760U, 0x3dbfd3cc3f2376b1U, 0x3e55bb183e345c28U,
  0x3f9b94543e38d24cU, 0xbf3daea9bf6d154fU, 0xbf00f33f3fb30387U, 0x3f2d5756bf269d09U,
  0x3e016177bed71cffU, 0xbd45107a3e3dc9eeU, 0x3e69c1a8be1e8d25U, 0x3cbd8bce3f52a598U,
  0x3e9dfed6bd36bc8bU, 0xbf8b06c03d055ce1U, 0xbf41bd48bfc4a69bU, 0x3e800c40bef7b9f4U,
  0x3f3016203fa3e9e1U, 0x3f3cca153f83497fU, 0xbec7be403f34911fU, 0x3fc2413dbf085efaU,
  0xbed2b0fabdaae936U, 0x3ddbb6b3be47b2aeU, 0x3ecb943dbf288928U, 0xbe6f51f03ec0433bU,
  0x3ee3a3863f5a4394U, 0x3eede91dbe378e26U, 0x3d1aeb0fbe37c5a2U, 0xbec4b8453f0c5d3eU,
  0x3f439947be6ac8b8U, 0xbf284bfa3bd2bcc2U, 0x3def8d663e4fd132U, 0x3f57ebf2bf6516ddU,
  0x3e69a62f40278d29U, 0xbf26fca2bf7da3d3U, 0xbe75d182beb488deU, 0xbe9299d6bf82236eU,
  0xbede4251bf11333bU, 0xbe8cd896bee7ec6cU, 0x3d7db218bec8de31U, 0x3f9868ee3ed5bff6U,
  0xbeb6a5623e8b48e3U, 0xbff68c6f3fc1e623U, 0x3fc8b7cfbf32c875U, 0xbd2c7d873d872ac1U,
  0x3ed7a5dabf32fd5bU, 0xbf43b3423e4db059U, 0x3dc5db9ebd8a820fU, 0x3e986635bf128308U,
  0xbe0e73acbf28fb0dU, 0x3f09ab6fbf13b07cU, 0xbe32fac23f6b1e0fU, 0x3b812da4bdaed11eU,
  0xbf231691bf263694U, 0xbeca7f53bf2f2c86U, 0x3e2e4ca43e32d110U, 0x3e136d843e43305eU,
  0x3f205d153d6d70bcU, 0x3e402a593c2b4616U, 0xbe4ae2bd3e48d07fU, 0xbe4b5173be3505c5U,
  0xbe6ddf05bea24992U, 0xbf096ecabe9fa395U, 0xbe92e639beb856cbU, 0xbe3e4ceabee252b0U,
  0xbf459a613ca94696U, 0xbc9b5655bf38ccc8U, 0xbd1d0d273df0dd65U, 0x3e3789733dab27a8U,
  0xbe405e953f534699U, 0x3f2c73603e1521f7U, 0xbe5857eabd82ac4eU, 0xbd8445cc3e5b8129U,
  0xbf9d3f29be92701aU, 0x3fc2e5c93e8141eeU, 0xbf42a0ec400a9ae6U, 0x3ff56c873fbdc476U,
  0xbe8788b1bd646d48U, 0x3e2ec37cbe0a0178U, 0x3f27e9dabe16e290U, 0x3f9e5d96bdba533eU,
  0x3bb5d4a63e42baa6U, 0x3f45c646be49b8d5U, 0xbe0ebf063e0423d1U, 0x3f170918be2d84f5U,
  0xbf1660e73f8a8446U, 0x3f792c58becbc05fU, 0x3e96e81cbe7c2e58U, 0xbd10fa48bf904038U,
  0xbecea7a1bfc9d959U, 0xbf5ff315be905eecU, 0x3e89fe4a3fb139e9U, 0xbd2592043f9f2ffeU,
  0xbf29f2e3bfbbdcd8U, 0xbf59212fbe7ebce2U, 0xbda94a883f802f03U, 0xbda38a7cbd69f748U,
  0x3d949998bf913449U, 0xbe9751babf6b1cf7U, 0xbed56d9ebe71cdbaU, 0x3e378c643ef446ebU,
  0xbe25c1ae3e1b35d5U, 0x3e86a7cd3f9b30ccU, 0x3f939cd9bf48306aU, 0xbf515e283fa44d0aU,
  0xbc1b5a0d3e72c959U, 0x3ee174a93e01d848U, 0x3d14a36fbf1da54dU, 0x3eaac2dc3eb133dcU,
  0xbe3b8afa3dd48550U, 0xbdf47b79bcbdcf91U, 0x3e71aa39bdc3ba0fU, 0x3e950f3d3e9e4a62U,
  0xbe0a87dfbedee0c4U, 0x3defe63dbd9866aeU, 0xbd09d96abdebcb02U, 0x3e8ac386bca3fcf3U,
  0xbe3d41ed3e6552a7U, 0xbe5f5dcd3dd6dbb1U, 0x3de3942f3db0b85eU, 0x3f0b9ecf3eb17032U,
  0xbd62da973e9b5b26U, 0x3db1bd083e9f4fdeU, 0x3e00cb51bdfae2b2U, 0x3f2b2fee3e8f75c5U,
  0x3bb52ae1be0eac23U, 0x3efb89693d4c9f2dU, 0x3bc956c13e134ef2U, 0xbe1b00413e807e63U,
  0xbe74ac983e5c420dU, 0xbdc873e6bdb94e78U, 0x3e5d30f93eb3dd6bU, 0x3c327f0e3e8622c3U,
  0x3e999a593dc8ebedU, 0x3e30b9a93da5b7c8U, 0x3e1b80383e5dd8bfU, 0xbe90f67a3da163d4U,
  0xbd8f3ebdbb844392U, 0x3d9c389dbdf9b62eU, 0xbe347392be897ec9U, 0xbd12c2e8bc951b58U,
  0xbd750179bd0a2233U, 0x3d1d954f3deede4cU, 0xbd8c4ea0bd79c82aU, 0xbd182fd03dddf812U,
  0x3d6d76bb3e31a0f2U, 0x3d27c1063db8a5b2U, 0xbe78ca2fbe0d0cf6U, 0x3e3f74633c961c64U,
  0x3db8d8273db7dd6aU, 0x3d6f3e3b3d00c56eU, 0x3ce5f7033d6a82eeU, 0x3d27ff6a3c7e6ae5U,
  0xbe30bc4b3e1cb115U, 0xbdd9fc463e20bc30U, 0xba0e1dfdbe152bb8U, 0x3dcb0047be245d06U,
  0xbb81b509bdd35e1dU, 0xbe9656eb3e130223U, 0xbe168a3dbe06075bU, 0xbd4229b6be4b95f7U,
  0xbd94ef723e1f2778U, 0xbde26f793c36bd20U, 0x3e38b21b3d824868U, 0xbe0565d7bc8764b4U,
  0xbd8d2b6fbe3ff98bU, 0xbdace578bdcde415U, 0x3be07df93dc98091U, 0x3d878ee43d9b6fb7U,
  0xbd094105bd9aeba0U, 0x3cb46f71bd2c7103U, 0xbbd13f92bda1a4a1U, 0xba2619c4be273258U,
  0xbdb127e63c3e1f06U, 0x3e0990773de840beU, 0x3d82ebf4bc8d6bd1U, 0xbd67d77d3d96ab7eU,
  0x3bd6babebe218c51U, 0xbdc9c6d0bdc1298dU, 0x3d80accd3d8c4ffeU, 0x3cd0b6343d54f892U,
  0xbceb33f33d7451b0U, 0xbda5f412bdf9d419U, 0x3d0c9eb0bb9aa753U, 0x3d98b763bcf6d273U,
  0xbd93e056bdc0e61fU, 0x3e0d4b51be016e73U, 0xbbaa2170bd7b181fU, 0xbd53a602bdf57002U,
  0x3cb8fa65be21bb50U, 0xbcac414a3a29a3daU, 0xbd91c310be1ad4a7U, 0x3d88388e3d797fc3U,
  0x3c9d6cbabd98f70dU, 0xbba2a37abcff3248U, 0x3ba22856bde0cbfeU, 0xbe02e4f43d8a5dcdU,
  0x3d6004643d2c88c3U, 0x3e3a2f7f3d659a67U, 0x3d110eab3d926973U, 0xbd737587bdbea240U,
  0x3c1da494be2633c5U, 0x3eaf16043e8b3a3bU, 0xbccd24b83d0d680fU, 0x3daa13f13e88d7fdU,
  0xbc4e25cc3bad907cU, 0x3f016f32bc57ca66U, 0xbd9b576ebda8be17U, 0x3d4086033dbd0154U,
  0xbed96dd93e775a25U, 0xbd72014d3b83770aU, 0x3db1a337be5c298bU, 0x3c9f3dfa3e50f806U,
  0x3c7e3ef2bc8d9df8U, 0xbe8605133da02180U, 0xba9ab7413e04507bU, 0xbd9dba1a3ec2f6aaU,
  0x3ea8d2803e49c758U, 0xbe7792833d8e815eU, 0xbe0148993d84deafU, 0xbd488fa73d021482U,
  0x3e2ef99c3f13c25aU, 0xbe868a6b3e7aab32U, 0xbd4196823e0725ddU, 0xbd9cb973be55508fU,
  0x3e53a7763ec1e013U, 0xbd21c6c93e42bd49U, 0xbe068e0dbdd689c2U, 0xbe2386a9bcf33a9fU,
  0x3e252c9b3ec033beU, 0xbd66985abe9c059eU, 0x3ef3c989bde865c6U, 0x3d05e07f3e7614f1U,
  0x3d73b270bec5d049U, 0xbe21537fbd231258U, 0x3db0a1573dd96674U, 0xbd7d7a853e3f1c07U,
  0xbda9b35dbcc6cc4fU, 0x3edd392abe098c01U, 0x3d60ca313e835abeU, 0xbdf43cc3bde24c91U,
  0x3c94bb79be8e71dfU, 0x3e81e8e3beb9a7f5U, 0xbd0b919dbe888bc7U, 0x3cd319b03dada480U,
  0xbe912201be14729aU, 0x3d9aef79bd5b9618U, 0x3e02d871be0c6debU, 0xbe3b4cf7bd948fc8U,
  0x3de137cfbb99c0cdU, 0x3d8fce353eeb2c00U, 0xbda00648bc46403bU, 0xbcfcd8083e50992aU,
  0xbe60aad23d5bfc48U, 0xbdb063813e21d459U, 0x3e1d6a19be0d62c0U, 0xbe2c3031bd2cc70bU,
  0xbe0b867f3d869c2eU, 0x3d64fc3ebcefc54dU, 0xbea96d3abe84bdf6U, 0x3e7efeba3c9de14fU,
  0xbda39c613ed82aceU, 0x3d1b4a97be79794fU, 0x3e3154a4be385597U, 0xbe1e4dbcbd62e5bfU,
  0xbe47d24a3d5078baU, 0x3e1a48193e405a72U, 0xbdabce0f3e685901U, 0x3eb7a5543e89e888U,
  0xbbe71adabd0f76b3U, 0xbddb3f5abd84b34dU, 0x3e840819bee2c484U, 0xbdf6ba913ea341fdU,
  0x3da9dbbb3ef76f0eU, 0xbe352bad3e7d931cU, 0xbd874a8d3cba767fU, 0x3e707e903c8912bcU,
  0xbcac71603e129dbcU, 0xbd23d45d3d455c8eU, 0xbe6c249a3d756494U, 0x3ea8e5993f0472f8U,
  0xbe0381423dda3efaU, 0xbdbbddc23e35e389U, 0xbc9b7df6be99be04U, 0x3d86b2983d2494bcU,
  0xbdf48d79be3b409fU, 0xbe32f6debe249aceU, 0xbe27e8df3dc9ade6U, 0xbeb259c33de13ee1U,
  0xbe856645bdbfdcc8U, 0x3ed589aabe7dfefbU, 0x3dd011d83e86d949U, 0xbea102a53e13ad33U,
  0xbec2166cbdafa8d8U, 0xbe0080f6be8575baU, 0x3d5d407bbd995335U, 0x3df91aa73e871014U,
  0x3de165acbe071f21U, 0xbdb92061bd8ab566U, 0xbe48b628bed64e08U, 0xbe33a6a4be04d5e3U,
  0xbd7b2a15bbccf9c8U, 0x3dbef2123e7c07b4U, 0xbdd7176a3ebbc4dfU, 0xbdc28a82be1facb5U,
  0xbe8efdf2bd68e3dcU, 0x3e1979debdc844b3U, 0x3cc35f263e1f58dbU, 0x3d827cc33e6b3eeaU,
  0xbd854a00bdc9a078U, 0x3d4a1b073d830f11U, 0xbd91057bbe2ffbcaU, 0x3b8e1edd3eb65426U,
  0x3c3ab46ebe6f3144U, 0x3e792f27bd5f97efU, 0xbe7ba76cbe8c1739U, 0xbd4541a33d816700U,
  0xbe0befbbbe8eaf95U, 0xbcf11f3abd7d108aU, 0xbe9714673d54190eU, 0xbea0ab6a3d9fc6dcU,
  0xbe21aacdbd302666U, 0x3ee8be803d9c79acU, 0xbca06089bd47543aU, 0x3d2054813e95a96cU,
  0xbe426593bed199a4U, 0x3e18d23d3e1ab800U, 0x3ca8fe88be942472U, 0xbed70c4ebed5b0d2U,
  0xbd215c5bbd24c7baU, 0xbe16d249bea17691U, 0x3dfd7cd7be4a2257U, 0xbd7f7382bde6d3b1U,
  0xbd9362b13d3f63a2U, 0x3dcaa9c4bda252beU, 0x3e2915bfbe5ef2f2U, 0xbda1acf03cbd064aU,
  0x3d19000abdc13ab3U, 0x3daed01fbd47a1c9U, 0xbe73eb6cbce7c940U, 0x3dc10d4bbccd1a65U,
  0xbb8fa9783e27330eU, 0xbddfab8bbce68a76U, 0x3e0140493d0d4c35U, 0x3e1dcfdebdd22c61U,
  0xbe127b853db7cbb3U, 0x3b159c2dbe34f2c6U, 0xbd99681ebeaac088U, 0x3d11c755be10237fU,
  0xbc5eb2983d7550ccU, 0x3ecbed733dfabe2cU, 0xbe05ed34bdae8c26U, 0x3df24b9d3e59e8a5U,
  0xbda5eaed3df4321eU, 0xbb5f4e5d3d66516fU, 0xbbf185c3be707d82U, 0xbe16fe17bd2abe3dU,
  0x3df40b1c3dce9df3U, 0x3c87a7993dc7c5acU, 0xbe19a6a63d77d74cU, 0xbd846236bd7073e9U,
  0x3e1052cdbe8fa711U, 0xbd6a06b5bd35b842U, 0xbe3486d03cbee655U, 0xbddf6f173e4f736aU,
  0xbe61c510bd11a39dU, 0x3db191cf3d9a9018U, 0xbd524136bdd966faU, 0x3dc63543bdce56daU,
  0xbe2b9863be0390afU, 0x3dd2051bbd366debU, 0x3c8b87b1bd16e55aU, 0xbe0de3a4bd0e2994U,
  0x3c28ceaabe655fe5U, 0xbdad36d8bd920bb3U, 0xbe4f854abddbe2cfU, 0xbe127a50be0d5b0dU,
  0x3d46ccec3e320399U, 0xbc0de1663e47525eU, 0x3d09b89d3bf1d077U, 0x3dc590c3bc3695a9U,
  0xba57d3983b82a029U, 0xbd3a98e63d40c5e9U, 0x3d48afb7bcf9dedeU, 0xbdcb39f03dbe4f97U,
  0xbeaafadc3e430576U, 0xbd989d83be453293U, 0x3d17ead0bdc2cba2U, 0xbd1bc1373d831ab0U,
  0xbe1177c13e8260ffU, 0xbcd614443e06270aU, 0x3e743932bdd01340U, 0xbd0b50b13e3b11e6U,
  0xbc8e6c6abda3a4d7U, 0xbe692a8fbe0f170aU, 0x3e0252e73e3c1b9eU, 0xbe1a9f033e361399U,
  0xbdb0da1fbe27437bU, 0x3ea7d4c23e9492dfU, 0xbc6058dfbe87f1a9U, 0x3e0249993e2579c8U,
  0x3c8fb529bdeaec9cU, 0x3cd66a0f3e140571U, 0xbd0826513c4ef03eU, 0x3d8084ffbddd191eU,
  0xbcc10c8abe90e346U, 0xbe360b343d3b7bd9U, 0x3dbba2323e48c58eU, 0x3d21ab7fbcf5418dU,
  0xbce8d5f13d1d7b1fU, 0x3e0ebe6d3e60605dU, 0xbe11aa523ca78a17U, 0x3dc3f307be211419U,
  0xbe115ec73c80a6f7U, 0xbdc149eabd1f6c90U, 0xbe7244c5bc79dc95U, 0xbcc54e4fbe1ca76eU,
  0xbd5098653d523c0dU, 0xbd948a1a3d9de392U, 0xbc349f913d707485U, 0x3e8acc6abe0ffa56U,
  0x3e514feebcf34a4eU, 0x3eb8f763be4936a2U, 0x3e489a79bd966ec6U, 0xbd8ea326be6f1a6eU,
  0x3d1779cd3d9f8579U, 0x3e17bdcf3e0eb463U, 0xbdd8ab4c3d098cbaU, 0x3e8312423db8dc93U,
  0xbd9433013c73d1e0U, 0xbc9f0fc03e188577U, 0x3e1fdfc3bd38204bU, 0xbc251b69bb0167f2U,
  0xbd3d6b7ebdc92311U, 0xbdc3c309bbec7f00U, 0x3e18ab05bde67d02U, 0x3d1392fa3d602be8U,
  0x3d5fb5bdbcab2f3aU, 0xbd5ae69cbde26021U, 0xbe027a6bbe03bd9cU, 0xbde2f8b13e39f79aU,
  0x3df16e7fbaab7aa1U, 0xbe1d7e523e165d7fU, 0x3d0298943d8684e6U, 0x3c4048d6bce1e781U,
  0x3cb3304bbd0dfa01U, 0xbe25d2c2bd94bbfaU, 0x3e2e7974bd39ae8dU, 0x3e0af17b3d8392cbU,
  0x3cd9fa30bbc59a04U, 0x3de047a4bca33678U, 0x3c3c11e3bd2baf73U, 0x3d89fc1fbd8b7019U,
  0xbd55b338bcd10fdbU, 0x3e3abba73d53d449U, 0x3d133d283c613229U, 0x3e10c2e8bcae2758U,
  0xbddbb979be4faba8U, 0x3deb545e3eba2077U, 0xbec804443d972c6aU, 0xbe48b7e5be97ae6eU,
  0x3d4d5eee3e8491e5U, 0x3db45ed23e69e21eU, 0x3f062fee3e13ab0fU, 0xbe4538a33b43b197U,
  0xbeb1559fbbd46ac4U, 0xbe04db0d3e1ffacfU, 0xbd2b03f83daba1aeU, 0x3d2633c33e8c3824U,
  0x3e69a8c1bc757274U, 0xbcdf9fd83d599638U, 0x3ebd976fbe9ce14cU, 0x3e60d1c0be2adcadU,
  0xbe3d4ff7bf148df0U, 0xbcd211ca3dc47c3dU, 0xbde25481bdbf6f4bU, 0xbd6812a7bdd64341U,
  0xbda181983ccc6ca8U, 0x3dd1b078bcf629dbU, 0xbe5fa82b3e8f069fU, 0xbef967dc3e3be63cU,
  0x3d62a6153d669f8bU, 0xbde993af3f52c617U, 0x3dab56613e2b374bU, 0xbee6baf7be30951dU,
  0x3e3a804ebcbb8bcbU, 0xbeb8e41a3e3124faU, 0xbb4888cbbdcea1a5U, 0xbeb97acabe2ed42cU,
  0xbea59950bd8eb3efU, 0xbce7937abde49128U, 0xbe92f039bb75c532U, 0xbd0514693db645f7U,
  0xbe4f020f3d5ad18aU, 0xbe38d7593e681b9cU, 0x3e84e28ebe48a3f4U, 0xbc00f001bda530a5U,
  0xbe9685873d89626dU, 0x3e38e5a83daf9076U, 0x3ef7430abdcd91a9U, 0xbc3d19ddbe523f81U,
  0xbe0a1dbd3b9f74ecU, 0xbe5492b9be8d01c3U, 0xbde18982bda7dd7bU, 0xbdc39b49be08cac4U,
  0x3ec1f4e4bdf7f9b9U, 0x3d4fc2833e0cb08aU, 0x3e080190bcda30baU, 0xbc905496becd6f4cU,
  0x3e390586be8e8ca5U, 0xbddb29ef3e3796beU, 0xbd204ae33e1775bdU, 0xbd013fb73e8577bfU,
  0x3e64d5333ec2aeb9U, 0xbe07cf9ebe5aea2bU, 0x3ecce97c3ee44b9cU, 0x3e36ad39bdc627c5U,
  0xbe303ffd3e4b650dU, 0x3d0f70d7be003d12U, 0x3db98dfe3d82280cU, 0xbe39459c3c8153b7U,
  0x8d56d4c38d1078ebU, 0x8d7ed51d0d01395dU, 0x8cbb001b0d1094d7U, 0x8d5584528ca4f8d9U,
  0x8d4f8b7c0d54bea0U, 0xd4a6b4c8cda64e9U, 0xd27f61f8d459453U, 0xd9d25a70d0aa796U,
  0x8d6124520d0e963bU, 0x8c95600f0d1cb22fU, 0xce6a5698da35eb6U, 0x8cf742b60d525025U,
  0x8cd90fa88d0e4294U, 0x8a77969d0d04faecU, 0x8c62df448d2c179aU, 0x8c92e1a20d267990U,
  0x8d2cb1968d342ed0U, 0x8d3ce08f0ce9acd4U, 0x8a975d820ba9274eU, 0x8cecd2138d827c85U,
  0x8daf2eac0c549c58U, 0x8d072d050d33c3c9U, 0x8c9ed7410d48cb31U, 0x8ca7d1238d3b7d96U,
  0xd28e3a28d0f211eU, 0x8a3e17bd8d175addU, 0x8d1744008d7bb3e9U, 0x8d298e600d236936U,
  0x8d22abe48d36aa54U, 0x8d0c64850c79f5e8U, 0x8d7bcb078d268c84U, 0xce323468a11c65eU,
  0x3d6f3caabe201cdcU, 0x3d2a98e23de1f83cU, 0xbe35ba3dbe98df30U, 0xbbfe51753dceaaccU,
  0x3e7b99023d1e0633U, 0xbe06eddd3e5315d0U, 0xbdc5c5d5bdd6e411U, 0xbba35b483e690b01U,
  0xbdcc3948bdf26905U, 0xbdc1681b3e07ec54U, 0xbe298c18bd5d821dU, 0x3d7f05a23e0d6e4eU,
  0xbd957f323e2c1decU, 0xbd1fdb3b3e41b540U, 0xbdc0a45cbe2c7f41U, 0xbd485c793e7ce7b8U,
  0x3e3190063d168c53U, 0xbd4593413d952a7dU, 0xbc8f907fbe6c42e2U, 0x3dbd776dbe18680cU,
  0x3b854c293e6119deU, 0xbe3155bb3dbe0fdcU, 0x3e6daf153d448484U, 0xbe1aee98bd0b80b4U,
  0x3ea70aa03ad23193U, 0x3e2403373db8fafdU, 0xbe831d9f3cd77370U, 0x3dd305033e80c459U,
  0x3da482c6badb514cU, 0x3e8a1fe7bc90f10eU, 0xbdffc8c63d92e75eU, 0xbd7449cb3dde395dU,
  0xbbc742a4bddfbcc7U, 0xbdb3d27fbb021b17U, 0x3cd795633df7224fU, 0x3e44c29ebc194d78U,
  0xbdef4add3d64efcaU, 0xbc56a803be1f8b68U, 0xbd3a1568bc7bd14dU, 0x3ccb16a0bdda394cU,
  0xbe75bf58bdb398eeU, 0x3d32626c3e735ff4U, 0xbed861dcbd740eb0U, 0xbd1183933d8602c9U,
  0xbdd728763e2d5120U, 0xbe177d36bdfc34ccU, 0x3e14d5b7bd7054ffU, 0x3dc64b213cf18bb9U,
  0x3da575a73cfb23faU, 0xbd5ebb3c3d320568U, 0x3d201070be32ac83U, 0x3dfa8330be3490d2U,
  0xbdfa146cbd96ce7aU, 0xbafc5793bb0332f7U, 0x3da91f033ca23b7cU, 0x3dc366a83dcc21c1U,
  0x3e764182bd8b51daU, 0x3c275b7a3dd9e436U, 0x3d3124bfbdfc8d9dU, 0xbd50f85abd737ad6U,
  0x3dbbfda3bd3a97e4U, 0xbdc498a4bc0bbdb3U, 0x3e304b12bc013f2aU, 0xbde717a8bd9484f3U,
  0xbe5ae2d7be6b4b49U, 0x3da5e3a2b9345bbdU, 0xbe225d7ebb011c19U, 0xbd70f8fb3e8dbe0cU,
  0x3ecd5ba73dc3ed90U, 0x3d5b7b7abe4a34a5U, 0x3e62ed203e54bb43U, 0x3eb17bbebe5cafaaU,
  0xbe2dbb60bddf383dU, 0xbe4040f1bcdb5483U, 0x3d5b0a79be56db90U, 0xbd56cca63cc79ae0U,
  0xbcad1c723e122735U, 0x3e4b581c3d2290eeU, 0x3e044d053bfd4039U, 0x3cc9b7e8be9f5ec5U,
  0x3de38c373dc522c4U, 0xbe3194043c7b88daU, 0x3eb97e1e3df1976fU, 0xbe2d4e7c3cdea0e5U,
  0xbd28e9e93cc8d8f8U, 0x3d32e45a3da21922U, 0xbea09cdc3dec6fa3U, 0x3e0381b03e3b8761U,
  0xbebb9658be2631a6U, 0xbd5b674ebdd91ca5U, 0xbe06b7e53d0c7900U, 0x3d8f16febdd5c398U,
  0x3d0af780bd99b373U, 0xbce3eeb43e4d2b4fU, 0x3e3724e53d889ce7U, 0xbe85e326be72ce1fU,
  0x3e5162883db99917U, 0x3de6ecf0bce602eaU, 0xbcaf1f4abe4956d6U, 0xbdd1b5ecbe747beeU,
  0xbea1c7543d1e1674U, 0x3d48b10c3e8559c7U, 0x3b9922ca3da94072U, 0x3cbaf97f3e361ac9U,
  0x3ebbcb0b3e2c1b0dU, 0xbdec304a3d322f6fU, 0xbdebb5e53da67632U, 0xbdc15e8ebda7784cU,
  0x3e6526cf3d2c2df4U, 0xbe3a93fa3e39e6cbU, 0xbe6d539c3d47a9f7U, 0xbe023f4c3e30ec8dU,
  0xbe3e91eabe5fe859U, 0x3c8e8b023e045431U, 0x3d198af3becdfc82U, 0x3da936abbe26c976U,
  0xbd0a2b773dfc4415U, 0xbe1770d93de1ae36U, 0xbcc632373ea9e099U, 0x3e77f2b43e660190U,
  0x3d1b75503e5219b0U, 0x3cddf630be6eb35bU, 0x3d4c1096be31f0bfU, 0xbe7935083d393044U,
  0xbd3af39fbd98666fU, 0xbc0f1910bd6ffdbdU, 0xbea005ecbd346162U, 0xba7f98d63df79f00U,
  0xbeaf45eebdc38d33U, 0xbca9cbb13dfe48d9U, 0xbe43faa7be468bdcU, 0x3ea5110b3da347b8U,
  0xbda6c70c3e516bfcU, 0xba125cd13e1721b5U, 0xbdfa84253b0c6d59U, 0xbd0a841d3e74832bU,
  0x3c02d6f13ebcdaffU, 0xbd62646f3e1bdb99U, 0x3cef9c6e3e2bdf8dU, 0xbd73c404be2bfa6eU,
  0x3e359d263da03faaU, 0x3c612a6a3db27b4aU, 0xbdc132ebbe42a112U, 0x3e02b4253ded884eU,
  0xbe48fd9c3e7eab63U, 0x3e048905bda23d1bU, 0xbd6083d6bd68eafcU, 0x3d9477d6be6eda46U,
  0xbd963c0e3de51ac3U, 0xbaa57157bd241a29U, 0x3e820a8d3e21caaaU, 0xbbb87dc8bdb35d7cU,
  0xbe49c520bd5afe18U, 0x3e9b12013e8c7b94U, 0xbe301e463dd8c966U, 0x3dc9bb10bdb8ef71U,
  0x3d6885153dee6f25U, 0xbd1c64b4be435022U, 0x3d8fcba53d6d8bfaU, 0x3e1c63e6bb86c3e5U,
  0x8d8e95e70d8a40beU, 0xd875ec60d98bebeU, 0xd915da20d9658b2U, 0x8d9b48c40d97ee89U,
  0x8d9e4fcd8d929b8dU, 0x8d8f78280d8418e0U, 0xd3eb9ab8d8d0832U, 0x8d90a6040d887fbaU,
  0xd87000f0d92a1f5U, 0xd8d3b8c0d9846d7U, 0xd7afc808d25e589U, 0xd9828b58d8fb532U,
  0xd91f8848d9f619fU, 0xe0833b30d73963eU, 0xd9424c50d8d0d40U, 0xd90a8960d89c83bU,
  0x8d9824150d8591dbU, 0x8d8b4f628d8a5ba7U, 0x8d881f288d7f2022U, 0xd80bf9b8d76bca5U,
  0x8d4558490d8c3574U, 0x8d795a0a0d96d601U, 0x8d9233470d8e2341U, 0xda90a168d9c6899U,
  0xd8eeb4f8d9c4139U, 0xd86b5d18d93c081U, 0xd8a30518da11a16U, 0xd9e9db60d84aec8U,
  0xd8f66a38d96a43eU, 0xd93fe188d8168caU, 0xd87f3da8d97c80aU, 0xd949d218d8a46d8U,
  0x3c27ea87bdcf4f68U, 0xbefdd4ea3e8b3b6aU, 0xbf0ee5b73d4db49dU, 0xbe807731bdd22b33U,
  0x3e8066a2bd81ba09U, 0x3e952761bd7302b5U, 0x3ece7af63e8ebf44U, 0xbe748335be480a4eU,
  0x3d11dd92be7f0039U, 0xbe596366be869c5aU, 0xbe3b99353dd72375U, 0x3c8c13c5be2ea407U,
  0xbd3ee6f83ed8c746U, 0xbe23f7a0bad9235eU, 0x3e92e0c1be406221U, 0x3e584e873edd6498U,
  0xbd6538b1be5fbe80U, 0x3d2ec3fcbd683ba0U, 0x3e72487ebdf44643U, 0xbe54c6eb3e3dfadcU,
  0xbed49ddbbeb928a8U, 0xbe352d52bd23fe6fU, 0xbe7e7dd63e47b9b2U, 0x3ead7caf3eb1ae27U,
  0xbea73b833c6aebc9U, 0xbe7a3c2a3e3f807aU, 0xbe9fe5e8be977abeU, 0x3eb001bfbe13b659U,
  0xbda92760ba1eec92U, 0x3e83ff3b3e5243c4U, 0x3eb02478bebbb3a7U, 0x3cd931a73b6aacabU,
  0xbc6472943c90e6f4U, 0x3ddd7245be0e0af6U, 0x3e548978bdb98b00U, 0x3de113f23db49bf0U,
  0xbb1fab98bd4c5ab7U, 0xbd66f2c03dc23d85U, 0xbcef7fc1bdd09d24U, 0x3d971a423d9fa282U,
  0x3bb292afbced23c9U, 0x3b7405c1bddca830U, 0x3e0b5077bd5f0a68U, 0x3c605b07bd11d049U,
  0xbdd7d48cbd89cff1U, 0xbd376625bdc297fbU, 0xbcd0096c3d7d1530U, 0x3d4d1fefbc40df36U,
  0x3d8a920d3d52a640U, 0xbd8e3acb3d68550bU, 0xbda163603e0468a8U, 0xbdd2a992be721f3dU,
  0xbd852f303c9620f2U, 0xbc48fafebd1b306dU, 0x3e169ceebb920510U, 0xbc8cd958bbf7f7eeU,
  0xbdaddb2d3cffcb3cU, 0x3ddd1e6a3d679f53U, 0xbe374d6fbd707370U, 0xbc0c8bbd3c3d0146U,
  0x3debbd87bc9ba081U, 0x3c378a59b984a1f7U, 0x3bdfcbd1bd2d9486U, 0xbe109f513cf5465dU,
  0x3dee45413ed7eb77U, 0x3e237fcbbd2b783fU, 0x3de74921bdda75cdU, 0xbcd553f73e9a7de4U,
  0xbd5723edbda63764U, 0xbe58e9e4bd3d623aU, 0x3d9b83febd9d7bb9U, 0xbe0ee98a3dfb3aefU,
  0xbd5e222cbde0906dU, 0xbde9aa71bdb089a7U, 0x3d622e073e3fb627U, 0x3d593c0cbca119c2U,
  0x3d51f8aabd9fe3eaU, 0xbda855aa3cf88858U, 0xbbab0caa3d537afeU, 0x3d6071e5bc1e2670U,
  0xbd4887a83e758a5cU, 0x3deab4383cff48b7U, 0xbd63f80d3d85fb29U, 0x3e1fba853d15f3d7U,
  0xbc8429e83d185055U, 0x3c92538b3da5ef8fU, 0x3caeed373d99e4c3U, 0xbd6454a4be3ac100U,
  0x3e481f0f3d0bccacU, 0xbe3deeeebda6bb14U, 0xbc99d33dbdd67b29U, 0x3d3bf67d3e069ef5U,
  0x3e41ccf9bd4f621aU, 0xbe0d0b78bc4cf10cU, 0x3df1d738bd2df6ceU, 0x3e347abf3dc83ff5U,
  0x3c1baa14bc012cfdU, 0x3d964501bd0963acU, 0xbd83e4a3bddb3745U, 0x3e172764bca650c6U,
  0x3d6a21383e33db57U, 0x3da26cee3dc31ee1U, 0xbb1d39d53e2d5c74U, 0xbda6180ebd059ee5U,
  0x3d8bd042bccf2bd0U, 0x3d5bd5f13ceeea9eU, 0xbb92476a3e485a50U, 0xbdc7ba593caa2ac2U,
  0x3da90fbebcb802e2U, 0xbdb00d633dd8623fU, 0x3d1eb201bd198178U, 0xbd8d2af9bd31a7b4U,
  0xbcd10ef3bd98dca5U, 0xbc3bccfbbd50285fU, 0x3e654a3fbbe23a09U, 0xbd71d49abb4b591bU,
  0x3d59f89abdb27c12U, 0xbc681f353d6a8126U, 0x3ce50ca23e0d86f3U, 0xbcd0f7463c927047U,
  0xbc53f8d0bdf093f5U, 0x3df1f1d5be09caccU, 0xbdc08d41bda8090bU, 0x3d74b717bd2e30c1U,
  0xbc9f1fa73cb9c06eU, 0x3e443305bbafa3c1U, 0xbc136d97bd0ae9f2U, 0xbc242ce13d13b137U,
  0x3dbf2f0cbe20d4c0U, 0xbe3855703edf99ccU, 0xbd9c249cbdbf98b3U, 0xbd9766f1bd62fe8bU,
  0xbd100de43d808079U, 0xbd5fd797be6492f7U, 0xbcc2df263e54dad3U, 0xbd723ff5bdba2621U,
  0xbe93aff53e7119b8U, 0x3a922346bcbf9beeU, 0xbdfe21e03dd963c9U, 0xbd883632bd448621U,
  0xbd2704b9bcaf6f8aU, 0xbcdfe2b63e905a38U, 0xbd054dd6be295518U, 0xbe6b160b3d4802dcU,
  0x3d7cd45bbda10c99U, 0xbd32f2253e51732aU, 0xbdaf26923e83dbc3U, 0xbd2d44113e04b270U,
  0x3db288e2be227732U, 0xbd2c12943c820767U, 0xbe0f6aeb3e73eb96U, 0xbe31fbc3be3dc5b9U,
  0x3ca73c53bc699419U, 0xbdea391bbd8ab841U, 0xbd982b8cbe54f838U, 0x3d9d0087be631b0eU,
  0xbdee75b83d362d0aU, 0x3ca756bfbdb1f647U, 0x3e34f08c3e41fde0U, 0xbd9dda033dc410b8U,
  0x3bc3aad5be5a05c7U, 0xbd59cc74be14fdf6U, 0xbe3c775f3dd4b7f6U, 0xbd875acbbe65dc92U,
  0x3ea603d93e2c6837U, 0xbe721bb0bc60c84cU, 0x3e963b3abca39c25U, 0xbef88d6dbcb13ea9U,
  0xbce9451d3e1988cdU, 0x3e2130bf3dbe9952U, 0x3dd6d732bdafdcceU, 0x3dbb0aa3bda18a2aU,
  0xbdf155eb3e144768U, 0xbda8eb2cbe30c593U, 0x3e90f4a53d797887U, 0xbcb801713ba45087U,
  0x3d659e3fbe0b6ec2U, 0x3df45d9cbda79437U, 0x3d9d81dfbe6cc2beU, 0xbd8fb18bbe44099aU,
  0xbd8198ffbd066bf4U, 0xbe1939f53d55ba04U, 0x3d356c94bda1ff98U, 0x3e9b9fb9bcd6ebe2U,
  0x3da9e567be113b63U, 0x3ea7422dbd01d0a8U, 0x3f1e54f7be66ce0aU, 0xbc96c39b3df4f905U,
  0x3c96da5c3d7467ffU, 0xbe51e3fbbce34aa1U, 0xbd9027d33d0e20f5U, 0xbdf2dfd33e18832dU,
  0x3ba899c03d30cc01U, 0xbc1245163d2f5150U, 0xbdcad234be1255c0U, 0xbc0086bdbd3e73a0U,
  0xbd7cd3a43ca59dacU, 0x3dc961423db3b209U, 0xbb0d6c57bdb21ad4U, 0xbd15dae9bd764675U,
  0x3d126af8bda1d1e8U, 0x3d0bbe193d4e701eU, 0xbca9a6b93d9d5c2cU, 0xbd9910a83d17c0c3U,
  0xbc25c8fa3e2fd532U, 0x3cdb718fbc831f0eU, 0xbc8135cfbd3f9015U, 0x3ddc9a6a3d994d36U,
  0x3c3bd764bc7efdfcU, 0x3de9b959be3d8b05U, 0x3b735bc3bd244b18U, 0xbd0f2f223e061021U,
  0xbc945141be065d42U, 0xbd64b9c5bdd2dddfU, 0xbe04c005bcbce997U, 0x3d5910f13d9e00b7U,
  0xbd5de15ebd3cc9caU, 0x3ce3f09ebd7a7bbcU, 0x3d8c38ee3c552f99U, 0x3d9c074dbdd09adbU,
  0xbd10a18ebda4b307U, 0x3dd9b9d03d57ec0fU, 0x3cd31a083c550612U, 0xbd1b4b2bbd2ccbdcU,
  0x8d2932f38e1ce496U, 0xdbd64c50e0c3b6cU, 0x8de8338f0df5e99bU, 0x8e0ae8c30db8e754U,
  0x8e03e71a0dfdbe77U, 0xe0a452a8e0e5b8eU, 0xe0597d30e09b41bU, 0x8dbe93a20e1763b7U,
  0xe0d1eed0e0b3564U, 0x8cb2dbfa8e09844dU, 0xdc31cb18df70133U, 0xe0eb2bf0e0cb188U,
  0xe1369678e0e8387U, 0x8de4d6590e048bcdU, 0x8d728af50e0cfa7eU, 0xe0aa86d0e12a6adU,
  0x8e0ae8358e18c2faU, 0xe000a170de0101dU, 0x8e304d360e00497bU, 0x8e05838e0d994a84U,
  0xde12b2f8e05bc75U, 0x8df84dd28deaac65U, 0xe0222870df16c44U, 0xe13b2980e0bc31dU,
  0x8e0024300d586dffU, 0x8dfdc92e8e15695fU, 0x8e04574b0e0dd0a5U, 0xe0c09d40e096ca8U,
  0x8e02035a0df51fe3U, 0xdf3b0fd0df49db3U, 0x8e405f950decf2a3U, 0xe1b1d020db3c1c1U,
  0x3ea6c6823e0b2396U, 0x3dc945523dad6d92U, 0x3d898b1c3e06ab82U, 0xbf0151213e25de50U,
  0xbd3cc88abe20d44cU, 0xbd448d8fbd4ead5dU, 0x3e41790e3df0c74cU, 0xbdcc26d9bc683483U,
  0xbdd7eb593dd17a41U, 0x3d5f0e633d2155c0U, 0xb9a7f8583e93a8feU, 0xbe05d34bbe93f280U,
  0x3cc8484e3d971d87U, 0x3d426009bd44155fU, 0x3d00b7ad3ee7ed33U, 0xbdc38365be2ee523U,
  0xbe92fa6abe9972f2U, 0x3de5305f3df63db5U, 0xbd54fe4f3edc861cU, 0xbe82c8aebd3729c8U,
  0x3e7e5d023cc5fdc7U, 0x3dc0dd34be260489U, 0xbe784ecb3ca47280U, 0xbd9c9a60be34058dU,
  0xbdd7390b3d0bdeafU, 0x3dc75c093e442a4bU, 0x3e5f96343ea86377U, 0x3f15dc12be2278f0U,
  0x3c902d893de33cd5U, 0x3da668a13d9b2ef1U, 0x3dfef9a1be96ced4U, 0x3e8c4be43c10ce5eU,
  0x3bb1cf023e8df8a2U, 0x3a7b777fbd80ef77U, 0x3ec5ff05be01dde5U, 0x3daf85d6bc1d4c2eU,
  0xbe11b78e3b1d805fU, 0x3e1186cdbc7e5841U, 0x3db4c1713d69f48bU, 0x3d00e6843d30b059U,
  0x3d3f9bedbdaa9d47U, 0x3d9ae5a5bdad0879U, 0x3df3390c3cf0d471U, 0x3e282cb93d640d6dU,
  0x3d93829a3cb9270aU, 0xbde100533dd82887U, 0x3e07e5c23c7ad83bU, 0x3de11a45bd831778U,
  0xbc60aa8fbd870b73U, 0x3e695a4c3d904cdbU, 0xbd9c5ee53d7a8d52U, 0xbd8d18cb3d1107ccU,
  0x3ce7075dbe31938fU, 0xbd13c7db3ddf2c3bU, 0xbdf08fb23dc17bd4U, 0x3da62d9d3c406a98U,
  0xbdf0cd553d4b4571U, 0xbc2a18623b9dfca4U, 0x3d4f9793bd0fbd4fU, 0xbd8b74b0bc7b447dU,
  0x3ec9cac3bc8f76daU, 0x3d77ee113c2c9284U, 0x3da210653d0bea1cU, 0xbe4bc99fbcfef665U,
  0x3dd50d953d47b1f1U, 0x3cfa9a3b3cbd9a6aU, 0x3d2f323b3d63af49U, 0xbe06b1c1bd98aa4dU,
  0x3e113953bca0e504U, 0xbe2f4751bcdb58c0U, 0x3ce880963df612c6U, 0xbd69b520ba68b130U,
  0x3d78401bbb737b50U, 0x3df506e53c9f8b33U, 0xbd4f1c4b3e5ca0b1U, 0x3e16d6543d12d11fU,
  0x3e3202533cc32117U, 0x3d5d43893bf37268U, 0x3debcfa53dd443a5U, 0x3d1d8b50bd840c12U,
  0xbcc9beb6be030ad3U, 0xbd13c20abdccd738U, 0xbd12b55e3da6220fU, 0xbdcaedcd3d94104cU,
  0x3e183de03d92f428U, 0xbbe17c68bd87f290U, 0xbd6f5eb93d0b1ccaU, 0xbe13b21a3d815c86U,
  0xbdc7ea9abe845a13U, 0x3c2cffc23dc6d59cU, 0x3e0c01643e8e744eU, 0xbc0209673d44c5d8U,
  0xbd083bf4bd8572b5U, 0xbe09daebbe283ce6U, 0x3cb491b8bc02b3d0U, 0x3d3a9212be06486bU,
  0x3e5553d63d0a4fb8U, 0x3d2bc455bddfad6aU, 0xbe8469543d5c1cf9U, 0x3eae5e50bc6da13dU,
  0x3e3ddfc2bd4731bbU, 0xbe8524c5bca76213U, 0x3e616bd2bc03bdb0U, 0xbe3a118abd583109U,
  0x3c4767c83d883175U, 0xbe84fa16be758e96U, 0x3d9dc6cebd616e77U, 0x3ec561ca3e2fbab1U,
  0xbe841eb8be46b351U, 0xbe57ae133dfcea37U, 0xbc61b921be39793bU, 0xbe4b4ab6bdb32575U,
  0x3dda57f7be0fa2a2U, 0xbd6f721bbd8b3a42U, 0x3e0b399c3d868302U, 0xbe3f535e3e341f6cU,
  0x3d5440aa3c0073dcU, 0x3e25ef73bbcf7718U, 0x3db4d7a1be647f91U, 0xbe7e8e49be26f2d3U,
  0x3e1217273d7c9a0fU, 0xbec115a33cfcd9fcU, 0x3e1ab3993c11696bU, 0x3dbeb4a43e9e4f38U,
  0x3d928c64be50816fU, 0x3e57a6253d9e313bU, 0x3eb08000be5a9ef1U, 0x3e65277f3e8fbc1eU,
  0xbe179a1d3e18b8d4U, 0x3e0b7a87bdc3f5beU, 0xbe023b3cbe59dce6U, 0xbd6bbec63d90d708U,
  0xbe388dd83dce3d5bU, 0x3d7bd4babd882d7eU, 0x3d5e62403d423d0eU, 0xbd6015e73e853b82U,
  0x3ec6acca3c1b844fU, 0x3db0cc60bd485320U, 0x3dd4d6363deff7b1U, 0x3c76f0383e8235abU,
  0xbd8cf26ebe1558c3U, 0x3d4545243bae310aU, 0xbe2c626e3dbc71f3U, 0x3e2fc28d3e2bc282U,
  0x3e6cc039be2f6ee2U, 0xbdfdcdebbdb4cf49U, 0x3d823596be612e96U, 0x3ddd38fd3e3c53c3U,
  0xbdbabd63bc58c554U, 0xbe31835fbd9606f9U, 0xbe42d9a83b06e8b0U, 0x3d89f90fbc8852feU,
  0xbdcc172a3d529cb6U, 0x3d8c5f3fbc1152bdU, 0x3e2da8d83d957383U, 0xbe149fce3ca1fc68U,
  0x3e5682dd3deb3af6U, 0xbd65b5073e19acb3U, 0xbd924d30bd841ec5U, 0xbe33a5233e336505U,
  0xbd9fb65ebc383275U, 0xbdc8cd49bd3cb253U, 0x3d11fc31bd42cf92U, 0xbe888bb1bd831c58U,
  0xbe15853bbdecbdd2U, 0xbd0aa0943dd6202eU, 0x3e0b93fcbe53d689U, 0xbcee7aa73e39ff5bU,
  0x3d99bebfbd3aa310U, 0x3da345953cce6344U, 0x3dabb049bb6f57d3U, 0x3d5150fcbe899301U,
  0x3d8ec349be86850eU, 0xbe13e7f7bd962500U, 0x3d79d2243c5b9873U, 0xbd2417d3bd8efa30U,
  0x3defe6c4be19050eU, 0xbdb094f0bd8d11b2U, 0xbd22b2b5bd9a0f3dU, 0x3d35d2603c18d3c6U,
  0xbafc3612bc9ea13bU, 0xbd6bc42c3b25b4c6U, 0xbd19633d3e388970U, 0x3d844c463d8367ecU,
  0xbb7dcb6bbe16797fU, 0x3bd953393e672940U, 0xbe02da443d9519e3U, 0xbdd489b9bcc67589U,
  0x3da1de6dbbdd70d2U, 0x3c2385103c9a339bU, 0xbd06cd72be6c0932U, 0xbcfd2aadbd38a9a8U,
  0x3d0d1b063d1f52edU, 0xbd5ff675bcd39310U, 0x3d4241ecbc9812b7U, 0xbd8d3d12bc4805f5U,
  0x3c5775b6bd9ee3e0U, 0xbccf42a5bd848e96U, 0xbdf904c3bcfe438aU, 0xbc4085cfbdb86c19U,
  0x3cc04f213d8f4425U, 0x3b0b5d55bd00c7e5U, 0x3cc056c73c7a5fadU, 0x3d34e625bd4c53d1U,
  0x3d302bfd3d06f29dU, 0x3e514948bd372298U, 0xbd11c15fbcb2fe43U, 0xbd29efc3bcc6dfefU,
  0xbc88b49bbe137073U, 0x3db02d56bbb5e935U, 0x3ca42f2b3e1ac9b3U, 0xbd8185833e030584U,
  0x3d8342a5bd0ed405U, 0x3da6657cbd4babefU, 0xbd72ffd8bd15b3b0U, 0xbbab9b99bd27881bU,
  0x3b9226823c7c86b3U, 0xbe385c8a3cb8bca6U, 0x3c9aab703ba700d8U, 0xbc38a710bd243b14U,
  0xbc9839383c044d81U, 0xbd813624bc27ce11U, 0xbdb40d163c89670bU, 0xbde6af3b3d0e99ccU,
  0x3ef57ce13ea0cc76U, 0xbd276528be71277aU, 0x3e83bbbcbe8abd88U, 0xbd8d98ddbdc42579U,
  0xbe61556abcf4fb98U, 0x3eeee0c73e87adadU, 0x3d9b0a623c69595dU, 0x3e912b9e3b67f810U,
  0xbe6b8783bea1316aU, 0x3e194a7f3da0cb28U, 0xbd172deb3d92bbf9U, 0xbe1711a4bd6ee08eU,
  0x3db195f2bdde1c41U, 0x3c72d0853e5e78c1U, 0xbd77b1133eb00f2bU, 0xbdac220e3d90c6daU,
  0x3d30ebc3bcf5698bU, 0x3eb15be2be423aeeU, 0xbd9d36533e2963d1U, 0x3d63e336bdd5f2a6U,
  0x3d02fd70be3a4630U, 0x3b71b020bcbca8b0U, 0xbdf0d6993d379c61U, 0xbe3ec002be18d959U,
  0xbdd93288be005d4dU, 0x3e107187bc83c049U, 0x395f394e3e19b226U, 0x3df79f7bbe784eeeU,
  0x3d07fa9fbe1147dfU, 0x3e097978be5c6fbaU, 0x3e885f813cc30371U, 0xbdb6759a3d00bc89U,
  0xbebb66e33d015ac8U, 0x3e4eb8413ab6b515U, 0xbc8c49d73d42a43fU, 0xbe14e1dc3df9c70bU,
  0xbe074eb4bda478aeU, 0x3b9f2ccc3d6b5111U, 0x3dae78ad3dd4fb5fU, 0x3daf2fb8bc83e6a6U,
  0x3e5c082abe29fe6aU, 0xbda73d1cbe56e4d1U, 0x3db74098bcb5cc21U, 0x3e7f6a143e092853U,
  0x3e4a094fbe3fa92fU, 0xbdc79af63e7dcb7bU, 0xbd67af633e251743U, 0x3da27d0d3dfd75f0U,
  0x3d329a78bda4db0aU, 0xbdb5d1353dccae02U, 0x3e37e4bc3d4a98abU, 0x3cce99cd3e3f6387U,
  0xbce5c871be1aa0dbU, 0xbe0b1151bd9dcac3U, 0xbeb0cbfd3e1f4f7aU, 0x3e5564693dc87782U,
  0xbe2adddabe037f5aU, 0xbdbee8413ed6a78dU, 0x3e19eaa8bdd019cbU, 0xbf08637a3ddae595U,
  0x3e9e46dbbe6373a2U, 0xbcc2dd2e3d45c65fU, 0x3db9d87d3e04ea59U, 0xbd4e34fbbddf77b8U,
  0x3e5ee7ab3e68b5fcU, 0x3eb0516d3e642f99U, 0x3dffe94a3dd2c0a2U, 0x3e5925a63dd52b47U,
  0x3c94aec93c4a2ea1U, 0xbda6786d3b5054eaU, 0xbd92a2c63d75b578U, 0xbe02295cbd2b967bU,
  0x3dc0d2c83eb2def3U, 0x3e3f35443e7fc3a7U, 0xbe889480bdac5b90U, 0x3d2595b6bc05dc8eU,
  0xbe860c2dbeaf3cedU, 0x3dc872a43e01cb89U, 0x3e38f4c1bf0e185bU, 0x3dd44902bd167898U,
  0x3e31aa2f3df689bfU, 0x3d8603933f5e4aa5U, 0x3dc47cb53e7e8481U, 0xbe32b14a3deaf60bU,
  0x3e3e265a3e8a07b9U, 0xbd29e520bd2bf507U, 0xbe026e893daf7ce9U, 0xbe03ea48be0e4785U,
  0x3e17a1d73e889700U, 0xbd1332993ef3149aU, 0xbedc42f83d44992eU, 0x3d59bb00be8d799cU,
  0x3da001623e60241aU, 0x3e35a6ae3d9079deU, 0x3e7b801f3de70033U, 0xbd8d697a3d8b4787U,
  0x3e232a53be4db985U, 0xbe6cda19be0591a2U, 0xbe709b0ebd854040U, 0x3e1c7232be8d8821U,
  0xbe0018503b5d7af7U, 0x3dd2ace33d445d3fU, 0x3d65243dbd89fc74U, 0x3e2803dcbe3cc863U,
  0xbe9b249b3c9ca5ffU, 0x3c7301c03c897b4aU, 0x3e514729bd4b4958U, 0xbd3e2664bdffc250U,
  0xbe1098b3be811aecU, 0x3e068bb1be73aa87U, 0xbdb1984e3d67da62U, 0xbdf1421d3e24ca2cU,
  0x3ea37e963e00eaccU, 0xbea8339fbe925395U, 0x3d7bd10e3c445b52U, 0xbdea20e33990c4dcU,
  0x3c591ed6be9315f4U, 0xbdd760d43e41c003U, 0x3d779823bddb6319U, 0x3ea0cc2e3d9f6500U,
  0xbdffbc993dc85d3fU, 0x3efbc9abbd974794U, 0xbe1b02e0bdacceebU, 0x3e078728be5b4e2aU,
  0xbe7c52643e0768ebU, 0x3e460a73bc9839c8U, 0xbd8ea222bcf3917fU, 0xbde2d7cd3ba7a683U,
  0x3d55c188be9c83a0U, 0xbd69f018be0045a6U, 0x3de093cabe97d185U, 0x3d8bb48cbd6fc1d2U,
  0x3bcdd7fb3ee1ec15U, 0x3eaebb1abd90cdc4U, 0xbd80738cbdaedfefU, 0xbe529475bddee994U,
  0x3e3e42053ec41a00U, 0x3c0544c43e7b900dU, 0x3c038024beab9639U, 0xbe41c5fa3ec6ec40U,
  0xbd711e4c3d9c9910U, 0x3e5e6f0fbdeabe15U, 0xbdf7bd88bd3836e0U, 0xbe6e06373d8dabb5U,
  0xbd2437d73e8008e4U, 0xbe85c9ddbe2b4c2cU, 0x3e99acc33d2dbf57U, 0xbe4793b73dbd2847U,
  0x3e4364e4be2feb7cU, 0x3ea06ed2bebc3f49U, 0x3e8279fcbe599c47U, 0x3d9a0d973e863102U,
  0xbe05d9b3be260e0dU, 0xbd6d2ac53f14ca1bU, 0xbebe75e63e6f7784U, 0x3e5671f9bd98ee69U,
  0x3d37ea9c3e0f1440U, 0xbe98d1ce3e32cc2eU, 0x3e0074683e012ea2U, 0xbe3e5ffb3bc12ec6U,
  0x3e397bb63ee87686U, 0x3e80983c3ef7dc40U, 0xbe4fcceebeb7444bU, 0x3df13da6be17a8b3U,
  0xbee8d2b4bc72d88cU, 0xbe08ec033c04ae20U, 0xbe8d69afbe7f2a6dU, 0x3e462c373e28616bU,
  0x3e906f36be833dc0U, 0xbd40fcf8be1c371cU, 0xbe1aca4f3eab1789U, 0x3ccf205bbdd95f7cU,
  0x3f00d8ed3ca1e091U, 0x3e179a5a3bbe00aaU, 0xbef6d8603e3ef4caU, 0xbecba1973e28a40aU,
  0x3d0184ec3e696ce4U, 0x3edc19503f15ff0fU, 0xbec8c139be8a1adcU, 0x3e6a600d3b9721f7U,
  0x3bea0ae0be98c904U, 0xbeb1223f3cded791U, 0xbe20e27d3e82b3bcU, 0xbe1e69d4bee04cfcU,
  0xbde17effbd7d08a0U, 0x3e143403bec55fa0U, 0x3e94df0dbe27c5f4U, 0xbe94c66fbe2ea4beU,
  0xbe8492fb3e156c40U, 0xbda52027be4fe87dU, 0xbdcda8793e988fd8U, 0x3e8cdd8e3ea2e7daU,
  0xbd48dc803deff51eU, 0x3e593311be59359aU, 0xbd3430aebe154813U, 0xbba1e9393e91cae8U,
  0x3db80500bd9e7db5U, 0xbe96b893bdde38beU, 0x3d0a5eb13d2ffdeeU, 0x3d557ec0bca6488cU,
  0xbdb1c1593db49c5dU, 0xbd31572a3ba80347U, 0xbe20cbb5bdfc8777U, 0xbda49f193d3e25fbU,
  0xbe0b92a43cb6e6ecU, 0xbdb51bf3bc7dbbc8U, 0xbe1bf11f3e1ad3f1U, 0xbdbe06f5be874a99U,
  0xbe3296b0bd55a72cU, 0x3d0bd01c3ce45042U, 0x3dea7100bd81dcc0U, 0x3ec35dfb3c28b961U,
  0x3d04141bbd952dffU, 0xbd33fd983df1322dU, 0x3e0a792b3dd25170U, 0xbdc3bef83e0315f7U,
  0x3cb8931bbdcc6c13U, 0xbe7926073e6c82f4U, 0xbde2ccdd3c54a060U, 0xbe9c7feabda6ed4eU,
  0xbde62504be3de938U, 0xbdd0e62e3e95e306U, 0x3ebfbbc53ee7a2ebU, 0x3e461cd7be34dd20U,
  0xbc2a06abbda847eeU, 0x3c910b313bab9b80U, 0x3d9c19513d7becd6U, 0xbcfbb13d3ad06005U,
  0x3b3f0ae03c7e0fbfU, 0xbdaa082b3d4f689aU, 0xbca8b9453d2c4db7U, 0xbd6234f9bce33743U,
  0xbd00a2f43d372efbU, 0xbc7c85b0bdb55507U, 0xbcc986fcbcf2ed1bU, 0xbc0885d3bcc0c59aU,
  0x3d3964c3bd4bcf16U, 0x3d965804bc80458aU, 0x3c2d16343c137c9bU, 0xbcaaf9dabd23da2eU,
  0x3d0780463d19df7fU, 0x3c923cca3e45dbdaU, 0xbcc0a8133bd0baedU, 0x3d01a580be2d67c6U,
  0x3d5e4eb83c47f68bU, 0xbdaac2dabc55567bU, 0x3d54e923bcf87b40U, 0x3c5be3ab3da7f28dU,
  0xbd25ed43bd943ac6U, 0x3ced8a0dbd3db055U, 0xbdf40761bcdc0295U, 0x3d8080abbd268862U,
  0xbbed7c14bd67138cU, 0xbcd10a153d283000U, 0xbdf71e9fbd336949U, 0xb992109abd6fb145U,
  0xbd7efbe839c9c128U, 0xbdda9b3d3c20ce90U, 0x3d7797edbe2ff86bU, 0xbdcb944abe2280c1U,
  0x3e4097663e1480fcU, 0x3c9de8223d8b0deaU, 0x3e6204453d5e4002U, 0xbe2d316bbdbf1574U,
  0x3dc11796bd21a743U, 0xbe0e63a7be0d1382U, 0x3d87ac71bd8af813U, 0x3df430c63e4c68c3U,
  0xbd91147cbc793331U, 0xbb4f22e33cbebef4U, 0x3d9edb51be03edebU, 0x3d47d2503d6b563bU,
  0xbe2631ae3da7d3f8U, 0xbe27c152bd162b2cU, 0x3d87ff143c8586a6U, 0x3d7948003d9fcb5bU,
  0xbd88e5edbe0378e2U, 0x3e0fa8cd3dc14759U, 0xbdd788773d52bf51U, 0x3d99a8363db3fc86U,
  0xbd8d242a3ddc6885U, 0xbd5d6b06be19c6e0U, 0x3d14e627bdc53de9U, 0xbe26b411bca91acbU,
  0x3e37e24fbd9e0c6dU, 0x3bff223c3d51670aU, 0x3d324d2dbc6f25a1U, 0xbdbf6636bdcda0acU,
  0x3d389ea33ecb27dbU, 0x3ee604d43df6b4d0U, 0xbe7f2504bee34d61U, 0x3e40c9863cc25892U,
  0xbe75c777bdeab577U, 0xbe1cb853bc930766U, 0xbe6ee7a6bd9ed8f4U, 0x3de442863e1008c1U,
  0x3e43a6b6be2947abU, 0x3e3098d6bd5073adU, 0x3ea736d83e56497dU, 0xbe8054d8bdf8288dU,
  0x3dd09ca33ed5c25fU, 0xbd9e60973ed6f491U, 0xbac9b7703e946f70U, 0x3e59c366bd8bcee7U,
  0xbddadbb5bdff6cf4U, 0x3f05eef8bdee27b5U, 0x3da2e7f6bd9e2259U, 0x3ddb070f3ebe70ddU,
  0x3d8122413cea99f4U, 0xbde49cf4be8f3b5aU, 0xbec554c3be0ec968U, 0x3ea43741bde741e1U,
  0x3e491c093e18a80aU, 0x3e5bd2923e48953bU, 0x3e2051c13eb28ba4U, 0xbd0198183e1f399bU,
  0xbd058199be184ee4U, 0xbe8dc451be6d6dc8U, 0xbed07aeebe6f1383U, 0x3c5b9a433d14c18bU,
  0xbde960de3eb146b1U, 0x3cf623fcbc736b25U, 0xbe563c533e39a188U, 0xbdb0387ebc844eecU,
  0xbd64628d3dda4a8cU, 0x3e195e923db90ae2U, 0x3e114444bcda448aU, 0xbde833903e0f6c21U,
  0x3dab96b7bc8a9a9aU, 0x3d8682b33e44b1abU, 0xbe8a62863e8ffa11U, 0x3e0398edbdb4e75aU,
  0x3e62a37c3ebdbf02U, 0xbdefe1123d87664dU, 0xbe07f7963dafb61cU, 0x3e31957fbde1386fU,
  0x3e1c495abd86caa3U, 0x3d74e990bd959613U, 0xbe38c3f9be77681eU, 0xbd7e872f3e57a85cU,
  0xbe19e05abdafa45cU, 0xbea62370be974211U, 0xbe2c5bd1bd09de39U, 0xbd676744be1ea6f6U,
  0x3d9758683e49d336U, 0xbd20fea33dd6f860U, 0x3e2e8b553e9cd6bbU, 0xbe00bac03efe2794U,
  0x3e06d5bcbd422fd3U, 0x3dc65136bc3202a9U, 0xbd34a2d1be07b06eU, 0x3dd9f6f03dcb8be5U,
  0x3ce26bad3d829237U, 0xbd3c8a24bd00f7b4U, 0xbe147701bebdd0eaU, 0xbd551a6abe20026fU,
  0x3dfc0999bc0dacfeU, 0xbc963fe43ccdef15U, 0x3dd2ac49be257ce1U, 0xbda0b0853d4e9504U,
  0x3e202ce9bd9fcee5U, 0x3e1fab8cbd0bab67U, 0x3e2a5137be12363dU, 0xbe3d454dbcc4b1abU,
  0xbe70ee903daaf283U, 0x3d7f77a53d19a560U, 0xbe99861cbe721a82U, 0x3dded51d3e5157ffU,
  0x3ce09ac3bc9fd990U, 0x3e9d6decbe0ce202U, 0xbaa3ebdbbe58bddbU, 0x3e670d563db27cd9U,
  0xbdf691bbbea17096U, 0x3e73f466be9f83deU, 0xbe791d0fbd8d6886U, 0xbe58f0473e8979e8U,
  0xbd4a7d72bd83bd71U, 0xbe566b2cbe05ba6aU, 0xbdc3a74cbe3258b7U, 0xbb54aed2bd9e71e1U,
  0x3db9bb583dc2ffa8U, 0x3ccd5a5c3e7b0812U, 0x3d5bb8b93eb9b4b6U, 0xbe89431bbe641fceU,
  0xbecb60b03e99f710U, 0xbe1e4e61bdd4f1b7U, 0xbddaa4093f129707U, 0x3e858f18bd873b7bU,
  0x3cf89be7be937c53U, 0xbe1ebd7c3d7a4e98U, 0x3d98d06dbc4530baU, 0x3d5f3fcd3d2cbfc4U,
  0x3e0ef3b23e813cafU, 0x3cb525cd3e6c3517U, 0xbda5cae83d414fcbU, 0x3d4336adbdf3f9b0U,
  0x3bec1e2e3e8f1000U, 0xbd83c55f3e15045eU, 0xbeafcd653c932eceU, 0x3e7e6ce3bcf58038U,
  0x3df3f625be84436aU, 0x3db2b86b3ec2ee4aU, 0xbe6abda13e0e8499U, 0xbc90b160be9ede58U,
  0xbd3f6580be8e7942U, 0xbecf537cbcfaafb9U, 0x3e617488be7fb983U, 0xbdfc1926bcf89f9dU,
  0x3cecf028bbbea70eU, 0xbe4e00843e44f068U, 0xbde39b433ea58004U, 0x3ebb71493de99e65U,
  0x3cc5d511bd8e3500U, 0xbd854b2bbd11f2adU, 0xbe6b6fa9be1a7fa4U, 0xbc909453bd7c0c00U,
  0x3db80159bcfcea18U, 0x3ee05234bd49c936U, 0xbdc0dc9fbb5cf1e4U, 0x3e4d83703dce3b79U,
  0x3ed859f6bd8662a7U, 0xbdd232203e8da4c4U, 0xbdcbb96abdaee2fcU, 0xbdc81bb53eb2482cU,
  0x3e4d27e73e84450fU, 0xbcdf25b6be1d880aU, 0x3ed985093ecb4f1eU, 0x3e330afdbdbfb423U,
  0x3e817081be2a6321U, 0xbd82f860bcf23db4U, 0x3eb8707c3d6f5d55U, 0xbe4cff96bd07e86cU,
  0x3dd533ee3d6d3b66U, 0x3eaa87b53e9a0ebcU, 0x3e0a2f2d3dc1a455U, 0x3d9ed71f3f02ecfbU,
  0xbda10557be84663bU, 0xbe5866c73e31b672U, 0x3c55c5243ceb2e72U, 0xbd4b1c9c3e113170U,
  0x3d0b30f13c90b14aU, 0xbcd0bdea3f0e1521U, 0xbcf5caa8bc849d25U, 0xbd1c0053be23b0eeU,
  0xbd61b71c3e4a7e2dU, 0x3e4261423e85a1e5U, 0xbe434dca3d2b3361U, 0x3d4d9f7fbdfecd89U,
  0x3d2fe05c3d8e4415U, 0xbd60a7853cf52bbbU, 0xbdbc8bdb3e01d0efU, 0xbed41d2d3e3f6fc9U,
  0x3d20dfa43e5d3001U, 0x3e8b5f6ebd71dd56U, 0x3d6dd8e73e5104d6U, 0x3d7ae294be0cb68cU,
  0x3e899b993e4a90e5U, 0xbe5d186cbe140155U, 0xbd886c7b3e5a6129U, 0x3ec9e2923e19f293U,
  0xbdf9a4db3e067516U, 0x3df417febe1a7e63U, 0x3e7e28123ccc3af4U, 0x3e00461cbca8bc23U,
  0xbdd13cfebdd5cde7U, 0x3e5b86463d18f21cU, 0x3cabe3f23ead468fU, 0x3dcbbfed3d3b0a73U,
  0xbd9f04653d039895U, 0xbde10c6fbd28058fU, 0x3d4df6b43cc563f6U, 0x3dff342e3ef33f03U,
  0xbea7e869bde9861eU, 0xbc4a435fbeb06732U, 0xbe00dff7bde350dbU, 0xbe54c1ed3edf8d4fU,
  0x3ead16763daa3019U, 0xbda9b5773d5ca762U, 0x3f029d6ebe92bc3bU, 0xbeb1326a3ddd45f4U,
  0x3e443fb8bda38dc1U, 0xbd87ac3b3c835abeU, 0xbe2e2bc33e0a494fU, 0xbe75afe6bdc424ddU,
  0xbd52fc24bea47906U, 0xbcc41062beac5ffbU, 0x3db9a3393b7ba86fU, 0x3e19066ebe848c82U,
  0xbd3345b93e4fd2fcU, 0xbd87cb0a3dd912cdU, 0xbe9efb10be67fb60U, 0xbe241a5ebe2bfbadU,
  0x3d9e7709bb691f58U, 0x3de72548be286708U, 0x3d3b915cbd023503U, 0xbd5a5742be1ce6cfU,
  0xbdac8d94bd93f9dcU, 0xbe3a3eafbe2c8977U, 0xbe4d48393d894183U, 0xbe34226ebe51d13bU,
  0x3dd5aaaf3de353d9U, 0x3dcd27ff3e2f99e0U, 0xbdb846103dcd54b4U, 0x3e2b912a3e0c0a18U,
  0xbdbcdb443e83806cU, 0xbc513907bb5aedefU, 0x3daa3d10be266d93U, 0xbe733112be974e6bU,
  0xbb5325fdbd98b1b1U, 0xbec5e94b3ded0d3dU, 0xbddd4c163d9f88eaU, 0x3e702722bd07abeeU,
  0x8d687a0c0d735175U, 0xd73012f0d7e2df9U, 0xd83cfd50d69b2caU, 0xd8266788d94357bU,
  0x8d73c9778d7f90e0U, 0xd80f4628d7e5c6bU, 0xd789ac88d6866daU, 0xd72fdad0d847b0eU,
  0x8d6cf4f30d801ea4U, 0x8d7cd7160d62720dU, 0xd6a5d008d85e534U, 0xd5ec08c8d81023bU,
  0xc5cb1c98d7638c4U, 0xd1592fc0d8f0a63U, 0xd7f4d8f0d6bc0f9U, 0xd8cb9498d6169dfU,
  0xd74096d8d73e288U, 0x8d7653ac0d8a3c12U, 0x8d60262f0d5f5988U, 0x8d4b0ada8d72eae8U,
  0x8d5fa1e38d75db25U, 0x8d62eaa88d835636U, 0xd7418330d6fefb9U, 0x8d637bcd0d72908cU,
  0x8d8246568d4e7abfU, 0x8d751c770d85ce3eU, 0x8d792e158d7d69d2U, 0x8d70f1e68d858a0aU,
  0xd81b08e0d7d03aeU, 0x8d7d750e8d63a24bU, 0xd4b176f8d78b7a7U, 0x8d9aaa2c8d7c366dU,
  0x3edb28e1baa1403cU, 0x3dbda424be302491U, 0x3ce37d383c1262a1U, 0x3ce029853d8a6c73U,
  0xbe4a4037be02777eU, 0xbc8150a9bdc7c4d0U, 0x3dfca7bbbe774ccaU, 0xbe6951a83e6a9befU,
  0x3eadc0eebd880fb6U, 0xbd81ff5cbe3b7bf8U, 0x3e1ed5573d828216U, 0x3cc2524abd492384U,
  0x3c8fa55fbe5c9105U, 0x3ce7cd9dbe67a0ddU, 0x3c3059613e48a78bU, 0xbe775465be5b1dc6U,
  0xbd8cc740be0d7209U, 0x3bda6c883e23a1e7U, 0xbd9d5a49bc402b01U, 0x3e0d7c403cd32812U,
  0xbd8092653d16b788U, 0xbdf5876d3c87c3c1U, 0x3e8cc7c33e960e29U, 0x3e600edf3d304bd1U,
  0xbd110fc73cc8c2d0U, 0xbed84cf3be020014U, 0xbe8f68dd3d6b080bU, 0x3dc854333da9d68dU,
  0xbe4db40fbea5b0d3U, 0x3e4e9533bddc4958U, 0x3dee7d1dbe5d811bU, 0xbe62091e3e53be62U,
  0xbdb9ad27be00e56fU, 0x3d056ca5bde68ee8U, 0xbe84b4febd42034eU, 0xbdf346bcbd50d173U,
  0x3e3b71453ea3722bU, 0xbc9d7af73bfa035eU, 0x3e3e71173e1703d4U, 0x3d10a2fbbdb85de7U,
  0x3d9ff86bbe6f715bU, 0xbe026866bdcdf07eU, 0x3e42a9cb3da284fdU, 0x3e47dedbbd013401U,
  0x3dd609383e113a3bU, 0x3e69ad7a3e11c3c9U, 0xbdc6524e3e0e6e98U, 0x3cae66b5bcc968c0U,
  0x3e1f379abe17810fU, 0xbd9b99eb3d33470cU, 0x3d971f5bbe1e071cU, 0xbdff6c4f3d9a30d7U,
  0xbe5085fe3a1f68e5U, 0xbdc85fe4be5ff69eU, 0xbe7acdca3ddb56dcU, 0x3c690d2a3d81276fU,
  0xbc1612d13dc81764U, 0xbdb9143abe5e4ae9U, 0xbe8a19a9bde6243bU, 0x3cfeacc13e0a522bU,
  0x3ab55e933b1a5642U, 0xbc8c22d13e311d15U, 0xbdd6d4acbd45daa1U, 0xbe441b0cbe076605U,
  0x3e8aeea8bf058836U, 0x3d97fa64beac85e4U, 0xbe96668b3d88eeddU, 0xbeaae4ed3d9e2d8bU,
  0x3d29f9dabd4b5278U, 0x3e86f69bbe3c412aU, 0xbe042e0ebd81b833U, 0x3ea46c1cbe7cd94bU,
  0xbe27b5a3bea4c8eaU, 0x3e9cd1e9be5af817U, 0x3e2fd0a2be1fbda9U, 0xbd7edf79bdb589e1U,
  0x3c246af5bea40039U, 0xbc8bd083be568d20U, 0x3e7e2d133e5694e2U, 0xbec7f550be8f56a0U,
  0x3e9cebad3e16b617U, 0xbe486c1cbe832159U, 0xbdad5fee3dc96d31U, 0xbe0fb4893e0698f9U,
  0x3efc143d3de531d5U, 0x3e3a26d63e8d3040U, 0xbe5f6ac2bed238c6U, 0x3dbe2edfbea902c7U,
  0xbe8929833ef30c4fU, 0xbd0b60b53e5802e9U, 0x3d0dbc57bd937c1dU, 0xbe23c74ebe9ee6bcU,
  0xbe1077113e221ef5U, 0xbcc0f8a13e8aba0eU, 0x3e7b16d03ea1b572U, 0xbe257cc43ef9b598U,
  0x3d9dda5c3c1e8ab2U, 0xbd5408a0bc85a472U, 0xbe706eb93e6131a9U, 0xbe18bd3dbde070eaU,
  0x3ebd22853e2facccU, 0x3e3380bbbdaf955fU, 0x3ddbb9883e221f2bU, 0x3df774b2be85debfU,
  0xbe5e6442be7f8833U, 0x3dbc87aabd0941a9U, 0x3ab84a78be018362U, 0x3e97473d3eadd3adU,
  0xbdc206dc3b437f9cU, 0x3e0427683c57649eU, 0x3e6afe2d3caa1fecU, 0xbe261514bdc0ec20U,
  0x3e215e133dc94ea1U, 0xbdba22c4beabdcd7U, 0x3e579d333dd86403U, 0xbbaf4fdc3dfa46a0U,
  0xbdee7b113e4f1377U, 0xbe4844733d07e831U, 0xbe1ba826bdb5b795U, 0x3cc414a4bc972440U,
  0xbda9f4d33d693e9fU, 0xbe46767f3e1ca4dcU, 0x3d3406e83e5c8d92U, 0xbe21d4963c91617dU,
  0x3d265db1be36d4a7U, 0x3bfd08c73cb52831U, 0xbd8f85cabaf99900U, 0xbe49a377be47d454U,
  0xbd8709b7bdc67ad9U, 0xbdb6ad393c88bbb5U, 0xbe99ebd73cd843cfU, 0x3f02fc8e3e4cd15aU,
  0xbde6970a3d42c90fU, 0x3d846de6be5dbc40U, 0xbdbd05eebdb0d6f8U, 0x3e73fc24be31c38dU,
