/**
  ******************************************************************************
  * @file    vww_data_params.c
  * @author  AST Embedded Analytics Research Platform
  * @date    2024-11-01T12:08:17-0500
  * @brief   AI Tool Automatic Code Generator for Embedded NN computing
  ******************************************************************************
  * Copyright (c) 2024 STMicroelectronics.
  * All rights reserved.
  *
  * This software is licensed under terms that can be found in the LICENSE file
  * in the root directory of this software component.
  * If no LICENSE file comes with this software, it is provided AS-IS.
  ******************************************************************************
  */

#include "vww_data_params.h"


/**  Activations Section  ****************************************************/
ai_handle g_vww_activations_table[1 + 2] = {
  AI_HANDLE_PTR(AI_MAGIC_MARKER),
  AI_HANDLE_PTR(NULL),
  AI_HANDLE_PTR(AI_MAGIC_MARKER),
};




/**  Weights Section  ********************************************************/
AI_ALIGNED(32)
const ai_u64 s_vww_weights_array_u64[5079] = {
  0xe13736cef70609fcU, 0xbe2281c843e70538U, 0x1eb7e0121125e6fdU, 0xec1d4ebb2804a700U,
  0x40f0d01f2db609dbU, 0x3b812a1bc62c3bc3U, 0x7f4c0fb23025b526U, 0x46d394f674f71354U,
  0xbbbf94c695043d44U, 0x9de7f7112cd747feU, 0xf2b8accb2e34baf6U, 0xeb332dfb3a7ffd92U,
  0x5a5ee24505e0c2d4U, 0xadffd0bff534f30eU, 0x3f0f3d9ecb5bd81U, 0x2819ec032916ef15U,
  0xda1c481445465a32U, 0x401e0a8cdc2d8195U, 0xf542a9b23fb3d034U, 0x4d22e1b95df057edU,
  0x330fc34c23bd2eedU, 0xfae117e8e111e7faU, 0xf940d6db3cf3bf7fU, 0xef1a3c1708fb1ed5U,
  0xc07b47ccfe1ce83cU, 0x469128121a7d3cU, 0x1981110bc6301488U, 0x18ef0000701aU,
  0x1ee3fffffe0eU, 0x69c0000050c6U, 0xa45600003f08U, 0x330aeaf5bcfad104U,
  0x8112d2ac3bd8fdd5U, 0xfa84c6b1ab25b50aU, 0x10cce7dfc707f9f2U, 0xf55f3e1246817f7fU,
  0xd022f97f7f9a1dd1U, 0x12d5d5d8f308c3edU, 0x1e1d5106b81d4461U, 0xfb7f7f7250af3104U,
  0xffffffbaffffffd8U, 0x2ed00000fb2U, 0xfffffe67000004ebU, 0x8fafffffde9U,
  0xce6c0823e0256e7fU, 0x69e7ed240f568100U, 0xe20381a724976f30U, 0xfb7fdf040e0a97ddU,
  0xd754d6eaf2ff7fd2U, 0xc7ed1e7fb897d850U, 0x7f519243167b7ccaU, 0x6325881b73fe56aU,
  0xc9fb727f4e6ad538U, 0xfce92ea57fec1df9U, 0xffd700f581731426U, 0xeb7fdcfe39d1c661U,
  0xd3813f0908034cebU, 0xe4fd247f27f9dd14U, 0x37157120a5fad97fU, 0x21d3a6f67fd411f2U,
  0x236fffff0d2U, 0x141a00001029U, 0x1332000004e7U, 0x1affffff568U,
  0x810ffffeb14U, 0xfffff9ba000009eeU, 0xfffff5c40000080eU, 0x6ad0000044cU,
  0x4003cc7f7f002551U, 0x5571a68782076854U, 0x3af810f7874ff7fU, 0x41c7b18181cc7f39U,
  0xe89026ebe867ea4aU, 0xf2baf6cbeb2f1f0cU, 0x4ff4ac1c6d6f7641U, 0x2c7fc5e4a83a2450U,
  0x6ecddc666b7f585bU, 0x7fef814d81815569U, 0xf6813ff90d5be62cU, 0x1c8fee5baf4f720bU,
  0xe806c4ffda2f6bd5U, 0xf639edea0ef9fd81U, 0x7ff93116e9247fccU, 0x1540bd2cd80beb8bU,
  0x3af9292f0107f3c7U, 0x2e91014efbe8ebb9U, 0xffffff3600000009U, 0xfffffe7b00000129U,
  0x2345fffff7bdU, 0xfffffa03000021deU, 0xfffffa59fffffec6U, 0x38cd000000dfU,
  0x1f0b00000843U, 0xa4ffffff1dU, 0xe5e1e20d292a1ee3U, 0xcaf302e8f0f37f12U,
  0x13091429927fdd22U, 0xd00b80521f02631U, 0xfed5dd0baf3fe97fU, 0xf6e4f023d612db0aU,
  0xcbdf0ee1f7fa407fU, 0xf9b1e5140af4221bU, 0x3d24eb530acc04feU, 0x7f2dddfe145ef7d9U,
  0x50dfe2e606e30ff6U, 0xb8ed1506f88143f3U, 0x16efea404be681b7U, 0x180e2ed704d6d8f5U,
  0x1a11232d7f4ae21cU, 0x10ec2c44f4ff0d46U, 0xebc7fa7f290f13feU, 0x380304481707cf12U,
  0xeff7abccf81c332aU, 0x57fe678b8101706U, 0x113702c428f4e812U, 0xd8e0f911070e7f1eU,
  0x220a0a1c81f6ccedU, 0xc9f3d3fb081841f1U, 0xfedd42e58120e084U, 0xa01e6bffafbfc1eU,
  0xb61ada53cd28a4ebU, 0x3f5955d5811672b0U, 0xd7d03f1881be060aU, 0x34291fd41911f6e7U,
  0x7fb8251812d4ddf5U, 0x2d5b2aeb39022cc6U, 0xf5a106308157f30bU, 0xfff2ede505fafdfbU,
  0x4606b2cbb0ccf617U, 0x81951a39c7d4c3ddU, 0x64120ede2ee99d17U, 0x7f21acf7e7ede229U,
  0x20ade22948e9d67dU, 0xd81c1002810dc8c5U, 0xbbcf0ad1810fb0c4U, 0xe5edca1a051ce319U,
  0x1ef8ad09a5aa1534U, 0xc31c8113370bba49U, 0xf3eafdda811bfacdU, 0x3908030334fc0407U,
  0xbbdc25f739217fdcU, 0xdddac839d9fff01dU, 0xf182e655b47faa37U, 0xe00cfbdfe710f023U,
  0xeeca13d781f1b4e0U, 0xfa0bdcfc0b0aec1bU, 0x69d6aa342a56e5c3U, 0x4cdaf7ce8100686aU,
  0xe7fe15ce81c314c1U, 0xdf0ae4e307053218U, 0x3b63cefbe8687f0fU, 0xb5e601d79d10e8c7U,
  0x5f0e8d00c2228dfU, 0x34f181040a402b4cU, 0x400df9e0d106210fU, 0x20fd1706f57ff104U,
  0xd137f00092bfff2U, 0x20a25070305ee15U, 0xf1afffff8a0U, 0xfffff69400002003U,
  0x1b7afffffb40U, 0xffffc1fa00000384U, 0x64bfffff838U, 0x298cffffe448U,
  0xcde00002a1fU, 0xffffe9d100001bf1U, 0x715c000021a9U, 0x2e84fffff97dU,
  0x507d00005193U, 0xfffffb4f00002dd3U, 0x4b3200005055U, 0x5ad8fffffafcU,
  0xd7e000021d4U, 0xfffff9580000091eU, 0xabd7f5fbd4efca1cU, 0x5f8eaddef248107U,
  0xb429e3aac0eb08c1U, 0xfbd4ea370eeba164U, 0xe2ed781715b9d2a9U, 0x86ea0ac554054e78U,
  0xf862c4a719c64f8eU, 0x1afa0b7f7f8d141cU, 0xe816d6e5e7185a03U, 0x26b0e5dd7fde2526U,
  0x25f1d95a3feed0c5U, 0xedd2412217f3379dU, 0x14bf05ff3903b6d7U, 0xb17c0fb8c33c2ffU,
  0xf401f13b8104172aU, 0xf51f8b9e382ca17aU, 0x72dd817f7481ee7fU, 0x7fcc8121017f603aU,
  0x58457f812f817b27U, 0x637f81e0307fd023U, 0x7f062ceb00bd7fc2U, 0xa7a6cd725b536712U,
  0x7ffa4ab36cb381deU, 0xb4022f05a7f07f81U, 0x1b907e7ef18ca01U, 0xe5bf00d430ef3eb7U,
  0x9c7f242a513e937U, 0x17fde8c544d00806U, 0x75810d837fe7f5c9U, 0xa810b7f831b5f81U,
  0xf6815b2d19eb1c7fU, 0x81289efd94ff8ae1U, 0xd433053706261c27U, 0x1aea0641b3314bceU,
  0x4f45f8c21ff9af2U, 0x41f8cadb92eb47b7U, 0xa40000018dU, 0xfffff612000018f7U,
  0xffffff29fffffff9U, 0xfffff06200000ae7U, 0xfffff8a0ffffffccU, 0xfffffd65ffffe8cdU,
  0x250bfffffa0aU, 0xeb0000174bU, 0x2aafffffa08U, 0xffffff2000002407U,
  0xfffff73c000011e8U, 0xfffffc11ffffff7dU, 0x3450000020dU, 0xfffffc3dffffff14U,
  0x1c9200000156U, 0x2f6fffff9a4U, 0xe39f200345351ae0U, 0x29a6315325fcb000U,
  0x153ee8e9ce1ba527U, 0xbfc01b77080d81afU, 0xe7bf121ef42af51aU, 0xedd8f3f421c0ecc5U,
  0x1a36512803add417U, 0xeff9814fd2725a2eU, 0x11c819fd0e14fdf1U, 0x40ff41c4deeb18f4U,
  0xfc277fcfe604ff46U, 0x140bc0e45610e3c4U, 0xfce8fe0ded33ddf9U, 0x2feecdfd18fbc40cU,
  0xe824273a15c10ae3U, 0xeb287fb1de090800U, 0xe708f5f8c7f90fe6U, 0xff1f5fa0a0b32d4U,
  0xe3e6231218eb7fe8U, 0x1e3e02ffc3351fU, 0xcfe4d2cc081db43U, 0x32c808423bd01f01U,
  0xd66a392426916768U, 0x2a34cb154ffdee2bU, 0x3430e710eaf40e10U, 0xf6f227e9eeaff421U,
  0xe9ecdb0711101c1aU, 0x31f806f67f0602b9U, 0x630f451d11043a28U, 0x1dda1ee16e230d16U,
  0xf5fa6b17b526b7U, 0x21e6343c7f65fd25U, 0xe51f07e1f1f80e0dU, 0xddeb210000230df5U,
  0x3df3381df52e08caU, 0x7fee1bfe1afa161fU, 0xebd7295c2e1b293eU, 0xbbe92e1281a0efbU,
  0x1416b127fc81031dU, 0x3e8af5230210545U, 0xb636d4fdee6900eaU, 0xeaad01f54c7f2dc0U,
  0x593b03f63344eafaU, 0xa26adb34bc9523eU, 0xf1f20cfcae38fe09U, 0x3f4cc04ca0eccaeU,
  0xf6ab36cb2ec91998U, 0x33e7e6cc34301481U, 0x33c2e0e056a86fe0U, 0x259155a2e37f2d5bU,
  0xe98ffc45449d596aU, 0xd61568c91ad30a5eU, 0xef0d16012dab8104U, 0xff02e5ff05e940daU,
  0xe1edaeea12b4feadU, 0xb47d8e9dde7e6ddU, 0xeb1b0709cb811413U, 0x16d3f55aedbe0409U,
  0xa64438dd08aa2df2U, 0x1615f5f4122932f7U, 0xfbd3447fed00ff32U, 0x2ff6fbede511da17U,
  0xe60af70102140d01U, 0x5d62ddedffd62219U, 0x61af4fddbd0e11cU, 0xda3a10c3fd0326d4U,
  0x150811f952fafef8U, 0x7ff6f3e556efef33U, 0xd9192b1e1820401bU, 0xf0f220cfd80718dbU,
  0x3db1badfb8e52b64U, 0x24df748881ce0a3fU, 0x24e1ff04bf33b6f3U, 0xe34f9c8d4f50ca3U,
  0xda3c15bbff2e7fU, 0x806fae238b672U, 0xb11a482aba0d0decU, 0x7fd03dd43bd6fe12U,
  0x10fc106a57d30fc6U, 0xeb50063ad3daeefcU, 0xf5fdf9e9eef4c6f2U, 0xe7f51638ec142b36U,
  0x2f7ff5184b08163aU, 0xf7f9f7f52d33c8cbU, 0x1091c09d2d12b0cU, 0xfe01cdfb00460c1eU,
  0xd0d338da7fe02202U, 0x17f710f01dff230bU, 0x24d5d7fd213bc0e9U, 0x102b0bb7e3331b35U,
  0x14d70a7f1735dbc6U, 0xffe3f8eb09f5d8f1U, 0x82dbbece70c48daU, 0xe6fe81e2231a1602U,
  0x3dcee9ed32e528f6U, 0xd71fc0bdf9e02460U, 0xf2dfe7e405e1f8d2U, 0x1bc22f38050df33fU,
  0x67fafff7f23e00eU, 0xde3dd3c946c34c4eU, 0x7004dfb7fd0b68f8U, 0xa74f545281c20601U,
  0xf2284fb11316f0e7U, 0x78b952ad32e707fbU, 0xdf2ff26e6fd2ff8U, 0xde362ac845040a61U,
  0x7f19ea0ed2d42134U, 0xe27ebef0106fe00U, 0xd0396f7fddf51c63U, 0x68dfe807270091f0U,
  0xf80bcf4a0ae5d42fU, 0x3ecb0fceea231624U, 0x844706e45dac32ffU, 0x13de13987feebe14U,
  0xe90b44f91207e93bU, 0x72847fad706f94dU, 0xbd0d15f935122306U, 0x1d3631ddbdb18f7U,
  0x59a637fdaeaf0037U, 0x5ecae7fa027d8cbU, 0xcdcf22efffb51a12U, 0x2a8e1466e1b613d8U,
  0xc10f07b5d3f512f3U, 0x101e4e2e5ff2a81U, 0xd5befdda1ded94faU, 0xf33f483b0956ea58U,
  0xe3327fc494eddde1U, 0xdffbedf15911c7eeU, 0xa4c000002f2U, 0xfffffc3500000beaU,
  0x1c04fffffb35U, 0xffffe0d5ffffffedU, 0x3a2bffffe456U, 0x20af00000904U,
  0x264a00000951U, 0xe2300000abeU, 0xfffffb3200000288U, 0xfffff5d6000010b4U,
  0xcd7fffff9a2U, 0x10d200000d8dU, 0xffffe58200001762U, 0x396fffffc33U,
  0x5d7000003d2U, 0xbac00001e90U, 0x24473f2e7f35f32dU, 0xd429512037ef2d78U,
  0x48fd8de52db11f28U, 0x4d7fd54028cd4bd4U, 0x4405e5555b133b7fU, 0xbb5654bd46fcc476U,
  0x515a81cd578d212eU, 0x4b34c96641a764bcU, 0x1eaebb28cef5424cU, 0xe821278f30de810fU,
  0x217cbfcb46a64522U, 0xf7c8db4530e41ce0U, 0x4b7c7f596f5cb4f9U, 0xc2325a0e48b3597fU,
  0x6d8117cd49abce4aU, 0x68798e605cb650d0U, 0x7f09007f7874545bU, 0x817f7f817f8a046cU,
  0x7f1df8817f81547fU, 0x7fdd81737f817f81U, 0x268198413e387f64U, 0xc3423e9660a59cf5U,
  0x355003985c837049U, 0x2595ed5d42da57baU, 0x193e2d1e112a95a2U, 0xe51936e02291471eU,
  0x38aa6ad514c1812fU, 0x150f947f2bee0fe5U, 0x35f9f32d5f7fb9ecU, 0xc33948ae4b813ff7U,
  0x3fbd51d131de3054U, 0x36b8957b44bf47b5U, 0x7b3b5206f5a4355U, 0xd5232bb533c9e9dbU,
  0x1e0534e22be75821U, 0x1dab0e381aee519fU, 0xfffffd61fffff9a1U, 0xffffdae9ffffe6c9U,
  0x38d00000118U, 0x18efffffe6aU, 0x23cfffffe49U, 0xffffe51e000036c4U,
  0xffffef7000002c79U, 0x2de3000002ecU, 0xfffff73cfffffd7dU, 0xfffff00e00003f2dU,
  0x164000030b9U, 0xfffff635fffffa6aU, 0xfffff9c20000370cU, 0xffffff0b00002a2fU,
  0x4279ffffe3f8U, 0xfffffb9efffffeabU, 0xcc10f8264c816032U, 0xfee142f8dedd13c4U,
  0x2128ff401af72f9bU, 0xb70372d83c0309c4U, 0xe1ffe3a40de2d623U, 0xfdf77f02cffbb2e8U,
  0xff2012ec0e3bdef1U, 0xe30ee69a1cc8e9d4U, 0x4038c418abdcdebdU, 0x814213c5ad1fab51U,
  0xc1d7e9b3e91ee640U, 0xd6f6b0ac15f331d3U, 0xa4f9be05b30bd6e9U, 0x93457fed50e5cfc5U,
  0x232bd6f9d4ef18d0U, 0x83e9d3ddcef5a5feU, 0xe70d100c0d14f4ebU, 0xd6e5ff2415170363U,
  0xaff9e33e3f0e1316U, 0xddf10bee7f2865d3U, 0x30c4feb7421a452cU, 0x3fe4f1f8de197fbaU,
  0xbe1afcee4c0709c0U, 0x59cbe4d45804cb00U, 0xeb2bdb4f0d28c0ffU, 0x9e282e16dfe8e4ecU,
  0x375fa13672ae0bcU, 0xc94cfcb18103e097U, 0x4c00031942271003U, 0xc7d421d9030114eaU,
  0xd0c09de7ff503bbU, 0xfecefad622e5c416U, 0x2b24541cfc7ff9b5U, 0x1b5ac4f0c8cfec01U,
  0xda0edfd8b8c9ed3bU, 0x8e63f1e41ab00ce7U, 0xed2d1fcaede405dbU, 0xf37ffc2395c5effdU,
  0xf63115c90ceef530U, 0xc81a14d513c802a0U, 0x19efe7507f186135U, 0xc85c1209ebd32b53U,
  0xd2584b4502f504dbU, 0x5ce62e21c30e0324U, 0xf5fe347fe21bc211U, 0x3823e5fec0021111U,
  0xb11bfef83ffcc718U, 0x96f0a3cedac1e5f2U, 0xccdc0bee04ebedd7U, 0x9c7fcaecfc0a28f9U,
  0xfb4016e5ed95b40dU, 0xd344d8ab0a1a01ebU, 0xfd19b0f8dd0ef1e0U, 0xd77fd9ce07efe94bU,
  0xc62e0a0626d7f72fU, 0x3c8e30419241bfaU, 0xa1071bf31c0eda1dU, 0xe009fe1302210b35U,
  0xc619171d0727eb46U, 0x1cf81e4c8120530eU, 0x5b3716ee1c0709deU, 0x7f1f12d03b0fa9c1U,
  0xcb3c0bbd1a17ee59U, 0xd4ff2a98bcea2c94U, 0x2c06f2c81f1f07ebU, 0xd11e33cedc50ee00U,
  0xe914ffdfef1dd3f5U, 0x7fdace26f1f7f729U, 0xf2fb227ff0cc0d04U, 0x4fd37f3d8e65c18U,
  0x8bf4f1070323541aU, 0xd3c10506cb1e0c25U, 0x8af43337e19e07c5U, 0x2decbc1665810239U,
  0x133de50a21de1a67U, 0xf1275f982b33e09bU, 0x15f3e9fc21d506b5U, 0x8f4e1007fd114f8U,
  0xa18e23af3f619e4U, 0xe5c812eed01fe229U, 0xa7e315fb3b0fdc12U, 0x197fbc5f83200bffU,
  0xf5eca1291c25efe4U, 0xd12809faf6e818caU, 0x1510f1f83b1028ddU, 0x112a31b1ba621705U,
  0xf3f702141618fe11U, 0xd9cdf67f0500fd1fU, 0xf0f1f90410f71202U, 0xb87fce0b1421ccf6U,
  0xe73311f5f3faf208U, 0xd61803af4a121de3U, 0xedeaa43bcff2ee0dU, 0x3faf4bf301fd06cbU,
  0x33b408150726e3c6U, 0x2e092408813cbe07U, 0xfafaa48139d9e754U, 0x29b2f4f2c01ec00eU,
  0xa5d83c22151e388fU, 0x4626ffdeea110936U, 0x7f1e0266062612faU, 0xdcfd15f69822a7f5U,
  0xa90724dd0a114ec4U, 0x1c110f19d00adc15U, 0xef24524e61bef3fU, 0x5dacf25cf9cf0163U,
  0x3ce9e718d6351f1fU, 0xf332fb31812f49edU, 0xe219ecb8466e3133U, 0x3fe397ec27f4227fU,
  0x35b83920b637b26eU, 0xea0765a8dc062e1eU, 0xc7ede3db36dc5a5fU, 0xe46996bb92500814U,
  0x817b4ee31e143ea0U, 0x4ac4d17131d8d10cU, 0xfce5d5eafa1b11e9U, 0xd37f01eaf504eaf6U,
  0xfe10e2e2c822e9d5U, 0xe81806fa25f10801U, 0x9e23fa7f1ebff4daU, 0xc54d3c16b4f7ea52U,
  0xcabecf4302dddb2dU, 0x26042ce09e49201dU, 0xd3f45f8ccf3beb7fU, 0x6bbdef4800e21c0aU,
  0xe50b3daddd2218ecU, 0x3d0594e4099917e3U, 0x8104efe7b3f3a1dcU, 0xb1e93321b2fe9b44U,
  0x5a44829cd34f340U, 0x1e0c19ebf7c55cebU, 0xc716e5da31f4d34bU, 0xe326e522d10ad30fU,
  0xe0eb12bdcf4206e0U, 0x3832353621281781U, 0xb2daf3ed5927ff03U, 0x7731b6e5bd00d981U,
  0xb2cfd54512130acaU, 0xed1b47b3bbeb0ac9U, 0x672d320fab1424eaU, 0xe3407fa7d3154606U,
  0x1ee4f4f27203f061U, 0xc5f1cc5415c7ab04U, 0x191319e1ed170edbU, 0xbbfb0bf041fb0369U,
  0xfc06e2ff05e9087fU, 0x3121d1aea0c5afbU, 0xe4fade0502f9d0d9U, 0x167ff5e7fee212f4U,
  0x132b08d4c930e7b3U, 0xd6ed09050a1ff284U, 0x110519b5d05afc0cU, 0xa802c2f43ffd011bU,
  0xe2236f062da5dff3U, 0x7ffdcef2e4ede026U, 0x181538e8e2270517U, 0xc051acfdefed071U,
  0xefcdeb1a5e50b7fU, 0xcf47196ff3bb550cU, 0xabe8ff81ffc1eef5U, 0x41f61d250b32eaedU,
  0xd335fefe1d171625U, 0x19e31aef64f70a24U, 0xe5e2fee9260f1c11U, 0xe1bdd7f70df21107U,
  0x2405ed177f08d3d8U, 0x12e1e9f50215d222U, 0x529bed2063a2100U, 0x9504bd54a2470223U,
  0xa0e30dfe17c10925U, 0xf6e87fe302deedceU, 0xbe24062d0df9d4d5U, 0xe00b301a3ddbf166U,
  0x45291f427ff8f6ffU, 0xb61c151665f9144fU, 0x25e14eec2eb3c182U, 0xa940c3d781070a0dU,
  0x3fe8a375a00c3bU, 0x5b4af939612c07faU, 0xf6f6028bfc54d71dU, 0x71de90dea0dee16U,
  0xbce55321f7ff06f8U, 0x2ac4f2e281ed18e5U, 0xf6fc38fff11fe61eU, 0xf3115551a407cf09U,
  0xeff80ac70b81f7fcU, 0x6040f9ad1a10f8e1U, 0x573ef2bc06fd33dcU, 0xf7f3b3fc06ea31f7U,
  0x7f060f17b0de2207U, 0xd1be740d13bb031dU, 0xe5e5d6d66f2ee1fdU, 0xa219611e41ead5deU,
  0xab2e134de62eec32U, 0x28f17fcbfa21f6d1U, 0xc1300dd075d1723U, 0xd80a4bf2e92a02ecU,
  0xf60519bfc003dbdeU, 0x7f0d070710d7dd16U, 0xb3fedc2bedc0eb2cU, 0xf022b90af860e201U,
  0x1311c7c007ccd3deU, 0xf41aea1e1a7f1de3U, 0xf08eef2fccae72eU, 0x51ac70d2a81f90eU,
  0xfbd905f6f72ceeb4U, 0x2deffdee2514f2abU, 0xbe14f833b3b3e942U, 0xf06fdc1372833b0cU,
  0x1dcdff4b0276ddc0U, 0x2f282724114cea81U, 0xee5edb2f05cc0f01U, 0xdacbccd4d1f5e023U,
  0xe8f502f5fc152014U, 0xd4577fc816e2e29dU, 0x2df72ccf1b4ddab8U, 0xc76b2aa38defb8c4U,
  0xfdeae5942d24da7fU, 0xcacfcba1e5bae8e3U, 0x17301a7ff1de16d3U, 0xcf112c1222d80ddfU,
  0x3bf3f5b7fe021451U, 0xa20731f7d9ef180cU, 0x32f4e9a6ee2fc014U, 0x3fffa3d7b42b070fU,
  0xb42050e7d9efca31U, 0xdbdf81ee20ad14f6U, 0x26fb5623431a0a1bU, 0xd3f7e2daf2edfcf7U,
  0xfd3937fc7fed0cd4U, 0x1dfdfff65215dcfcU, 0x8bf3d92dd60ef9e9U, 0x26c70b36db901491U,
  0x4a2cdad5e50b21ceU, 0x9aff0bdf920ccb81U, 0xf31bff4ffb18e608U, 0xd51ffcc0dcfbfaf2U,
  0x16dc11e54abe1639U, 0xcbcb7ff627e50eU, 0xd11df7aff54202a8U, 0xee0aeff90fd6e051U,
  0xf2cb42ce402703fdU, 0x13caf85c7ffb38e0U, 0xe8e9cb5b0a5901c6U, 0xc823243414d738e0U,
  0xe32d063b4cff1b00U, 0x45f1134281dbe6e5U, 0x1af5e15a02df3f01U, 0xfd7fb00441e3d7f6U,
  0x282403cdb7fed9daU, 0x2228c5e0f8d9e631U, 0xde23ed3625f824ddU, 0x45f811020304d7dfU,
  0x4c3101f2e0e4082dU, 0x12fd05e3811c39f2U, 0x2d430000047eU, 0x43e2000052a0U,
  0xfffffcfeffffe8aaU, 0x2bed0000308bU, 0x1358000024b4U, 0x20fcffffda21U,
  0x1d8f000022cfU, 0x3330000006cU, 0xfffff9f200001c44U, 0x7e500001659U,
  0xffffef7400000df8U, 0x1b82fffff8c3U, 0xfffffec900004157U, 0xffffe7bafffffdf5U,
  0xa2500000c01U, 0x41a500002121U, 0x199b000023b5U, 0x123a00003619U,
  0x124afffff0eeU, 0x1aad000010d0U, 0x119cfffff488U, 0xffffcb2200001f72U,
  0x508d00000245U, 0x13f400001057U, 0x17c8ffffe92aU, 0x2d64000005f1U,
  0x28570000019dU, 0x1c7c0000422dU, 0x21700003582U, 0xffffff5c00004b64U,
  0x16cfffffb03U, 0xb0000002a8U, 0x7f131db781962f09U, 0xc81381ef042ce4c3U,
  0xc87fbfdddb94ca9eU, 0xfbeb321b5eef925U, 0x7fb6008d028b741eU, 0x40c894b776c61a3bU,
  0x294e3b3ba61d6e0eU, 0x1cb7d1234a21e8c4U, 0xb8cffae0c1d8f234U, 0x811f457f657ff7f1U,
  0x419b03f8121e5baU, 0xf923be430eba24cdU, 0x2e9f3ca4f817f41U, 0x7f1fe8817f14d37fU,
  0x7fc938df81f9ac1cU, 0x7fe1d6237f8164d2U, 0xc8e8e5c5b235b9ceU, 0xb5be9e1c13e0e923U,
  0x7fceef10d24baf7fU, 0x1578cd0221e40810U, 0xd49dea57d2f6e518U, 0x4bfd133fdcede416U,
  0xbdfddd3c1e8bd15U, 0xe303d127e8f581d0U, 0x1c8113bf9481429cU, 0x913bcca50c3d18f8U,
  0x2076b811c8121b9U, 0xcdfc4288a153f138U, 0xdbef0bdbc7230037U, 0xf481f79c6ad47f10U,
  0xd06c7f7fd8237f5bU, 0x1681b51df410d2e3U, 0xb19b7f818a027f7fU, 0xb86d6003330f7f7fU,
  0xa4de7f1f114333d7U, 0xb37f1d2db7ebd081U, 0xd7817f817f73f57fU, 0x9647f1168071a3bU,
  0xe00142f9157fd27fU, 0x6889c90c01a167d6U, 0xe9dc6bcfcc591444U, 0xb781e1690fb60d01U,
  0x43e8fa39f9410065U, 0x7c32817f81ab7f36U, 0xfce0a9032710e301U, 0xd02a3d3bebfd901bU,
  0xefa3e5de6a04c513U, 0xf6fdb67fa6310407U, 0xbf8b04dff5ca26b6U, 0xa2f4fbfebbdd0ff0U,
  0xc8c4c8eb128f42c9U, 0xca262cc51d7fdb0eU, 0xdacedc12b61dc72eU, 0xc2b92cef4b3c17fdU,
  0xf41d45f039f93d23U, 0xdf138102a892fd2dU, 0xebce10f1b1355366U, 0xfc14fe8a81a123c9U,
  0xd8ffecce30757f17U, 0xa92449bdf651e5b8U, 0xfab0aae2e56ba73cU, 0x9d571709007f1e23U,
  0xcf11e5095530da2aU, 0x21faab26a1e9d27fU, 0x39e214059641283dU, 0xdcf209bba0090ae8U,
  0xed0af423f90d265dU, 0x7f91e3de9af01418U, 0x11b1d0c229d8ed13U, 0xd90bc6e9c14c0302U,
  0xf28106c93d050b24U, 0xf60ebc28c9a01c1dU, 0xffffe5a8fffffb0fU, 0x35f9000003eaU,
  0xfffff22700002c93U, 0xcce00002070U, 0xfffffb21ffffff79U, 0x20bfffffd9eU,
  0x666fffffd2aU, 0x297cfffffebfU, 0x2800000277U, 0xd09fffffc7aU,
  0xfffffe0900000169U, 0x99afffffd98U, 0xfffff7c300000898U, 0x1fb2fffff942U,
  0x4f8fffffab8U, 0xffffff79ffffee74U, 0xfffffb4effffdbd3U, 0xfffff6b8fffffcf6U,
  0x429000021a0U, 0xffffffa800002fefU, 0xfffff764ffffe904U, 0xffffd810fffffb13U,
  0xffffff2400001508U, 0xffffff0fffffff3fU, 0xdbffffe2c0U, 0xfffffcd5ffffeda0U,
  0xfffff7f3fffffd70U, 0x121000008c7U, 0xfffffe9e00000218U, 0x4b700001a1cU,
  0x235dffffeb73U, 0xffffefb000001b61U, 0x3f42078b5418fe2dU, 0x373b2deee9fcdd14U,
  0x33fcfaea16f2e6adU, 0x68421510d714dd2bU, 0x7f3518e9103bf53aU, 0xe330011b5d0901e6U,
  0x2322943edefd329U, 0xca0f1d29210f3913U, 0xf1f8b48c21cbe2feU, 0xf02fe2e61132e6f1U,
  0x510897c41227194bU, 0x12070c19190e2727U, 0x2bbb00c1d244b542U, 0xebaac0c7813efed3U,
  0xc8f94e1cd005e143U, 0x1d21032bdbd5e2afU, 0x8efcc90fe3e9cbU, 0xd8332df45e4fc408U,
  0x12242c30bbbe0592U, 0x34eb18fdc7abec2aU, 0xdcacfcd560a8cebeU, 0x2e2bce96f1001092U,
  0xa72f03b3fdea0dccU, 0xd6bf19327f27261dU, 0x123bfa084b3c02dcU, 0xa14efee6ffdfd01U,
  0x42d13d1f301a335U, 0xef54001cc61103fcU, 0xf507e40ecb0f492bU, 0xefd2f61dc636267fU,
  0xddf9e3e9f72a2d53U, 0x73569e7f4bd2353U, 0xef34181dd4f51095U, 0xdfe10f4777dbe9f9U,
  0x717f7b6469c05b3U, 0xcdec23da15f1b2d8U, 0xf738eafd137f1effU, 0xd2f42bdae82cc30fU,
  0x4505a5b80ff8da12U, 0xd5f130ce0abdea75U, 0x5842eb38252ed00cU, 0xe24e3f93e6f0fef7U,
  0x3a04f006d53d1477U, 0x517fc70ff60cfb23U, 0x100afbb6e92ce01aU, 0xaa1bd818d5d9e3d3U,
  0xb323194166c3c0e9U, 0x1e410deee1c0a3ebU, 0xcfdcc98be7ed1fdbU, 0xe5d4e3661a45effeU,
  0x1240072b2ae5b2f0U, 0x163ecd00e12eee4U, 0xf312bbb444f103bfU, 0xa816ae0ef8efdab2U,
  0xb52fbf27f15d4f4U, 0x8b8b06af2a2acb8eU, 0xecdc27c1d19bf3f3U, 0xe70735bb20e7e90fU,
  0x1ef8b4f71bf00ce2U, 0x31df280bddf7ff34U, 0xbd3e89601c8d21dU, 0x2644d6e57f27fc13U,
  0xd1f3feb5ff12e626U, 0xebedd013051f2620U, 0xd74dbd09eaef3695U, 0x25daecd8211dacf2U,
  0xcbf306f227efc0cfU, 0xcaccb3d7e0e504abU, 0x25fc0d03fd4a1242U, 0xda2313f4ef120002U,
  0xf2180edce4b78148U, 0xf3455bd9f632ca61U, 0xcb3f2d41b0cffae4U, 0x2d39fba37366e2c7U,
  0x16daf404093306d8U, 0xef52045c210f89dU, 0x22c9ce07314df60eU, 0xf8caadfbdff2ce06U,
  0x5fcffc15e71bee12U, 0xe8ae45e67fbb48f6U, 0x7f2dcc114a451227U, 0xfbff4deaf64adc07U,
  0x121b4ac8d1fce9cfU, 0xc95ac1c0e5c91bf6U, 0x6f21021b4493affU, 0x432055eab0dc0befU,
  0x21de06eb36f60dfdU, 0x46f512075a1ae6f3U, 0xe2d2c40b1238efe1U, 0xe20051160e230828U,
  0x62afa0dec18cbffU, 0x22e639d1fc0823feU, 0xf7f0eff2fc0fe3a6U, 0xb51cde2b10fbf404U,
  0xbae50d1aee7f0909U, 0xc8e600f0c81b1cfcU, 0xf717b5fff9e3abeeU, 0xfeeb44ccd13ccb0eU,
  0xfdca7fe62f17b312U, 0xe7dde3eac9b8dd01U, 0xfb9623f90d2464e0U, 0xf845f627e42f30b7U,
  0x2fe76975ddc83b64U, 0xd004181109dfd334U, 0xfd27bb8c102b17c3U, 0xfe59dad7cd50600fU,
  0x1836c0ebdb34d9d2U, 0xed60dbbef14ae441U, 0x24c6f9a6ed1c430eU, 0xc5f35a13bd240256U,
  0x28629c0a3e237f01U, 0xe92acf1c69f91fffU, 0x3afd0824e6fffedfU, 0x7e0f2fbfcd1dd11U,
  0xf51481ee0d47b8e6U, 0x1d092ceed4dbe033U, 0x25cb0cccf00d1809U, 0x1d1e1906ffffdbeaU,
  0xf1ee0ddb032048ecU, 0xdeea34fee3fd1cf2U, 0xed58ceff1a00bcb7U, 0x6ebc464211c17f1eU,
  0xef0811bec5f8caddU, 0x89d29023f0df92dU, 0xca097325c905231eU, 0x293a9d250e19f308U,
  0x16dfd60befde8ccdU, 0xadb53915f73f0be8U, 0xe0b5f9c224f7411dU, 0x738011a0f529c0cU,
  0xe2e6dc1adc0e7435U, 0xd837b70fc639470dU, 0x1acd0c810529c5bbU, 0x4c47f869d123f527U,
  0xb30e10c909b60c41U, 0x269df2fdeef2e9U, 0x6f1bbebdf92b8adfU, 0xf452d6010033e446U,
  0xecc60a3aed34037fU, 0x2c28e0bf051e3d1bU, 0x19b0edec2de5bc56U, 0xfee2573600f2e727U,
  0x22e1c524685ebceeU, 0x35ff1814f3be1428U, 0xc7e9810b8f3e02e9U, 0xcad45c3f42f339f2U,
  0x4d9d618d0c408c7U, 0x306241d5dc00f560U, 0xd12a36e50af3f3ceU, 0x4d4fc72cd8f7a2aeU,
  0x4edfb9bdc82bb603U, 0x6014ead3b2fed00U, 0x3b2f6fcf3ab5f90aU, 0x282af0c9e233ffe5U,
  0x7ed49e302c603f0U, 0x1bfaf221e8cdc7dcU, 0xc981d645db1e241cU, 0xf7fc4ffef9ecdd0aU,
  0xfb06a0e03a1ed211U, 0xb41004e906003ef6U, 0xf85b22e030f3237fU, 0xd62517e9c0f2f0e8U,
  0x10fa1138dee6f0dfU, 0x11fdfe10e7090fe8U, 0x2f0bef142309f148U, 0xefc906170518fb0bU,
  0xe28fae0c8e73b0aU, 0x351d24f3d7fc39f1U, 0x54f4dbc32aed05fcU, 0xd2edff602d362064U,
  0xc90cfd6f1e1127f2U, 0xd9e716ebcf3c2ff3U, 0xdffe7ffcf9e3f2d6U, 0xf20a104ef8201ecfU,
  0x22e8cbd143b4f9bdU, 0xfa14fbed6dfdf50dU, 0xebf0eae5cc7f1bd2U, 0xefe6f93cf0bff612U,
  0xedf2dc1f00f9ac44U, 0xbd0ef7d0f852f4faU, 0xf426e74bf33b12e9U, 0xcdcad745f40519d2U,
  0x16c0eac4dfec06fcU, 0xea1c333706e7de0dU, 0xf2d2da15f5e201d4U, 0x9cfc3cfccffd4323U,
  0x13f016ee2013fa1fU, 0xfb013a0defdde81eU, 0xf2d910d119ef0ce4U, 0x3efb09f0e10bf3f9U,
  0xfc197fd243f911e3U, 0xe81ff207d6fa040cU, 0xfbe0bc9efa1d041eU, 0xe7d7ffc4433cd60eU,
  0xcd19f235172319caU, 0x4a33f5e012f5f976U, 0xe85a03e44e8108f5U, 0x2435a7f0dab9f4a6U,
  0x34ba2f0913d6dbe0U, 0xe6e312094924e8c9U, 0x92230f1d1512471dU, 0xeafd291af6f5f6deU,
  0xe4c1003f0c09e916U, 0xebdb07620af60510U, 0xc9f6f55d181ac2bfU, 0xefdacb0414dd3605U,
  0x7fde2f47152ae907U, 0x3b021bc012100418U, 0x1cfd7dd700ec0259U, 0xa0e1c122efbd201U,
  0x3512260918e50fe5U, 0x23eb2b05dd221707U, 0xea0be7144917fcebU, 0x1a04da1ef42309c8U,
  0xeafb10f5fd02da10U, 0xc0f6190b14037ffaU, 0xc4de14190e0b2f16U, 0xe6000d37b2f441f7U,
  0x4310e96237091cfeU, 0x12e3352f19034f0bU, 0xd321f025f0d2f5c6U, 0xbe1de510fde24421U,
  0xfc163e7f052cd38aU, 0x15c40afcc3b5f1e2U, 0x70fbab120edc450bU, 0xc4ef49fdaaf93df0U,
  0x7f3919eeaab10416U, 0xbfe3fbc4bb29abc0U, 0xc23a2d16edea23d2U, 0xaeca1db635fe1103U,
  0x1f663203840a2f14U, 0x4a5c72ba451918bdU, 0xed17d6ba2de1d031U, 0xee55121014eac521U,
  0x55322261cf07f03U, 0x3837c91e1002e9d0U, 0x233c15b8d7e34cc8U, 0x16fbc201c7e8e2fcU,
  0xd006381816fddf11U, 0xc739e9ebee314526U, 0x82e211ead2eadbfbU, 0xf256409ef031bbc9U,
  0x188128fe260c23eaU, 0xeddf1d06bcdd2184U, 0x1504eddcd7df37b9U, 0x1f1eee55e501fff7U,
  0xcff5c422036bfebbU, 0xf1ebf093050925fdU, 0xd5f81df4def01518U, 0xf9c8b4edf0d808d0U,
  0x1be10f0901ec0f2bU, 0xe6f1eaf27fe41b14U, 0xd9500c5e35fdf6a7U, 0xfde7dbe932e128eaU,
  0xf9e70c03900e030aU, 0xba16c90ad9faf405U, 0xeee744b8f5c27f53U, 0x4b0114047c46c6f8U,
  0xd9f1f6132815c3adU, 0xea13f05b043a17e3U, 0xfe4ec2c5cce0bf8U, 0xcfd8e10c01fa08d0U,
  0x20c0002825fce4dfU, 0xe808470624c709daU, 0xdd1dfc0b3000a908U, 0x14fc1419010ee1edU,
  0x3b2015fbedce33d8U, 0x131ef326e93b2fd3U, 0x62d2b0ceb180aedU, 0x3217ae25e0eef9dcU,
  0x811924e8ea64d8e1U, 0xf4e6161ffa0c4acbU, 0x1f0f120f32212021U, 0xedfaf609f4000302U,
  0x6ffd9f41b250e33U, 0xffb1aaf0e13daceU, 0xe6110e240a7f1912U, 0xedeced0dfafa1b27U,
  0x8d8c107fb451627U, 0xf60a24101a0a0b20U, 0x27b9c3efc4de29ccU, 0x2ad00eef1b0ce001U,
  0xf4e035f30404b205U, 0xe22aea0f22c3dcbfU, 0xe2001003abb65221U, 0x511410e4e53103b6U,
  0x22c9d9ea7fede019U, 0xe301eef832fbc022U, 0xff318bff4e50bbdU, 0xd3e8f2ed4bf10160U,
  0xd75502b702362954U, 0xcd0fe6f62fe7f311U, 0xd5144209c7dbf737U, 0x103938d244b02adaU,
  0x2ef0af33f37fe3ddU, 0xd7011b1cbf260a1fU, 0x1ae0d4b236692762U, 0x2a24c4cae3029dfdU,
  0x5e9df48f6df3dc8U, 0xaa24972820016d04U, 0x3201abc65d7f0731U, 0xdea1de37b50602bfU,
  0xc1db3fdc1face8f3U, 0x3c45ea41efd4c820U, 0xff50f4d73cc4f221U, 0xffa090cade219eaU,
  0xe90dd4ddf401e819U, 0xe6b6d52ae7fcda06U, 0x6b0320ee0a08cff1U, 0xe524261df42109ecU,
  0xaae9e104bc4106e4U, 0x36ce697fe352e0ccU, 0xec0132280c03f9caU, 0xdceef21cc921020aU,
  0xfbf1f0edf6c6eb1dU, 0xf2e6070630f61edfU, 0x1591f1040c7f1619U, 0x93622ecc9f72408U,
  0x29e5b2ee13e2e5d0U, 0xdab1e3ef1bfbdbU, 0xc7a5239dc306dc00U, 0x9fca7f1f0b276c53U,
  0x457326d9b0b136e9U, 0x1c212db6fe0dd7f7U, 0x232d2609a2eba32fU, 0x2b33c31e5136dab6U,
  0xa2f415c9e1aad83eU, 0xcac619f8041d67d4U, 0x2e06c4946d1d0b60U, 0x1b22c7eddbfcc6e4U,
  0xc3e34f332af42ed8U, 0x34ef0046ed661965U, 0x1a5a13ed7fe4e6e2U, 0x4ee5a2dee5bc0f07U,
  0xf826265534303024U, 0x3099dc7bdc8f8dcU, 0xeafcca2e08fce359U, 0xe32424f92617f21bU,
  0x21e9bb48113115fcU, 0x2ce4de16e211395fU, 0xf036d2c20fed27efU, 0xf2d8d5f7adb4daeaU,
  0xe07f2c4ef61b1332U, 0x1b19f5de19fd22f4U, 0xeecace81f0f50916U, 0xe51123c9fa092afdU,
  0xc1f839cf35f436e5U, 0x254699af150daf1dU, 0x4d1e00b769d109f9U, 0xb75cade85295d794U,
  0xffe5dfc4b8d3efeaU, 0xa4b4127c09541f21U, 0x3af1e87fdee9a843U, 0xc0911fdde0e07c0U,
  0xbe6ee0a05331f38U, 0x37f9b404f220023eU, 0xfcbbcd1f13541ac7U, 0xe5f931c9a6f9f6c2U,
  0x5119e748d32b06ffU, 0xfcf2cddff2f805f1U, 0x2e17eaff64f515f9U, 0xea50e9ece93f61f1U,
  0x28eb615bfadd2e3bU, 0xd2f8520df1f93adaU, 0x12751f164c45180dU, 0xf5200307d028eec5U,
  0xf7dbf9fcfa7f0804U, 0xbe4d40a2b3cf32dU, 0x992fe920f2070b11U, 0xfde0e3344f10a36U,
  0x6225ef35cadc4331U, 0x1ffb3e061edae221U, 0x190b05543509e7e6U, 0x1f760d06e5f6ed08U,
  0xcc6de1e4fdaaaee4U, 0xaa1b7fb9eb0d5415U, 0xb1e1c82cea053fe6U, 0x31ab1e01f891ef96U,
  0xcbc99ab6ea23f243U, 0xeece0ff625ca19ffU, 0xc6bdbe16c4c9e4e8U, 0x372de22121382224U,
  0xb29f1bcbfcffe254U, 0x4df5dc1a8126ffe8U, 0x81408031bcd7f00U, 0xbc4425b8fbe3c5daU,
  0x7f12e13edca65ecU, 0xb8c1033a08bd05c0U, 0x2908e9fd022fecd7U, 0x410d5257dc05ed0bU,
  0x1d19ad1183daf507U, 0xbf3d23c03ce0c4a0U, 0xd1ec99ed0dd3dcceU, 0xedc4a3bf803497fU,
  0x4ef34c20cdd81fa3U, 0x8f6d9375b392a38U, 0xce1e1dc3e2113ec5U, 0x6199f2bd9a9af00U,
  0xc3695d3dcaafc27U, 0xb4cbd6edf9450101U, 0xaf13b81012ae4281U, 0x4ec4e1f140d30af4U,
  0xf1ea2ada4bccd8b2U, 0xa1bc3c33fccd02b2U, 0xde20eb18d0c24b24U, 0x17b0cb9c2c43781bU,
  0xd9b408eef833bf74U, 0xd9773c4dfa42de27U, 0xcddaaf4ceefa1a03U, 0x2aa625363ce37f3bU,
  0x667500d520f4b5aaU, 0xc8e04f072c05df01U, 0xfe2a4824e18d3622U, 0x8facce1bd0bd846U,
  0xca060f4abd35e314U, 0xbcbde8ff03080ec3U, 0x7f32b507ea04f0e8U, 0x3bd5e9eb10cae40cU,
  0x5b023ff9e4ed150bU, 0xfe6150be5b5e6f8U, 0x5dcf02d2ec23501U, 0xf61261b9eef6e4dbU,
  0xd222efe1f8012817U, 0xf5311b0507e32c59U, 0xb4fdc2b81ed1cdb5U, 0xed035d12fb260821U,
  0xdd5e2d308f3dddcU, 0xf4d31eaef6e14de1U, 0x32153ab9dc08f396U, 0xf125b20bef4eeffbU,
  0x8107d22bb941c700U, 0xc9c3e3f6357c3fd5U, 0xe9faefbd23cff623U, 0x340e0cf751052825U,
  0x1e41f2c60b1bf5cdU, 0x3010d8e8d5b424caU, 0xf22c11d7c0333f0dU, 0xc23bd91d4b6504f0U,
  0xa8df337fee5807d5U, 0xb6e6dce372cb2641U, 0xeaee1f0a3bf5ec18U, 0xa4df1b0f41f15426U,
  0x100f26ff06dc1eb2U, 0x3b3b0c00f6db071aU, 0x30f533c656c81aebU, 0x7f61b1bdbc22bca2U,
  0xf94443a326e6c0e8U, 0xcb186233660df0f1U, 0x24dce352280a4707U, 0x51e92ef4b8ef03afU,
  0x210ef5da16fb2119U, 0x4d12d0fc4dbdf81U, 0xb1d73f4eea70f9e6U, 0xf5f04f3cfcb4d111U,
  0xb73b62bc09c64b22U, 0x183febe20903c0f0U, 0x1b02cd2348fd62d5U, 0x8af0d7f225e43712U,
  0xe320defe7417decbU, 0xf3e5343e2fbdf9fdU, 0x408faffecc84b52U, 0x1e24eda3af244d39U,
  0x2610452d7f3cf1c5U, 0xd6f81012e007ffcbU, 0x4ebdfcf9b89a7258U, 0x3511daf203f529b4U,
  0xb11205dd315dfd12U, 0x3f16457bd7f9d741U, 0xbfdd08fc0ec56952U, 0xcd14de5f388cebdbU,
  0xe5b9d41a52fa4a48U, 0x8fda081a5ae35bfU, 0x4833ffffc86cU, 0xffffcddc000077f6U,
  0xffffdfcb00001b96U, 0x275700005216U, 0x6350000359eU, 0x125dffffaed3U,
  0xffffe92b0000081aU, 0xfffffc4d000017a9U, 0xffffd02f00001f71U, 0x2dee00001061U,
  0xffffbd32fffff661U, 0x313000006f3U, 0xffffe69c0000465bU, 0x1536ffffc45fU,
  0xffffeb59ffffde83U, 0x4ef400001d5dU, 0x79cfffffb37U, 0x353fffffd8b9U,
  0x8befffffeacU, 0x5d9700000e27U, 0xffffebf1ffffeed9U, 0x3a8fffffeff6U,
  0xffffb28bffffec17U, 0x4c24ffffd7b1U, 0x134200001038U, 0xfffffc77000027b3U,
  0x1e07ffffedd5U, 0xffffce21ffffeec7U, 0x3744ffffc78dU, 0x309624b0fffff283U,
  0x6226f0be24da7f22U, 0x5d0891d7ba98d95cU, 0x8aca0254911f5474U, 0x306381d7817e38fbU,
  0x50b3b75ff6701559U, 0xce123060c075404bU, 0xaf19dc53557b43b7U, 0xa493e16f3b5163faU,
  0xa59081e2597f4ea2U, 0x1bb3567f5c7e2fa1U, 0xa90d795d05b7a52dU, 0x5ad575118e6020f7U,
  0x7f81877e387ffe81U, 0x7f427f6030973f74U, 0xc40f316d0bd634a6U, 0xe21d372afe1268ecU,
  0x2a003234aa96d392U, 0x4681819315b2f14fU, 0xe09c1f8123a57910U, 0x7f24230f9414d86cU,
  0x5048ac493fc9c3daU, 0x83dcaf2fe6780020U, 0x57a481819f5b606fU, 0x3bf54ca814bb64faU,
  0x87f75fa33b717f22U, 0x5ba1dbbe7f5a42bdU, 0x83c75252463b727cU, 0x3055bf967d5a6652U,
  0x50e0e56863728188U, 0xc19d3c7f7f45de81U, 0x81bb317fc97f81b8U, 0x817f6a6f187ffe01U,
  0xf3747f5a9e8f4907U, 0x437f01bc7f073a81U, 0xb686577f6f95b77fU, 0x7f7a7f36817f7faaU,
  0xd117ffa937ff1dcU, 0x36a43fc2eb1c81dfU, 0x1c37451390a3a962U, 0xd193bc7f81ba4439U,
  0x8167bf42c7311658U, 0x2d34ccf55c0e4e9aU, 0x74cc4d09b3e6823fU, 0x81b75cda17215450U,
  0xd1992bd824555da9U, 0x627fcd3fdb1e8f41U, 0xfdfed95a0a3ca93aU, 0x9ff8020731371d81U,
  0xfb0a7ffaa8181e24U, 0x37b5957f2c2f06d0U, 0xa1b22dfc48b0c007U, 0x98e16166fba8a649U,
  0x1a513ba05f88abc1U, 0x613342814a7f75a9U, 0x394351078a4fe0a5U, 0x2381c96df22fc7fbU,
  0x97244a16b33e5a74U, 0x2e34f3d05006c8c9U, 0x2c2808a47081c144U, 0xb83fcad231a7d708U,
  0x983139f2c3d77f15U, 0xdcf259c78345333aU, 0x6b1130ebec39280eU, 0x15814847410fbbc7U,
  0xee2be2f4dc9cfb2cU, 0x3fbaea1e1a0859U, 0x10d30000442fU, 0xffffeb49fffff5dcU,
  0xfffff695fffffba1U, 0xfffffb090000330eU, 0x13aa00001e4aU, 0x2cdfffffac1U,
  0xffffff59ffffea04U, 0x20eb00001bafU, 0x72600000221U, 0xfffff896fffffed2U,
  0xfffffe13ffffe7cdU, 0x3606fffff5c4U, 0xfffff93fffffff9aU, 0x28fc000014aaU,
  0xfffffdc7fffffd63U, 0x723fffffdceU, 0x50000211eU, 0xffffd8fffffff597U,
  0x159b00000a73U, 0xfffff004ffffe738U, 0x249afffffb67U, 0xffffe8f400001f56U,
  0xffffee7bffffea01U, 0x3149fffff657U, 0x8f00001058U, 0x2101ffffe577U,
  0x61ffffffabU, 0xfffffd6efffff138U, 0x22b8fffffaf3U, 0xcc4afdf8ffffedfcU,
  0x3c0ea34c4ff3481U, 0xd770ecdc0714f4f3U, 0xcb022c349e09e2bcU, 0xdf25d5d6fbda06d9U,
  0x55c789d3c64a3542U, 0x1adff3190dbb30d4U, 0xaf2cd2f7d12ff1eU, 0x2415191d8111bc23U,
  0xd00c41a000a1539U, 0x1cdbd3f2ffe71b50U, 0x48d9da14132511e3U, 0x2106e00e13ea11f1U,
  0xfdf31c050500df06U, 0xeec6c1100be40d28U, 0x9812930f6151c04U, 0x33e64c18294c0804U,
  0xd411fdd9bb070e89U, 0xb93b944504d5cff3U, 0xbd9f53d0c540e75U, 0x107685dec8e41e3dU,
  0x4c35bce4b517d227U, 0x11e7c131f3118a37U, 0x5d07b20039209231U, 0x701c3d1b6804cffaU,
  0x77be20130de760b3U, 0x3115794afe394df5U, 0xe633d2b63ee4500dU, 0x81d60415165c69c0U,
  0xd2dd3b175c1be550U, 0xac2180362f11ed7U, 0xaaa6681cc2f0bdaU, 0xf1fad71f13324992U,
  0x3dec1e070f2721c1U, 0xec052cd841f40612U, 0x2cd1bfc1f7dd2149U, 0xe6f9bfdde1d0e26aU,
  0xe8c32fe41e2afc11U, 0xe5feccd8ede59673U, 0x8bb815bd310afef4U, 0xbe164b1d192757d8U,
  0xf5e20f1df8e2e823U, 0x1654f0d8e3c8d0eaU, 0xfe7f9e27fcf2f9ceU, 0x1026f05fffe8ca36U,
  0x3e5f23d6ae2d6f0U, 0xb3e0ef810075ee62U, 0x9209bc20eaa610abU, 0xe371f086bcb05826U,
  0x14c80ffa2b1d57d8U, 0xd928856eef473dddU, 0xcff50eed60e83839U, 0xb6d81cd72c1ec947U,
  0xca23e233f9e8a814U, 0xfddbe7f57fffcff4U, 0xdbbfaf0d29bf211dU, 0xfe094e1e13f6c0e1U,
  0xd6bfcc34110a06eeU, 0xf8b92dfbf50cfc41U, 0x2cd0fc592b14fbe8U, 0x296d48e3f5163814U,
  0xc0143cb6c3ace6afU, 0x2d7fd03cc1220d1bU, 0x31a2e8741dac1137U, 0xd9fe232a1eee3d17U,
  0xf68c2ce5efffd64eU, 0x2fc3f54f35091a2eU, 0xfb11fd17fecca316U, 0x47c2b47812efdcf9U,
  0xe49a8cad2ffe7e9U, 0xec1c3ce8c52172e2U, 0x907f2aebe348d7f9U, 0xc61e16d10a9c5105U,
  0xf0f5fadecbae4c27U, 0xe9cac2ebefed07d2U, 0xa6db0ce73946efe7U, 0x38e7fc00663419U,
  0xfb2c81c00f39fb15U, 0xcb44c6ff17f4f2deU, 0x3004eccfed0ce1e4U, 0xeed210cce7c014dbU,
  0x3e2ef38fd22f425U, 0x2d0d71037ed7f18U, 0xdf140c37f801350dU, 0xf6e50016d9e2055dU,
  0xf011edfbeb12cafcU, 0xf21ece05e7f12417U, 0xf7e506cbf9c64cb2U, 0x35f81ee9230beb1cU,
  0xa01ed20e40b2e18U, 0x9dd100ceffdfb1aU, 0x76c7091532f00b00U, 0x82af3a6020aeb01U,
  0x7fe6292fd3f00521U, 0x421008c6ef232d01U, 0xf4edc70122e5db05U, 0x4ee20eddf21467e1U,
  0xe2050ccdf0ed6114U, 0xa532f2bbfed4e524U, 0xf2aeac891e9e2edU, 0xe760b7f42e0a5dc8U,
  0xbcfb1d012d05653eU, 0xb4027fa924f02ee6U, 0xf1f0f31fe3b31535U, 0x260b0c4b0c2c4feeU,
  0xcd1113dfcc05fa33U, 0x31f8e105ea7fafcbU, 0xe0f420c72ce401c5U, 0xe1ea33322522fbf3U,
  0x1c110e03b4e113edU, 0xc5c95902bc122bfcU, 0xe27fe3cf19ead2d1U, 0xdd1f3f2509071009U,
  0xe9f524cff5f4041fU, 0x49f34e1160d17f9U, 0x101cd5e220ec0bfbU, 0x7072efd0b06f1f9U,
  0xf5110e2bfa08de1aU, 0xda20d7ed1fed0fedU, 0x21f9dbf220e215f1U, 0xe8e1defafe2ec1daU,
  0x2cbee2f0084245deU, 0xe2f818c92020d010U, 0xd5e7fd11c81306f5U, 0xd0fd51f3dce11bf8U,
  0x25e0ecf124f97ffcU, 0xc527294962f71f23U, 0xbeee48d6babfef16U, 0xd7fee169af770dcU,
  0x1afe1109033010a6U, 0xb555ccf5ffcfd8e9U, 0x39bd11bef5ffdce8U, 0xfa210c1ca917e20fU,
  0xad7ee16c92cca52U, 0xc512eafaf3081a10U, 0xccca2626f20707f3U, 0x103ad8dcf94816U,
  0x5d68139bf077b4cU, 0xfc1b2b1e14ec13f5U, 0xf8ef1ada120feccdU, 0x16edbf695b0cf4dbU,
  0x4c15eedea47fe0edU, 0x95e1e3c0e8eafa22U, 0xcfd3b51deacede41U, 0xbe295530616e314U,
  0xe81b12f9471af6f5U, 0x21eb3c258134ec45U, 0xf3bfc2162328e2dbU, 0x416dd40cdeb4ef8U,
  0xac1a28041c1dec07U, 0x811c24f4a228fcacU, 0xf1cdea2ce409fad9U, 0x31ac04003e110440U,
  0x191647cf3800c22bU, 0x1bcbe73bd8e5fc06U, 0x1d13fb03e42cd3f6U, 0x333d09a6d61cb7e0U,
  0x1789df1f0f980af3U, 0xead2b457f6d9fa03U, 0x29ced5e1f91ad37fU, 0xde4cc07f081d10aaU,
  0x14d0ee2742d6f0f7U, 0x20ebe8ed1ae6efe6U, 0xe254e901e5a5f225U, 0x9d08d6ffa0c00cf2U,
  0x7f33e2fde4381fb7U, 0xe8defe23bf26cedfU, 0xb11701a52e02b734U, 0xc7013f382c0ce5fdU,
  0xb1d52f05e96fcc42U, 0x120331b90b26541eU, 0xfc170301bc511afaU, 0x1142b7f0df995826U,
  0x4dcfb29d31ecb4baU, 0x9e14077ea924ed55U, 0x7febd71d35084658U, 0x341efaacb444ef93U,
  0x28fc1914cdc364b9U, 0xe77f01dc211d9b29U, 0x9be53cf3de90b44U, 0x1d07fbe504dffa30U,
  0xd6330a35d8d6c3f4U, 0xe7f3061329b90c1dU, 0x1505f028e52af311U, 0xb4a1e41acb1a2e2dU,
  0xaf4bfdfb6dfefb09U, 0x5237fd03fe9d0dfU, 0x2a657785deb24026U, 0xc0959dea41fa5719U,
  0xe1da0ea6b52cd9afU, 0xe41dd5a83d74d1f7U, 0xf6f1fff3dfd42506U, 0x3be4184331cd3320U,
  0x45eb0ebabf010dfcU, 0x1eeffae3111f26ebU, 0x2812149d86ed541fU, 0xf22186cd3ac61659U,
  0x4edd1aee0fece119U, 0x52aeae533d715d8U, 0x36dcf1f17f591525U, 0xdb07e910c8d005b7U,
  0x4614040008e3e3d1U, 0xcbfb09ca45ebddd5U, 0x3221d250cedcfaccU, 0xe1617f001001e1b0U,
  0x2d0e20ec0bebd0feU, 0xe7244444082fe9efU, 0x1102130f291f0f37U, 0x2de82e0bd01be5ebU,
  0x1ef13103fd7f3605U, 0x3623b51c2d08d609U, 0x22eb3c1a2519d7d6U, 0x1b0bf557f902e2cdU,
  0xeeaff70814bbd200U, 0x18f44b03eced1601U, 0x520e15ece8fae51eU, 0xa305f2fce208f106U,
  0xe635a92ae9f09150U, 0xdd7f08e3ef18444cU, 0x9cc8b7e5b28927U, 0x1d0a16d5e8e51026U,
  0x10eee6fadbd21b58U, 0xb22e0ffaaf05fc3fU, 0xcb23c0cc4b5fb21U, 0x5201fe9f8158f94fU,
  0xb289485deca839bdU, 0xd0f12a11396edfd1U, 0x52f0004bc030bf8U, 0xec226ffc6ed812ddU,
  0xe0d53bee09e702edU, 0x209c505f5e3c42fU, 0x3f1a8e21060fece3U, 0x7d7091e57ec0edfU,
  0xd7d1fab111060200U, 0x42ee47e6fdfbf828U, 0x81f204d1da20f30bU, 0xbf1f522d72603f5U,
  0x13ce9ef2072ce77aU, 0x20fec9bfd314dab2U, 0x291404eedc1f7fb0U, 0x17190ecd2c19ba08U,
  0x508e917bdb836fdU, 0x2beb01a16230e1e7U, 0xd404e6c3ba06fa08U, 0xc0308bf4e50b7e2U,
  0x30f3102ece05cdeeU, 0xcb132d275dd10fe9U, 0xf9b717f9edede80eU, 0x367fece0c8c7f4f9U,
  0xedf601101306300dU, 0xd738abe52d064400U, 0xc782f35ad7aae6f2U, 0xccb390bd7d92ce7U,
  0xeb4abfac2c0540e6U, 0x4817d381d0c82613U, 0xc7230d1012c81ec7U, 0x14bd0cf92419a1faU,
  0xf4bf55ef0b030ecaU, 0xdf3e07f5451131efU, 0xa61ca9ebda1e0d2fU, 0x880b4400bd45eeebU,
  0x6a3c433b8958301U, 0xd005e60d392c923aU, 0x2e4e041dfc073c09U, 0x25d91514da81c8b5U,
  0xc50b4e5feb9f100U, 0xdfcd839d9f953feU, 0xf02d1c513bdf3d19U, 0x7f70ca2dd2df9e4U,
  0xded33d7fa161ce8U, 0x2bfce8ff7f00c930U, 0x4111c32611201008U, 0x2dfa3cd1d9f3540eU,
  0xa431f10839cf1b09U, 0x2c21024b06030337U, 0x33ce1949f99908eaU, 0x3f1f0f3ce207b3eU,
  0x123c45f9150dfa82U, 0x20816401eef82429U, 0x1da38d7358518f9U, 0xf1c01712dbd004afU,
  0xe2f20f90b5290aeeU, 0x1d3aa443e2dcf627U, 0x1e10b2eb274253ccU, 0xcfdd38b9ad00f435U,
  0x265907def6e9d2feU, 0xde7f042377a4cef8U, 0xcb42fbae2ea1993fU, 0x601bbcfd07371813U,
  0x50f7f80012141a01U, 0x3f296718d7f8fe72U, 0xf5e240e3167f5863U, 0x36ebf5e13fd7ecd8U,
  0xf7151d85cfb70fe5U, 0x3ae31e37cddd0521U, 0x7d47d8ef1b2cf9e0U, 0x950b11331cdd76d4U,
  0xf1227a91410e0d9U, 0xf03fa033633f347U, 0x96372147b726be2fU, 0x91e1d2f39b020ef0U,
  0x4428be483c250421U, 0xe0d4f0c981032cf8U, 0x300ffd5c4b901eeU, 0x6ec0ff10bdbf326U,
  0xeae1ce8ef0e0cffU, 0xee11ea2d01c9eefcU, 0xa240bebfe10efffU, 0xe3ed1fd021e8f9f5U,
  0xe4e4e804e4f2fd06U, 0x109ae3450df3f881U, 0x31c843241ca1effaU, 0xe576ebc02343f120U,
  0x207fddb970fb0e61U, 0x1d0522010115f6faU, 0x340706010e622e4cU, 0xf5341202f61bc7fbU,
  0xf9f6ca4b0c41fe14U, 0xe800e2e2f1071eb1U, 0xfbdc2cf2070fcb13U, 0xede531250c49ebc9U,
  0xe913c8f2f27ff90fU, 0xfcf05e318010d16U, 0xd3e81829fc1fb5d5U, 0x14c9bbb965f40ef1U,
  0x7c46b8bd6cd2bf0U, 0x10f73c691b2ed1ceU, 0x312bef68e645f8bdU, 0x4f210033dc166b0dU,
  0xd60bbdf09657061cU, 0x3b3b7f69e4dbf2deU, 0x7dec9ef33afd60cU, 0xd4d8f9109a30181cU,
  0x52f027dfcd12cef9U, 0xfa1e9905115cd007U, 0xe1fc90317d008f7U, 0xfafbe7d5ad7fe131U,
  0xf04cead4219d02e7U, 0xea2b740dfc22db22U, 0xc26ed47f506162aU, 0xe5ed0124f955ddd0U,
  0x1d3a173a0deff30dU, 0xcb15dcdbffebf0c2U, 0x263ee2e2f51a2a4aU, 0x392527a1fc147ffbU,
  0x28ec222efe112a16U, 0xaf2e7ddf9eaf5f7U, 0xe809f32bf52019e0U, 0x32c5f812f7e2d809U,
  0x5816f00626071081U, 0xb60bc2eafbc5d81fU, 0x2c1dfd412615d8bfU, 0xe40eba2e13132420U,
  0xdbc888e6374e1ac8U, 0xb7330c9fd3e4dc27U, 0x41a139301b87e7a6U, 0xde37c504a8de3420U,
  0xd43cdd5ffc4412c1U, 0x9034f94dd13aa543U, 0xee0bccb80af9fd2bU, 0xc2a87fdd22194accU,
  0xfbdd7fa20d47b1fU, 0xd8e60841d50011d0U, 0xf3e30d2613e6ce17U, 0x2d10be5fc14c1f0U,
  0x301dbec601054fdeU, 0xda7f1c0927060550U, 0xfafc230b11ee32f5U, 0xdcf30711d729f005U,
  0x44018d143b21d4ccU, 0xf51911d208e6061aU, 0xf9002df1fd221933U, 0xb7e1cff1f4390efaU,
  0x10f20bbbff9efb40U, 0x4206bcc2a638eba8U, 0x82ada020529d502U, 0xee033d7fb7d6b555U,
  0xfedcf1f77de8f3deU, 0xb00315d23ade16e1U, 0x1ae0c414a3071434U, 0xd9f70ae2f128b75bU,
  0x21f6ba1a811c0f3cU, 0x25140b1efb3d0b09U, 0xeecc1ceccdafe7e3U, 0x140916a9fa67d7edU,
  0xd903c733fda01a0cU, 0x17fc500ae32e5e6U, 0xef0c56bbeef250eeU, 0xec1606160534f100U,
  0xb9bff6fdea2115f5U, 0xe522cb041bdee211U, 0xeb0f04ea90cad5ebU, 0x21f447280e0bf5d9U,
  0xe1ebc815af0500U, 0xa19dcd0f4f02017U, 0x10c62e2ffef9e10dU, 0xf50e0a2111de49eaU,
  0x2ff6101fca1d10e7U, 0x33c581e5f226f126U, 0xe0daf0b2d5b9bc00U, 0x3581eb64da040914U,
  0xad098ab29c9a3f6U, 0xda19f4d94aeafc1bU, 0xe4f145ff1cde4acfU, 0x35400722fbf8c119U,
  0x9df4d5ce1a98ca3eU, 0x8112c41346f0c9fcU, 0xb602393c150a022dU, 0x2b07ed075aef09c2U,
  0xd6e9bc31d2ea62e8U, 0xfb220d24f4cdd9eaU, 0x3edac07a20db1905U, 0x9d328f6d524feeeU,
  0xe4f4ce66dac3023eU, 0x11e5fe1e05f6ea3bU, 0xdb7e0932f806eb44U, 0xb32805f2c381dbfeU,
  0x829df4be326dd00U, 0xbec222a7529d1d14U, 0xedfe44e4fe020c4cU, 0xc1e2001e37fd24d9U,
  0x3040d4cfd2dd8ddU, 0xe72805d91ecf15a1U, 0x7f1f180f901702ceU, 0xc949def11921f516U,
  0xb3d3d0f506d0facdU, 0xb2249113ee7cc30U, 0xc3230bdef2f80d9cU, 0xf8c8e9f246fdc3f0U,
  0xf3d12ffcf60fd320U, 0x16dce521db14cf1cU, 0xdc18bfc6e5e5e0f9U, 0x1303cf2339011000U,
  0x5a811ff7422ff535U, 0x110aaad628170904U, 0xf707ed0a3d5df238U, 0x28dff61834de30ebU,
  0xb812f215bc17febeU, 0x1a50280fced723d3U, 0x11e6e8f432bfbbdfU, 0x3c08d503d21e1402U,
  0xdff7b4c4eaa428edU, 0x63181ded9092a1fU, 0x2715113812ef7257U, 0x67c6332e187c44c7U,
  0xe2ef5b2ece9e9d3U, 0xf3e64324f03d194bU, 0x22b808024efef906U, 0xfac2e40081d3ff00U,
  0xf607a6eb1903371cU, 0xfd32f30c1c231fa1U, 0xd330f1ee0d1d17daU, 0xdade2b142184f1d3U,
  0xf6e2f8f71e1d34U, 0x4f4100ef7d1ff07U, 0xd4fbf73101c400f3U, 0x1d81ff1e1d0c1931U,
  0xeb1204081ae80039U, 0xf915ff06efea81d6U, 0xe344eae60d662308U, 0xf106b73927bbdcc1U,
  0x9d50cc503fec924U, 0x12ebfe3b0fe60dedU, 0xcae1d26da31ef15U, 0xe806f041f9ea0d42U,
  0x31d46f2ac7e94adaU, 0xfef9011ef7cf0402U, 0x6f392eebb3f317e0U, 0xcae643ff3b20174bU,
  0xfb052ab3e30e0613U, 0xfa8be191380ee57fU, 0xfefda0bc65dda5ccU, 0xdc25caa3d6f5a8fcU,
  0x1c1aa6eb1ac314ffU, 0x152ff6f654e0281fU, 0x900f715e0af1a0cU, 0x610faec06193406U,
  0x34a822cbe097ea10U, 0x29d000df27010d7fU, 0xbb23b156f714ee28U, 0xd30ca2bfe4be3b3fU,
  0xaa0bd4590cf33a66U, 0x160420e547941c18U, 0x69082eef32302d81U, 0x2605b2250741d81dU,
  0x2407fc205a27c7c2U, 0xe83e1ed91c9763U, 0x26e895f6d281ed0fU, 0x1bf9169d08a7f3c8U,
  0xe10347bb264fba0cU, 0xdbf99d8417f9aff4U, 0xf0e5ef9618a56a2aU, 0x86fdeb0df0fdf8U,
  0xe846eb1841ec1affU, 0x13c8f512980be116U, 0xcef022fcc8145ad7U, 0xed2a17d4e64ae7d0U,
  0xb2defdf3a034f10cU, 0xc6e7f3eafdeee8e0U, 0x2a041b7ffb0504ecU, 0xdba81445e13cead4U,
  0xe81d13200ee45818U, 0xe60cb3b87f2efdc9U, 0x81a4e39324d0dc74U, 0x151d45022ff4bU,
  0x5b51f3f39bcae0U, 0xc409121af1261dd2U, 0x1e29e8d1b20b1e46U, 0x626a220fbf9fcc0cU,
  0xa1d60df8188beae7U, 0x301cf122902011bU, 0xbd4d2dd7f4fd13dcU, 0x1027faf4142248e3U,
  0xd93ede2112d54a06U, 0x20810db958edce10U, 0x11f838f8fabb3ddaU, 0xcd1b1013e9dc2600U,
  0xabdefe1e17da1501U, 0xe7e218a1312f7dd4U, 0xe2fb0c4f05cd0f1eU, 0x22e92d7fcb3bb807U,
  0x11beeadbfef7c21aU, 0xc3e4abf9f023c5d7U, 0xc114a92c1bfc09a4U, 0xf53ef914d107f0d3U,
  0xeeec27d3100ed501U, 0xd4c4c3102d18f2f8U, 0xd3a0e515ddee1ef7U, 0x263fde4606eb0301U,
  0x20d0c40e2963ffecU, 0xce002fc87ffa1ee7U, 0xc931edcb37101329U, 0x47dde3de2599ebe9U,
  0x13fa0403b7f61309U, 0xbf0c063220e0e081U, 0xee2405e9f2d5fe0cU, 0x13ec1e38cd1b21ddU,
  0xbdec3701183a42c6U, 0xcde6f60335420418U, 0x3b02f0de9eba15b9U, 0x4b02d4a432df9911U,
  0xc622f4e3634e07e6U, 0xdd405217f4e19e54U, 0x2b2140a00ffbbdaU, 0x3eed36db811420d6U,
  0x3b5b23162fe7feceU, 0x32d3df520a0319f3U, 0x19f397fce628f5b8U, 0x341cf3444e7c2e5U,
  0x42b81ccc08e2b640U, 0x2007f73b1fdc281fU, 0xdefbe832dd127fa8U, 0xce0a49de9f241bd3U,
  0xd7f4aa24ceca4ba7U, 0x60f8b2eaef69d6d3U, 0xc9cf0e34a832344aU, 0xcfd509ec8618d870U,
  0x19261d0a0e7fcd51U, 0x9ceb0b32eff3403eU, 0xdabf2cfef22003cbU, 0x680107206130ccd6U,
  0x2e2e29e6ccc434c1U, 0x540cedd7d6af1efaU, 0x5662d7122d72b1f6U, 0xd7fe6c2ba9083c30U,
  0x9b35dc35710f1b81U, 0xf4e50d1623ab1ea2U, 0x1acc98ca17b63fe0U, 0xb2e6ef0de2e5211bU,
  0x41b06190503900dU, 0xa90a25ee2499f30cU, 0x24f611e80df1491bU, 0xc4061d07f3e50fc9U,
  0xf201e702f80b50f6U, 0xddb292536d4e07fU, 0x14a32500edfd1621U, 0xc0c514ee25448312U,
  0x609caebf14bdeb8U, 0xe651350f3fc26b4dU, 0xddca1247d01301e6U, 0xcbbbbdff042abafbU,
  0xe013720ee3fd642dU, 0x18257ff946dfe3U, 0xe35f011dfe12e212U, 0xa62d6c2aefd0f13U,
  0xdba5d63906ea027fU, 0x7f18eac6f0ff0f0fU, 0x91a0dfade30ec79U, 0xe3deaf3e12b709a5U,
  0x2a62e1f2e6c2f7cbU, 0xfceae6d41ec2f8d6U, 0x33a1ca27fdb41001U, 0xedd6f746b81e441eU,
  0xfaf505d304d333c4U, 0x2ae8d80dd92a2eddU, 0x2f0cd8402e9be621U, 0xdfdd2c31e3ee7fc7U,
  0xe7ce73d71ba240dcU, 0x1c13e32c09ee3308U, 0x31f2192d0de2eefcU, 0x42d8d8f204fccce1U,
  0xf3edd11514e81db8U, 0x7f06b23afde6fbd1U, 0x35313de5e63a1af2U, 0xfa32bff5f8cdfb24U,
  0xddda0f0d5ccdf4e7U, 0xe91f20f05d27de3bU, 0x2abcbd1fd600ec30U, 0x7f14daf2b70efad9U,
  0xf214a3d33412fdc2U, 0xe9ec4adac009cdd5U, 0xb616f28465f02246U, 0xfeebf2045f050a88U,
  0x14141100e8f50a17U, 0xfef30afc01fb0407U, 0xf11b099b050f0104U, 0x606f415ee0af1d3U,
  0x6f8e60c0fe3eefcU, 0x14f808f50ddef3f4U, 0x881d5ea0c0fe7e7U, 0xbbd9ffc50be6e0e0U,
  0xd3ece1d9fbd52b2dU, 0x24740add42b0f48U, 0xfb167ef2ddc900cfU, 0xecffd007eb1b38dfU,
  0x11f11bec81e10ef8U, 0x19130b0417a32027U, 0x83fde61bb220140aU, 0x282ed0151410c012U,
  0xeb1ad9a10ef4b05cU, 0x7dc12b54eadd9fcU, 0x21f71a0529fe39b5U, 0xf00bdcc2dcd41610U,
  0x5caf32d463edfe4dU, 0xd21a01e81e017f6aU, 0xf21ddc15eec4d8cfU, 0xee49c7031c034cebU,
  0xd1fbdeea0229c3f3U, 0x131ddd0fe0f9d1f6U, 0xf9e54807de36f311U, 0x19180af74b7db6bdU,
  0xe23c7fd9e4fcc997U, 0xd04b4d0d3120b99U, 0x50fd0e4e919010bU, 0xdff6fb8d46da3e2fU,
  0xc67f12ee49ed33e1U, 0x1c072cd5e7142507U, 0xfe2a0310aff0f2e2U, 0xf599f9c5b547f0e3U,
  0x841ad4e21e18de28U, 0x3619fed1f0ea2981U, 0xa6bc401b2afa7a22U, 0xd4c3f3fce90d453fU,
  0xb1062ef439411cdeU, 0xaa0f0ea55c25da09U, 0x2815bcfceae97023U, 0x50141b4cf111032bU,
  0xed151af5d1d9f4fdU, 0x415748b6b2fceaceU, 0xc0740dbd1343b5d6U, 0xf25a02d60ec53836U,
  0x1c882706cb9fdcd2U, 0xff051f4e01ccf40dU, 0x3504f581a2966209U, 0x1d1d3935faf0040dU,
  0x1bca13ecaf0cf6d7U, 0x1f91e0020ce71822U, 0x7f0cc7c8fb070309U, 0x18130b29f2c5e205U,
  0x28e93bef23fc00a4U, 0xdef4e6f10d272c1eU, 0x2932d7bed51663f3U, 0xccee1710a3ead9dfU,
  0xdb660b051a4bef11U, 0xe00d20cf57ddc531U, 0x3304f72faecd0ef6U, 0xf9387b4925fb1eecU,
  0x394f1c0d3736e829U, 0x28de043f81f4dbfcU, 0xc6cdf0abb4dfa3ebU, 0xe813effe41fcdcdeU,
  0xce27dcb264f0b2aeU, 0x2a94d0f01fcbc12U, 0xba0fa1f21d3619fbU, 0x7f82e19fd120dcbU,
  0xe200a724ec433623U, 0xe639b6e7ec1bef7fU, 0x201625cbf7f1facaU, 0x19df32da1a2ce4f0U,
  0x5ce01af82caa06dbU, 0xf8de2f1d60fefaU, 0x2037e098fa97cae6U, 0xba1fe12041aefc6U,
  0xf3f602e93a7f1000U, 0x6c9c714c62a2124U, 0xd5a50e2af818f9c0U, 0xf9012cf8f4c5fb15U,
  0xb3d6df00d11935e5U, 0xe1ff4ed21c151f07U, 0x6c0ef2ecdc173434U, 0xd9f37fb2ff1b42c2U,
  0xbde581a920dcf197U, 0xf4cfed2601ee2acfU, 0xb6dcfcd61833e64bU, 0x3d03e2dcea1519e6U,
  0xcf5281cf0d0f8edU, 0x15081507d5eed19dU, 0x31e1eeebc8d565f8U, 0x200c1f0dfc3a232dU,
  0x1a05efc5fd1412ffU, 0xbd3cae21aac08d3U, 0x5320f7ef65d73120U, 0x1d410933d003a110U,
  0x152f1c1c01132e1aU, 0x28efebfaf07f00f4U, 0xc8dcdcff0f06f7f7U, 0xe903e8f3712d0704U,
  0xe9edcf80a16a4b8U, 0x4df62d9618ae6f2aU, 0x20e003ce3cf4e327U, 0xef01b3200a233c04U,
  0x11c2cd01dd72736U, 0x471dbcd62b03ef81U, 0xdfe8fe6315cc1eefU, 0x3619d8f6c9f420eaU,
  0x2817dd1dfcff1be8U, 0xcb98b8b1df19f107U, 0xf1ece2312abe120aU, 0x6d03dcd0dd8e9a0U,
  0xa34925e609d0f913U, 0xecf7ee5a67fe5c81U, 0xfcf61404d1f015feU, 0x1e080cbc0c451e45U,
  0x11fd13b7ee2dac2aU, 0xeeea10f2d0f5f4d2U, 0x8fbfb11dcdf2afdU, 0xffe8da3b087f4d2bU,
  0xdec0b47b0afb0cd5U, 0xfa07351830d20bd3U, 0x4b1de91b0b4daaddU, 0x3c07b54326cb02f9U,
  0x211db30af016eefdU, 0x7fb15fe063be6d7U, 0x17161114ee2efe00U, 0xdae22ff429e018daU,
  0xafc05f70becf07fU, 0x32f22714eee6fc7fU, 0xdd2bd5f406d2e4e0U, 0xf1ed0a18f3d3f2eeU,
  0xeb281cfaf906171cU, 0xd0f92329e4d714feU, 0xdcddfa0000f6dc16U, 0xd5c9141b2405fcebU,
  0xc3a5eee32d2f4be9U, 0xc2e71404fbe42157U, 0xcc204fcf03190a81U, 0x34dd17bf0dd27f0eU,
  0xda6f28f43448d9U, 0xdccf2fff57341a2cU, 0xe308aad6aaee092dU, 0xaef0df9512fdc52U,
  0xef70918d4e60cf2U, 0x36defe2f66e3d305U, 0xfde24612e5087ff6U, 0xf53201b029ecf2ecU,
  0x3e5e6051fd8fc0bU, 0xc0ff2d1bdbff0345U, 0xdb34d01fe5262d74U, 0x4ac3de104d60abdU,
  0xf00edc0e17059deeU, 0x4c09ce14ce0cccb3U, 0x7fc0c1e19537b2d3U, 0x75ddeaf618cd1611U,
  0xf5405313b72bb8d3U, 0xc13110f0b6b94a1bU, 0x2df5cbe4d842e015U, 0xcb373815d10f3e38U,
  0x1d0c04df4710eb0eU, 0x230e123e3ed5c4f7U, 0x2e17eac314d13412U, 0x3714303e35eaa897U,
  0xccd22ccb02f7adfeU, 0x399100007f28U, 0xf3400000577U, 0xfffff9ffffffcfb8U,
  0x326200000f61U, 0xffffe80a00001b46U, 0x2d210000051aU, 0xfffffccbfffffea1U,
  0xfffff67a000020a8U, 0x2895fffffb8dU, 0xfffff88d00000038U, 0xe7a00003b1bU,
  0x453b00002704U, 0x3f200001115U, 0xffffff53fffff343U, 0xfffff2fb00002363U,
  0xc3e00002129U, 0xb1a0000168cU, 0x3a23fffff569U, 0xffffd00600002377U,
  0x23e900001dc0U, 0x17a8ffffde97U, 0xffffdb1a00002e93U, 0xfffff3ec0000247cU,
  0xffffdf3f0000221bU, 0x32f1000026f8U, 0x1d1400000a7cU, 0x339b00001696U,
  0x40ee00001747U, 0xfffffb3b00003cefU, 0x1dcd000015f5U, 0xffffe45800003b0fU,
  0xe800000137aU, 0x1343ffffe4b0U, 0x5fa8000023c3U, 0x2dab00001e67U,
  0x234f00000f6cU, 0x2b02000009b9U, 0x17e2000061d3U, 0xfffff3fd00001d7cU,
  0x125000002c05U, 0x30de0000081bU, 0x15f40000110cU, 0x1f8e0000339cU,
  0x2d6b00002d76U, 0x3049000007b9U, 0xfffffc5c000027b3U, 0x34e200000c68U,
  0xfffff36300001c72U, 0xffffefec000026cdU, 0x33e80000007bU, 0xffffed4800000474U,
  0xac700000186U, 0x3201ffffea12U, 0xeaefc9ad00001690U, 0x28d76a9c42f574edU,
  0x815da181c37fc759U, 0xb0e9a4fffae88115U, 0x34bf7dd8d9cb7febU, 0x7f3ee981183fd68cU,
  0x90b2ffdff75b4681U, 0x7f85b2c63bee9b7fU, 0x3fb728819f51bafeU, 0x10d0daead67f7f16U,
  0x4887f7f7fc4bed6U, 0xb5d64a0b5fa38713U, 0xb11c11817feaeb7fU, 0x642e2e5bc83bef81U,
  0x6c16d7140febfdd6U, 0x4b5bc44a133bf950U, 0xd9fec700af70e709U, 0x81c0cd7f7781817fU,
  0xe7e6d27ff83681ebU, 0x299b381b31c44c01U, 0xe73d0652b20ff967U, 0x9e71ea72afe30892U,
  0x14b7eccb5026e1b0U, 0x35cbfc81344cbdddU, 0xb4f0f0057ff9d39eU, 0xd7f4ac143c51f3abU,
  0x14d2b1a2bc38d6b1U, 0xb2ffec1d7f102ff8U, 0x7ffcc136bcf02d52U, 0xf70bcd7f6081e33eU,
  0x16d7f7fee23d94f3U, 0x8126bf1512f939dcU, 0xdf4a4f87520bae2cU, 0xd30bc7bc1943de81U,
  0xa27fe193c8df26e8U, 0xb72e41ebc1f1ea64U, 0xb994fd1fd6d339c3U, 0x3d8e3fdbeab39847U,
  0xa7e110211b9c8a05U, 0xf2280f3fafb2eba8U, 0x7f293e7fabe93fb9U, 0xb0057fab04c137fbU,
  0x2ca0c2378ce021f0U, 0x257a0c0629e334f4U, 0x7ddc373169caf9eaU, 0x39902c58ebbff8f6U,
  0xd332a90f18e80e12U, 0x2e1936711e5537ddU, 0x2201411508da1b84U, 0x7f907f31a7cd7f59U,
  0xd112f1fb01f7df53U, 0x81090ed17fb8d3b9U, 0x7fc4c4e502c49f40U, 0xcf0adb7f127fd325U,
  0xc61e1ed95632c733U, 0xaf71f4ed0e27feeU, 0x6b2a43f1e5ec7f00U, 0xa07f9ad045473f04U,
  0xea27d0d0fccffb43U, 0xff2b07a823db7f13U, 0x91269dddcf8b3U, 0x1722b7231db37f04U,
  0xfef4457f0830ff7fU, 0xf53b18f0f947fde1U, 0x479f3fcbd5feb9efU, 0x839c082019df2200U,
  0xef2939d39f8103d7U, 0xf27ccfeccf212eeeU, 0x26d159f9e8dbb544U, 0x9ed15083b162ecfU,
  0x22dbede32cfed167U, 0xc1050ef8d0813c18U, 0xa3dee42761b13282U, 0xd82bf0d2d7150164U,
  0x5bf5b9150f81bd81U, 0xd7eef4622104c07fU, 0xc8f0d4338dbec6dbU, 0x438fb7bbfce2bcdbU,
  0x3de41a81513e7f9dU, 0x179c4c30ef0f81b4U, 0xaf81a17f54bccfcbU, 0xe1dbfdc13aff8107U,
  0x7f7fb58c0319bc29U, 0x8193dd11fa00811aU, 0xd912675518041d81U, 0x14812a3a157f94c6U,
  0x81af81b87f1d7f0eU, 0xfb60903ef5f5f7bU, 0x3ecbc8fb7fc0b2e1U, 0x501007f387fd1e8U,
  0x81a50e7f84441b0dU, 0xc4f9fbead0c0f792U, 0x4d1ddc60bb81599bU, 0xe6e6b286a0c0811cU,
  0xb81989dcd817f2eU, 0xbb703177fc1f8cbU, 0x230233b86d7fcef9U, 0xffe784a927c9499bU,
  0xff2f1912a9694101U, 0x9bbe547c1bc438d9U, 0xd92acb697f7fdeb2U, 0xea084ac3e5b7d99cU,
  0xa9af38e87ffa111aU, 0xf06a37fe4f70a76U, 0x8ebd0ba673819981U, 0xeed4e2b27f662ae6U,
  0xb50f81a8bc007fd2U, 0xeb7f119e945d89e7U, 0xd027af42837c1a1U, 0xdeca6d315bddc6f4U,
  0x15ba60d03ccc4b00U, 0x239c816853238199U, 0xf07fcaeb811f1d1cU, 0x8b33862e4c81a81fU,
  0xf3f87ffd81c8fbf6U, 0xe70aaffce3f6ed01U, 0x8127aceff230f3efU, 0xc81289dcdc8d1d3U,
  0xf6b6f71c198f0ae4U, 0x82e82ddfe80dU, 0xe0900000514U, 0xfffffa4bfffffce9U,
  0x6cdfffff2a9U, 0xfffffd58fffffb6fU, 0xfffff1ff00000917U, 0x12a9fffff3d0U,
  0x38d00000e8eU, 0x3b6fffff696U, 0xfffffb76000001feU, 0x20ffffff8e2U,
  0xfffffbcefffffb3fU, 0xfffffb48fffffff9U, 0xffffee5afffff7fcU, 0x3adfffffa9eU,
  0xffffdd84fffffe38U, 0xfffffb6300000138U, 0xfffff8f9000015b6U, 0x6b4fffffb9cU,
  0x6afffffffbU, 0x3a3fffff729U, 0x1fd7000007f8U, 0xfffff25bfffff101U,
  0xffffca340000164eU, 0xffffff09fffff400U, 0xfffff93f00001fe4U, 0xfffffb79ffffccc7U,
  0x1cf800000221U, 0x8000000f9aU, 0xfffffcacffffde24U, 0x7aefffffd6eU,
  0x3300000ff6U, 0xfffff8a5fffffed5U, 0x33e0000011aU, 0xfffff1d9000007e2U,
  0xffffef1cfffff382U, 0xfffff84fffffeba8U, 0x234ffffff22U, 0xe700000349U,
  0x1db000000c8U, 0xfffffe39fffff14eU, 0x4eaffffff26U, 0x207efffffdddU,
  0x4d9ffffffd8U, 0x1e410000234aU, 0xffffecf90000344aU, 0xfffffbc600002464U,
  0x3fcffffebabU, 0x1b500000b82U, 0xfffff39c00000e83U, 0x229f00002576U,
  0xfffff7d1ffffff0cU, 0xffffff61000008d7U, 0x1d4fffffe0dU, 0xe4eee10a0eff1e14U,
  0x1b0003230de63c3eU, 0x46b5050f39ddfadeU, 0xe4faf4d5e91a09bcU, 0xcee1e2dfdfbd2e3U,
  0xee2dad0363e02602U, 0xfd6a5edb093f051dU, 0x10c53c41bf80211U, 0xcd004cc5fb0a1534U,
  0x184f09122cf4e842U, 0x1a7f0a0d2deee6f5U, 0xdb1ed019ca114b50U, 0xd1c6f9da0c5f0605U,
  0xcf2010ddbda62dfU, 0xd7ef081fc707e603U, 0xf9220a2344fe62d3U, 0xe614e624061b3733U,
  0x582526ea22d0d9f7U, 0x13ba09370c1ae9d6U, 0xf14ae01618d0e1cbU, 0xe50505f418f43503U,
  0xc0fc3a3b2323032fU, 0x3cc5e222ede4ce50U, 0x201712b932380ae0U, 0x13fc21f507dde2a7U,
  0xf90281fde8ed2009U, 0xfe0a07e3eb1af30fU, 0x31d28d5c41ddf6dU, 0x721f3a060c50e014U,
  0x902d110e4ae0f9e7U, 0x5f513c42920fc14U, 0xffaee6e8eec7cbe9U, 0xd4bd0349d50ceb06U,
  0xe7b2b122ddd10826U, 0x8507fa230009fcbcU, 0xfba9fcb31b50f692U, 0xff2d941a8cb4ca21U,
  0xf423230e09d87fb3U, 0x342dd1fa14edcfdeU, 0x22213ce1a5f32036U, 0xd4ef289c22c6f235U,
  0xf3f02818dd910f09U, 0xeefedeb9043bbf30U, 0x2ed404fd296bcca9U, 0x1b0322bc0922cadbU,
  0x98d7301cfad6aec5U, 0xd3743f480d5412c9U, 0xcc40ffdd02b4c5b9U, 0xe2e8c86c09f234e0U,
  0x27c1a5140717b149U, 0xfa25cbbe1d38e6d2U, 0x31ed2e020e7fcde2U, 0xfe5ef42bc429e9c3U,
  0x6d1900e61f35244eU, 0x4921ec513e1060ddU, 0x222ddcd40bfae605U, 0x1bccf7f0052423eaU,
  0xc09f6162a7fe834U, 0x1f3c3f00218c7e6U, 0xf8ff031ee0451600U, 0x133b2d600050d0dU,
  0xef1dd3fad60bd122U, 0xd625cf00ff451b28U, 0xf625400bebe61fe1U, 0xea0bf5142fed1be8U,
  0x6bf92fb531a90ee4U, 0x12e0032afae331ecU, 0x1508d6d7172dd10aU, 0x161d02f50dfd2755U,
  0xd239fdf9e126e2U, 0xea06181ddf1b2513U, 0xb002e70c1ec0e0d9U, 0xdadb31fbf5dbd212U,
  0x3ed0064ee3e6f5f7U, 0x860eca2051f00c7U, 0x26161e013306ec0fU, 0xba1e400fcff71df7U,
  0xf6e9e8fd8139fee1U, 0x9d91f03ace208c8U, 0xfe050fdb1ac7df0dU, 0xfcf401f9f7fde3f6U,
  0x47eed5f616e7dfccU, 0xf20fae217e7e43dU, 0xea1cf3f62917ff10U, 0xb15470604ee0b14U,
  0xdcc817bcf015eb08U, 0x100f9cbd8f0e3fcU, 0x46d8ef20ffd7d20dU, 0x13f704f1f3050adeU,
  0x5f1b227ff515ef09U, 0xfcdcf7dd46fc0f13U, 0xedf5e90821d11bf9U, 0xef927facfea080bU,
  0x1bf927eff401150dU, 0xdb1ffdc9e0eefa01U, 0xf54504071d15eaa1U, 0xc0fdcf8e9c42bc3U,
  0xf3160144260919fcU, 0x19a13519de19dd00U, 0xe7de370bd0fd0a81U, 0x1ed5ffff1701fcedU,
  0xdf41dd0923390d10U, 0xed24e2e54febddfdU, 0x250210d8d4cbe4f8U, 0xcff622162d1c08e1U,
  0x60ff41cd2d8e3fdU, 0xcd51caffce405cfU, 0xba0015f18d1134fdU, 0xe047e1f2f0c77f09U,
  0xf10e13e91006e3c3U, 0xf90b5affa003eaedU, 0xfcab7e8dec371abfU, 0xd132c051437fc62U,
  0xff08dc0bc1f7e41cU, 0xa2093c016e931a6U, 0xf460c209f354aed2U, 0xdc44a434ece019f9U,
  0x2a11fa60e70b37c4U, 0xf4e90f22113401b8U, 0x3400e1fa0a53e1ecU, 0x19ad2a6aeae34de4U,
  0x37cdd561f0e94ba6U, 0x132f28014327a1e6U, 0x2619efcefbd83247U, 0xc80406cfd815febeU,
  0x180ff8fde7d8e6e8U, 0x300de4381c073d56U, 0xd8e7246add480217U, 0x5cf197b0b2afa7fU,
  0x29f216ede1c7004fU, 0xc49192918ddf425U, 0x173709cd391d1432U, 0x5cf60633cadf1f3eU,
  0x541f529e33ecb2fU, 0x29292ac8fc5642b0U, 0xe3d82ef645f6fb2dU, 0x30b828f105074e4aU,
  0x81531a030a14050aU, 0xd22ad675e2fff127U, 0x8fab0c26b12f2bbcU, 0x20210f06014be2ceU,
  0x123f2dcf2b17e0e6U, 0xc810c7bbfbfda60eU, 0xf345f4ab20ef0cfaU, 0x5511eef322fadb2eU,
  0x551fda1bc9194d2fU, 0xb41dd8fd5ce9f02eU, 0xd74c2bcb4dbeaef6U, 0xbefdd416362a31dcU,
  0xde04e84ee116ca0dU, 0x58d1e406f9e70253U, 0xd0aedbd6b8131a0eU, 0x1e9a3a1fcf0f3ad6U,
  0xa2602fe381b2be6U, 0x290cc94bfe1631ddU, 0xf1253b4759ec002aU, 0x9ca4c037fe45c36U,
  0xfe03f33c54fcb7d9U, 0xfaf4becd10ef0af4U, 0xfffd00fc000000f9U, 0xf901000001000000U,
  0xfffa00fe00U, 0x1201faU, 0x602000000010f00U, 0x3000002U,
  0xff00000005U, 0xfbfdU, 0xfd000000fdU, 0x100fa0000000501U,
  0x1fd0100fe0004U, 0x1007f03U, 0x7400U, 0xcbd0b13fe300000U,
  0x6e1f26e63227c2fbU, 0xde0527e33048d016U, 0xee99f3dbe7d8022bU, 0xfc20223494f7eb02U,
  0xe6d2e9d123c7bab4U, 0xd9f3031ff40b2fd5U, 0xf0297124dff9112fU, 0x4a81bc230b3c03ffU,
  0x17d1b8c7c5c50a13U, 0x3eff76d6f7dee1f8U, 0xe50cdb2a005cfdd5U, 0xf4c9eb0786dec0efU,
  0x1174871b8c1ff2dU, 0x2ae2d9155caaea09U, 0x24e3c9f6dee1d3eaU, 0xd453d709a7da0519U,
  0xba1e3cd5f3239761U, 0x8ec06fa9012f1dd0U, 0x1dcee9e4385e2120U, 0x10a2bcdc2b4fef53U,
  0x8f13d9fffe08fd1eU, 0xbfeef93588ed0afaU, 0x7fa3f70ad435ffdbU, 0xf9def9302b51e5c4U,
  0xd0d31ae30dcb13f6U, 0x11702ec0a26f0f0U, 0xd743e616cd08df0eU, 0x3ff8fb2fdc10e4d5U,
  0x5710ebbed01d37ecU, 0x2043feb13bbfbd7U, 0xdbd0420303f3e549U, 0x2bd0fefab930324eU,
  0x27dfffea05120bd4U, 0x2e0800ca2002548bU, 0x3b2afaf30de1a63fU, 0xcee63b2716f5e7eeU,
  0x1828f43603f113d3U, 0x3209f7e3d5017fdaU, 0xf2dd51d1e2fac3b7U, 0xbf01e327811a16e0U,
  0x12ddf80cd9fe1113U, 0xf22d09fce9041d24U, 0x350d51154db4dU, 0xe2090225e708111eU,
  0xfb3d21282503fadaU, 0xde20f8b838fa15U, 0x6402b17ccddc506U, 0xe6c6be57c92f0f17U,
  0x6cc0ffdf7e9bf03U, 0x2b0aa0e1fb0758U, 0x1cf5dfcd10d2efe1U, 0xdac92546052af8d6U,
  0x81603f3e13a0729U, 0xef00fff1e845ff1bU, 0x1efb301605002b29U, 0x12dce3c1420ee5f5U,
  0x17091a0af9fbfefbU, 0x1e10353914f42101U, 0xe6e6cadfd5043903U, 0xdb1241351833e3d4U,
  0xebf909a9f6c202faU, 0xfe171309fee8e6c9U, 0x1b4be92104280d12U, 0xecdc17a3253c0281U,
  0xb14c90d1df3fef8U, 0xdcf91547e2fe2626U, 0x1bd00636e308cb1dU, 0xd6aed8bd34d4f8U,
  0x16b8df10fabcfccdU, 0x25022fe5eed9ea0eU, 0xe4bdfd2d0ad5b213U, 0x6f4c8072dc4d40dU,
  0x19e81fe80cf2fe0cU, 0x2606de2203e604e9U, 0xdfb31fd90fdd12ccU, 0x241303fa0ffe0defU,
  0x402fec07fef310c5U, 0x2318fdfb220b3106U, 0x1734d108ed7ff32dU, 0xd02118eaf6f8e719U,
  0xe9f238d6ef04fd03U, 0xf80af0eeff260708U, 0xe5f8ec0131151f11U, 0xba0be1d41f15e8eeU,
  0xf7cf29f2efd46018U, 0xdd0be1d0ed2708daU, 0xe810fff619de21d9U, 0xe02e3125f9f8072aU,
  0x171e0426ede70c21U, 0x11090de422cee4f0U, 0x822fdfe2c20ded5U, 0x3d02cc19ffe881f9U,
  0x835a2b04b51cd944U, 0xec502504ecf1e59aU, 0xd0bf2ed662e8338U, 0xeb13eceff33cf627U,
  0xe417c218ee1dc4e1U, 0x17fd47efd8ecfde2U, 0xb1d234f44057fbc5U, 0x3ce4c130d2bb96dU,
  0x20763516f5575a26U, 0x1b180820071ff938U, 0xf1c2ceedf6029d81U, 0x141aeb61cc56fce6U,
  0xf910edcf2f27fe2dU, 0x4ec40717170bf610U, 0x742dd3ffb57f5223U, 0xf6ae0c08f20cf700U,
  0x37e443a836e16034U, 0x22e613f9eeff21fbU, 0xddf29fcfa80805d3U, 0x33313a3e38d6121aU,
  0xafd41d3e1a61001dU, 0x6198ff4a020bffdaU, 0x11f3571500100a16U, 0xacebd8e939013a47U,
  0x9bc1dedf124f6f7U, 0xd3311ed7be1d18feU, 0x2ae735e5193dcf06U, 0x2afaf12729f5fd24U,
  0xf3ef1e12dc651cd0U, 0x7f2831c4dd180fd5U, 0xf3ffe0005e1de815U, 0x22edde0beee937e0U,
  0xc3bd32c74215d6e8U, 0x211625cbfbead903U, 0x3405bbef02fd1df2U, 0x245d4931d5e80973U,
  0xbe19e4050e1f17eeU, 0xdfb3030de7bdf96cU, 0x1cb481c32ec1ae5U, 0xd5c9d5c563171123U,
  0x39d2bfb45de09f8U, 0x2d0f24101d6837ebU, 0xea4918e805c2a1d9U, 0xe545f0f7e7ec54cfU,
  0x23e8ae39ed2933cfU, 0x2dc41bd528c8df02U, 0xb7170a242508f6f9U, 0xafa00d2fdf4ff61U,
  0xd23ae736f6f45b1dU, 0x2c5fa00faccdb3aU, 0xcc593b2481e7cb02U, 0x39e7d728c1110026U,
  0xfea9370012ff2df8U, 0xc2169aed4def3b1bU, 0x6370b38cbddf2cdU, 0x1050e8d3bd91212fU,
  0xe047ee04f322ef5eU, 0xe4253de50c132e3dU, 0x1099e45566e9b7caU, 0x1cd9090206ff16ecU,
  0x3e370442c303ec9U, 0xe2ff071cef28dc22U, 0xd82126f9d43ffa0aU, 0x18e9fdfa991b7fe0U,
  0x3056eaf9fb9dc5d3U, 0xeff6413dba42f8a5U, 0x90d2e16fc0de90bU, 0x40fd0efe03022e19U,
  0xe80cbe21eddf1ffaU, 0x322cfbfce1edcf07U, 0x508ecdefe1de2faU, 0x38a98108ec2e1ac5U,
  0xf22acbdfe1f70ac7U, 0xe31dcedf29e82d21U, 0xf4f8d5f208190032U, 0xde17fb16dfee1623U,
  0xf7e5d2ea290efbf9U, 0xc202efbfff907afU, 0xec4600befd0b2006U, 0xf5fecad0d467140eU,
  0x39e71d3a92261103U, 0x34d33cb7c57cec1dU, 0xfdd01ad4a60609eaU, 0x13124abc4bc2f6e1U,
  0x12a9fcde399fd41aU, 0xc8abac110f3a1f09U, 0x223c5e15c2cbf1daU, 0xcc2bdc2afe050b12U,
  0x481599f64306f309U, 0x34103b00cdce1a25U, 0x10c224eda7811146U, 0xb2ece7c7e31ecfe3U,
  0xf3ac7fb0b18ffedU, 0xdce0fd2d3bbca8edU, 0xde11f5f22ef81013U, 0xc42af76c31c3d5e8U,
  0xc2ce130226f30261U, 0xdcf4a4b60e2310f5U, 0xe9fefec8370224dfU, 0xd881fe0e352f5db7U,
  0x4ae2fe24f4c81b0bU, 0x6efcc20f631041fU, 0xe70b0f3ee3ee1bedU, 0xf0163b23e2e58ec0U,
  0x4753da154626cad9U, 0xe6e2f2fa0dc51bc3U, 0xe9681213ecf20775U, 0xf2d11a1e2bdffe1bU,
  0x19c9f9ff1d14f626U, 0xebfa1d090be4d33cU, 0x38f5b6174ee4fd43U, 0xe3b7f6e4aed9f244U,
  0x90000ef34fe9efd9U, 0x9c19df4dca658U, 0xf2efb7c932e05933U, 0xe81e1fbd5c934f9U,
  0x10d92bebfaf7f935U, 0x21012e04e5f8761bU, 0xbd69ef0ed0069e5dU, 0xd017816040ce7U,
  0x1ad7c5da28491f24U, 0xffe5010701cc13e9U, 0x3cf31b25e596f6ccU, 0x1ffc4200f8e9f427U,
  0xda0c3120070301f3U, 0x10d222e3ce1ad416U, 0xace0b48f9b00d26U, 0xf8b5efda073f0337U,
  0x6cfc2ae9f5001818U, 0xca81a1716e77f46U, 0xe7c0ebedfb0f0c39U, 0x1ef5f2051df61208U,
  0x1114717f4331e802U, 0x3807d9305fb2d4dbU, 0xe0e82001e00424e6U, 0xff1f3bc035cd08f6U,
  0xdff450dd0827ed38U, 0x16241bd101da22ddU, 0x2ccae9c43a16c8f8U, 0x342220f41026e138U,
  0xee33f802ff04582bU, 0x26dfaf1ae6122dc0U, 0xeafbf3dd08475ac2U, 0xaf3db35c830e22bU,
  0xd4f910ca04d208edU, 0xef9e06041c06f316U, 0x7260b60dcdef40dU, 0xd9bfeb23e7a3dac5U,
  0x435e412e12952e6U, 0xcede19ed4e241a11U, 0xd3c582d17d90e1bU, 0xa41ccfe7f3de4cf4U,
  0x6829bbdc2a2aafd2U, 0x2beefe00e3270cfcU, 0xf5e4cbc9f5c232f3U, 0x38181721310f291aU,
  0x1f87d893167fcf09U, 0x423de31817f9ca04U, 0xd035ecfa4c1eb818U, 0x14f5e2f03dc6ea02U,
  0x113afffff4fad207U, 0x1a1918110801bec8U, 0xd4e7e52418e91d46U, 0xc17cd160ddbf217U,
  0xeed5d110aef62806U, 0xebe10711190fe8d8U, 0x31905230232f139U, 0xd20e22db45effa0dU,
  0x11dfd404e6291a25U, 0x8123fe0cec4ae9U, 0xd703eaeadc17fcf4U, 0xd15d5fdbcd52d28U,
  0x7616dfca05c2cfe6U, 0x17debdfaf4ccdb33U, 0x11e2169cd5ebe81cU, 0x360b53efeb0ae8f3U,
  0x14f5130109dcf730U, 0x511dc5c9cf6c1441U, 0x2ec821c2b704ce22U, 0xd3ba96be56ff561bU,
  0xe7f09c3d68dfef0U, 0x180b1f5209f0dc09U, 0xf02bb54f3102e409U, 0xf21703ff9a01200aU,
  0xe4070bfa3df1c10aU, 0xe8d92cd5fcd71bf8U, 0xd5f2c30e20fa0a06U, 0x4ccdce2d2ef033cU,
  0xfda407f8d5dd0318U, 0xbaf2f7bfe8e3ec29U, 0x3f81deb1d18fa07U, 0x46cbbd22b5d8ec13U,
  0x4d05eea06f14f143U, 0x41b8cd0dffed0e32U, 0xa906feea17cbdcfcU, 0x3bd77fcd571b0cceU,
  0xc7291919402b25b5U, 0xf664ef15372630f4U, 0xd50cff163503ed13U, 0xb1f1132be2bae5f8U,
  0x1817d7dff3f9edU, 0xe5d2f3c73cbfe7ccU, 0xd53b4ff0c3f80398U, 0x881de16d6f4ee3eU,
  0xe3981ab4c5beedd0U, 0x17d611c90b041ed8U, 0xeafa04d40bdb27baU, 0x615fb153e189f04U,
  0x45e011db091cd1cdU, 0x9843c486f1103924U, 0x1b4d3acd19323b09U, 0x50208c300af4ad8U,
  0x29fde335dbf3eaf1U, 0xead3f361c2193a00U, 0xce32131f1af5d80cU, 0x23fa42110f1a14a2U,
  0x20daf001f33a1ad7U, 0xe455b97fb613bf1cU, 0x30ee3cd2fad50dedU, 0xfc4018d51901392cU,
  0xd6ea312ea6e907dfU, 0xf05ef2624f8070fU, 0xe9a22b2fda10f311U, 0xfcfe06e065e34422U,
  0x1ae0daf3d20d5927U, 0x28ffdbd7e009d327U, 0xcf51707d025c828U, 0xe400070cdbe6e2ecU,
  0xd103d8e5da0fe965U, 0x1ff5f3f93bc6ffc8U, 0xfd2bff1f2800e8b5U, 0xee0e03d91122f5fdU,
  0xfc0d4117da0bf1f2U, 0x2e0ad32d28ca0301U, 0xc40af45bffe8ed4fU, 0x131e4adfeafbcff0U,
  0xf712573bdb912001U, 0x90b1bcac7e70802U, 0xed43f5348103e9d5U, 0x1a06f6040319a7e5U,
  0xe4dfeb0ef924fdfaU, 0xd3fcd1470ffeebc6U, 0x3a3bf801fdd6efd6U, 0xe01212bcea2f2bf6U,
  0x6f72ff108152ff1U, 0x230ffc2eebe2ead1U, 0x2b30fc03cfaa67U, 0x2ae101021428d827U,
  0x15a9f1cc51ebf613U, 0x7f10f1aa19f1f406U, 0xf7d4c9fc140708edU, 0x31e9ed29f9c2fe06U,
  0x11272640f3e21bcfU, 0xfefb1418f6d6b927U, 0x498173d82ce3dcf8U, 0xdbd23434df14dc0bU,
  0xf51ce71320f24444U, 0xe9ecba1e845c312aU, 0xd895e1190ce2b9fcU, 0xc725000b2c29f606U,
  0x46fd0cf4f46d021bU, 0xdfb9f10b41121126U, 0xd9eea71df1670261U, 0x3210111fefe4ed09U,
  0x1b24182dcffa3dbfU, 0x17041cafed0e19fcU, 0xb791fc40d7ef07e8U, 0xed2bffe5e728de17U,
  0x40412f8c605fd26U, 0xfa00fa301804e80aU, 0xfbff7f1e4516081cU, 0xffff32e924bfe812U,
  0xfcfbe9fbda1a28d8U, 0xf4f76d0d0fbf03f6U, 0x370400011cfff318U, 0x4b200c28c80de31eU,
  0x2b042e21b7c1083dU, 0xc535e4e5250128f4U, 0x2b55260dee0bf326U, 0xd078071ef2e6d295U,
  0x2600f10ab031ee40U, 0xfdd6c13dd8fb8d3dU, 0x2ae2291ae942f213U, 0x53be474e1313512eU,
  0x2fb2d4e1a46dd0eU, 0xf8fb153652812812U, 0xfa34db95de17ff2eU, 0x1eed1d091e279f04U,
  0x3e0a1ff22d2c52f8U, 0xf6ccceff3ae1ce07U, 0x1afc19c8b1d1f21eU, 0x2fe5aa3aa0bfc008U,
  0xbf0a58554064164cU, 0x190f8820cbfe5417U, 0x48fce752a4e1f1eeU, 0xe4172116e61a2ce7U,
  0xe3e604c71acd18dfU, 0x7fd42646f6da0eU, 0xb38cbf282cc380eU, 0xe155636ff1ef0c3U,
  0xfad24a2e90d34f0bU, 0x1906cc0e13da0a01U, 0xe02bc7892d0a5a42U, 0x323a09dd45471cb0U,
  0x55ffe4c2e5dd0c09U, 0xeefd1df5cdf60adaU, 0x4f2cfe0713c5db16U, 0x60528fced1660ebU,
  0x7f9f2e25d13cd9f6U, 0xd795c15673e4e0fcU, 0x28a138379f162d25U, 0xd0cd07f8fc10fadbU,
  0xe221fdf40de1f236U, 0xeedabcd2cd28f822U, 0xf912e73e15f3b057U, 0xe8f540fb18d38de8U,
  0x43192fdefdeb03c4U, 0x38c8eecc1c230d04U, 0x16561fdcc2e80d01U, 0x6d6fe04d511270eU,
  0xe82cf0e5cf22f405U, 0xeb1ae0d1faff2449U, 0xded0f0fcf30fd4cdU, 0xf7f9fc1cda08c819U,
  0xf7010d184211eeffU, 0x244de17f0fc1dadU, 0x45e9e7cf027ff11fU, 0xf64aed0243d8ee24U,
  0xe3dd5ea142ed928U, 0xf0edf8092b1eccffU, 0x14e3460132e9f111U, 0x91d2d3bf5cb1e2dU,
  0xcfeebb370457f919U, 0x22e1e0ecf7e11304U, 0x2dc6d426cefcefeeU, 0x2d0b1f570cf3eb37U,
  0x54e70e002ac6e3edU, 0xdffd0df4b5030117U, 0xdaecf4e12481123aU, 0x695cc821c85c0012U,
  0x8230725d7e8ee63U, 0x37cb2421cb0b5823U, 0x13e5ece802291804U, 0x240601f3fdafcf04U,
  0xeaf8e000dbc812d6U, 0xd261ff6ff1910d0U, 0x27f844f6fbf620e8U, 0xd7270c041d0906U,
  0xe9e601ae6ed3e723U, 0xe91e047f0ded2f19U, 0x1ef1083afbe8d319U, 0xf4f72c0a18ede8c7U,
  0xf20ee9d9fffa0b17U, 0xee17edf0350906f2U, 0xcde0f5e7e2f7f0f3U, 0xf811e3f0fae5010bU,
  0xf8d23220e51a0ee8U, 0xc9b0c91c25fb09f7U, 0xf6ec1c26e208b4e5U, 0x9eeb6e270cfa6747U,
  0xebfe22e2f7ad3009U, 0x2c04d2c9034ee445U, 0xf77f9375f921effaU, 0xf7a926eb601be8e5U,
  0x25faf5fe1013ed23U, 0x5ff4034b0a49f22dU, 0x15fcf6ddfd231a54U, 0xa6e5cae8f10f41f7U,
  0xf5b5dff308f80919U, 0xe11ed8225fe920ddU, 0xc93ddc9de800edb2U, 0x9c929c6ead92fffU,
  0xdc0327fc2cf30edfU, 0xfdec2bae3fd32067U, 0xe001df271c26e2baU, 0xeff7fded12231efdU,
  0x46d9c520e0ea7f0bU, 0x1621edeec72418c5U, 0x2d1470f4df105d7U, 0xe0341115fc0bf709U,
  0x2bdc24c0232f44U, 0x2b7f20d73221207U, 0xc43f405f9dfa308U, 0x34f1070f22f3eafcU,
  0x7e4e6e0bbffda12U, 0xf8d7925244feffe1U, 0x2ac6c1ab0222030aU, 0xf7f9f3f6da09f889U,
  0xd009adf92d99cdf3U, 0xdc1b36afc52c5a4bU, 0xfbdd2645fede0fedU, 0x7f55f42505f6ec26U,
  0x1b13f61afad601d0U, 0x4f0638c8ba1bf1f3U, 0xb9da14091ce11b1eU, 0xd2f1f2734132d81fU,
  0x1408307aefe72e04U, 0x52512f50545d504U, 0xeab10503df2ee5c2U, 0xf902d2182119d923U,
  0x40ed45ddb5ed2cd5U, 0xfe29a41bc7fbf0d7U, 0x27042523386df5e6U, 0xcfc1ecdff006031bU,
  0xe43712f9f102f593U, 0x22f1e4c9fecc23c0U, 0x21172b47ca002072U, 0xf3242f1ef67f14feU,
  0xe6b0e047daf9b920U, 0xedbb0921d8e91c02U, 0xd51522c75d211a93U, 0x38ef02170ef0c41dU,
  0xb50a350312664f33U, 0x12581b3007c9fbecU, 0x9d6adf18b7f7e8e8U, 0xde14db313e0630c6U,
  0x4e026ea1cfa0216U, 0xaff0f2fa560aee0dU, 0xf2f102d7fd3a32f0U, 0x11ee2eb7a329f2faU,
  0x28ee4bc328a52cc2U, 0xde5a1f4ce1a8fb81U, 0xa604a70df9080b7bU, 0xf0f5b21c35162249U,
  0xe4d21cd7ffd22419U, 0xec6720263c1dda3fU, 0xd6f7d4310df6df1eU, 0x1106331717f70c09U,
  0x29f31000dbf3e0b1U, 0x2c01e9ee37efe0fbU, 0xfdd6d3f9cac97ffaU, 0xffc4e5e227cbf532U,
  0x3cced81b3d0e2beeU, 0x23c925fbede10607U, 0x1f06f1c0f9dfd917U, 0x8ee3ee32ae6ddd6U,
  0x334068f8d6ec3509U, 0xeab55bef00f4e5dfU, 0x1d0bebeb1e3ab8d5U, 0xf927e809f82cba06U,
  0xef273f4202c893daU, 0x4e1ff310e8e7e01cU, 0xf2ca3ae6230c0300U, 0x8118c6c14ce3f3f5U,
  0x583408442285d5c1U, 0xb11c4e19ae1a04e6U, 0x6ee70ecd1f0d3b1bU, 0x82f7622cc0e24edU,
  0x2debddc0089e8d0U, 0x3924c7eb8c093505U, 0xca337ce460319f7U, 0xfedce7e404e621e0U,
  0xfdae30fe1dadad7U, 0x36b700f70d32234eU, 0xf8e6eefb3fdfcff6U, 0xd2c6033438734bdfU,
  0xe5d5ead9d422dbf1U, 0xb6c709a2fef5dd1cU, 0xed2bb13000f2ddcfU, 0x2b0de84df9dfd7b1U,
  0xe3ec7d79e81c1108U, 0x16b1e5cd1c1cf10aU, 0xfef602e2f50d5322U, 0xfdd524de7ffe191eU,
  0x1e133afcc4f2dfecU, 0xce1bd52b113f3f06U, 0x26e348f22aff03e5U, 0xeef225f0fbff46caU,
  0xfad706d8ff26efU, 0xf0530fedd1c08b6U, 0xffecf624f503d7caU, 0xf9b4ff343cf34bdfU,
  0x1c4331e85f17b7ffU, 0xbd2dafcf723a2f8U, 0x117fe8d7f5d42538U, 0x33e90cffe85433e4U,
  0xd8f33e22ef25efe2U, 0xe0fd070ae7d038f9U, 0xed3c15ff81e2fadeU, 0x6450dea24e726e4U,
  0x2314a9d1e6a3153cU, 0x7540c8d2e8eee5c4U, 0xc430b60eade31132U, 0xa7ebcbc9c9d5c742U,
  0xff032cec09b9fbf7U, 0xdf2df5205013c9edU, 0xd30503fcdbfadaf2U, 0x1df0cbe0c5e80bcaU,
  0xfcebffc21d1ce825U, 0xe8f7202803e55354U, 0xffffe1be00001809U, 0x4f5300001807U,
  0xffffda1f0000354cU, 0x9dc00001b56U, 0x3519000016a3U, 0x351ffffe826U,
  0xfff05f0bfffff5c9U, 0x1d3d00001749U, 0xaf8fffffc84U, 0x1cfffffff35dU,
  0x46800000fbaU, 0xffffe7b9fffffc56U, 0xffffec070000048cU, 0x349900001e00U,
  0xfffffbabfffffbd3U, 0xffffe809ffffef81U, 0x21cb00000e43U, 0xfffff05900001b00U,
  0x66200003aebU, 0x84ffffff280U, 0xffffef61fffff889U, 0xfffff772ffffed4fU,
  0xfffff43a00000c74U, 0x900000165dU, 0xffffeddf0000122aU, 0x219ffffeeacU,
  0x1dffffe494U, 0xf59000032d6U, 0x24b1ffffe920U, 0x7f7f4f6e7fc9810eU,
  0xb30c20b41bec817fU, 0xf91081cb7fbc6a94U, 0xb8d5da2b1913458dU, 0x1d7f7fb544cdc02bU,
  0xe5c1956e42bc817fU, 0xfa18c82a197fee67U, 0x407f007d46a71103U, 0xf4e19b7fdeb102fdU,
  0xf802813b78ab2700U, 0xe079d200d27fd57fU, 0x21cef376a9d8e081U, 0x120076ff56b1de17U,
  0x6203b8eac5de7ff1U, 0x7cb74f48c4f6443eU, 0xec811dd989d3d536U, 0x522f2f812cc276efU,
  0x7fe224702b5df42bU, 0xddb450017ffee53cU, 0x7f7d458d8bc243deU, 0x15bd1adad5cefde7U,
  0xeb0ea9fb1c51137fU, 0x2137f0459faf91dU, 0x3e2c959b5da4457U, 0x7f1a641995bde9c4U,
  0xed02bb2f7ffe0b14U, 0x711dbc10f41dfdefU, 0xc7465ab93be0bf22U, 0xf302f406c856f813U,
  0xb236ad1f0fc11c5U, 0xc465ae08fc4c31fcU, 0x7ae1b1633e7cfe8U, 0x544c96cf57c415fdU,
  0xd672fabf04b902e2U, 0x1bfcfa20fc52422fU, 0x6bdcff057f2df9d1U, 0x2722c4191a3fb50eU,
  0xe1c5817df01196f4U, 0x30671ce20e81738U, 0x3f1dabde4c4ed91fU, 0x9ed3041cdffa047fU,
  0xb632e27fe42a7f09U, 0xc7f3a3930042541U, 0x72ec7f64188de81U, 0x5013905a81d9fb47U,
  0x22818b3cdc47cdcbU, 0x574b076325407f7fU, 0x208c1791c32990e3U, 0x8138fef788267fd3U,
  0x39f616f023086108U, 0xdccf052cf1e18c0dU, 0x5ba97fb115e11a6aU, 0xe0aa7fcb2ad80ff6U,
  0xba70eb00ff2cac2fU, 0xec40bce24faa7fb1U, 0xdbe87fa1ca063b34U, 0x1f06017f20624414U,
  0x272a727fc92ff720U, 0x7f10bcc4f7154df5U, 0x12d8e06099c81bfU, 0x9b81ccf342cf0f6eU,
  0x7fa7d17fc878f5a8U, 0x37fea9e312813c45U, 0x3b17b7f7fcf5bdfU, 0xfffff2e10000007fU,
  0xade000014acU, 0x13effffec42U, 0xffffe9feffffe05dU, 0x3ffffffe3U,
  0xfffff2b5000006a8U, 0xffffff40fffffbb3U, 0xffffefff00000dc4U, 0x25c00000274U,
  0x284fffffef4U, 0x2d9ffffff27U, 0xfffffc0c0000109fU, 0xfffffaba00000d50U,
  0xfffffbc5ffffeb5dU, 0xfffffb87fffff254U, 0x1fffff6adU, 0xffffff6600000070U,
  0xfffff715000000f1U, 0xfffff949ffffe9d0U, 0x62cffffff47U, 0x2c6ffffe481U,
  0xfffffa0500000dcdU, 0xffffe8d7ffffee7bU, 0xfffffb780000047dU, 0xfffffc0e00000081U,
  0xfffffd1fffffffd2U, 0xfffff967ffffe800U, 0xfefffff306U, 0xffffeb78fffff10cU,
  0xfffdc3f17937cb81U, 0x16cc6500211aeb2dU, 0xc2730e9ea04cc1fU, 0x1deffdcc602447cdU,
  0xf2eedd1f50e91de7U, 0x170a4009bbfd1cefU, 0xd181547edfbee17U, 0xea2b19cb7c38cdeaU,
  0x1cca00f4fc050404U, 0x3020409052a12ccU, 0x32d5be15f4dde7f8U, 0xdbd2142b16f5f94fU,
  0x69e9d0ca0a1dc010U, 0xe5c0cdd46518c1cdU, 0xb30a25607bad347fU, 0xa009eac1a1bc142U,
  0x1ed0aa1160ea116fU, 0x7b9963420d4f4b3U, 0xea1e4b102a7f4436U, 0x16caf954d7aed2U,
  0xd027ef6c2eabc402U, 0xf4082ada21047130U, 0xe7e6194912dbfaU, 0xcc0200509f70d0aU,
  0xadc12fadaf25acdU, 0xffc65af3d3fe67c8U, 0xf47f08072f42d901U, 0x3cc393438441832U,
  0x13f5fd5d261ab0U, 0x7098f7d007022610U, 0xbfd0000cafffe00U, 0x1100120ffe580301U,
  0xfcf400001cfe81U, 0x1c000026000000U, 0xf40100fe3ed000feU, 0xcb250a01eef16113U,
  0x9a4817fea7c4f1f9U, 0xf2dcea42d10000U, 0xf5f1fa39e6a6efe1U, 0x1be1cdeae9bdeb19U,
  0x2f12ddfe7f09f33aU, 0xf10f26e1d7c83408U, 0x3081fb2dfaea27f1U, 0x2b71f431349e0ffU,
  0x1af80d5c4c0023c0U, 0xcaf33c5620cb06dbU, 0x4a06e04adeb39c4cU, 0xbeea376527d21537U,
  0x2059f9b73ada5beaU, 0xc94f0f102a00a422U, 0x8f97f420cc83300U, 0xe1defb1100fba858U,
  0x103aa7231f0cc32dU, 0xe8f8e8feae4e2f0dU, 0xd9d2bd1ded112ae2U, 0xecff19d7ce09d50eU,
  0xf929e30f1fc5ac07U, 0xcd323a0de20bddb4U, 0xd0c250000fa121e4U, 0x414b05143bba5afdU,
  0xd725d8101700133cU, 0x35e1165169f8beb0U, 0x323c52da9ccd0ffbU, 0x60fb0ce08ed7ce0eU,
  0x60a4fdede9ff1e7fU, 0x28be003b141829a5U, 0xfb30114a10ec0222U, 0xa0117dccae845ddU,
  0x15fcdc04afc6f2fcU, 0x49d1f4f7de2e36e2U, 0x97f1023c229e204U, 0x7431bf23ff93e8e2U,
  0xea005dc010ca6396U, 0xa3fcf7cb0f0dbe5fU, 0xec09cb41b26757ffU, 0x49e17f115b3f3a39U,
  0xbc040a26ffd7be35U, 0x6a449d4a0e5aac1dU, 0x8f11b0b28197de5U, 0xf29ed965fe1206U,
  0xada3cf4ff13e575U, 0x407fe4082b24032bU, 0x5ef8ecea0af4d708U, 0x9316e5e910db0ceaU,
  0xe9de06d817ddcb15U, 0xfd0d4b03e801cfb4U, 0xdbf816ed1d020e05U, 0x26efee42dcfc0600U,
  0xdbf3f9bafad0150aU, 0x8c821fc34fb18fdU, 0x1310f8e8c6e2f6b9U, 0x497fec4ccc0414d9U,
  0x23b0cfd405d3efffU, 0xe181ecbcfb21d6e8U, 0xff9fd0caa65002cU, 0x18013eb64ab0e9U,
  0xa0cb2012f95af2ddU, 0xf7a04819e8389e18U, 0xb7d12df9ab7cc6b5U, 0xfdb1acfe8233409eU,
  0x3dca45dd0547d7faU, 0x170f37412600d343U, 0x8935297f8f2eeb14U, 0x19364dfdc0d2f5fcU,
  0xfc111ffd080421e3U, 0x2f532c0f06f6e7fbU, 0x20dd32004418db2cU, 0xd3104eb00c3b0a04U,
  0xf3f4732a00d42211U, 0x1b3a142eefeebedaU, 0xffe02faf0f15f0fbU, 0xcadf54f5c05a7f39U,
  0xc2b3e8e6e9190130U, 0x18da68a20749e216U, 0x30f64612cf0f4381U, 0x362651004cf31ecbU,
  0x134312dcb311f2f5U, 0x1524108be40e9913U, 0x1510f8092acc2e2fU, 0xc63249d71a33effbU,
  0x5229bc16991e144eU, 0xe3fbc2f5e3ed1973U, 0xaf3400a52901b5d0U, 0xb9b615dd38b9fe90U,
  0xcf4136fc81262164U, 0xf1f363ec99e7e3ebU, 0xcc633c1b7407311bU, 0x1cd8aa15d3f810e0U,
  0x1cd3dac52a7f3f9aU, 0xfd00ea401cff3427U, 0x44c508190b1c1ad1U, 0x46fe031903e704deU,
  0x1bf70e25c9ff1d1eU, 0xe7f3d1eb14df16ffU, 0x90f0f0decf3edf4U, 0xc9b107a0de0bbaebU,
  0xfbb9fbe7df247eU, 0x2826c67b222464f1U, 0xc1d93fe33c53e4faU, 0xb11bfbf50231d20fU,
  0xe689d4a87f31a246U, 0xc4b93b243bfddf08U, 0x5b75057bf63bd72U, 0xd97b13359dd90a19U,
  0x99162bfb03bf5300U, 0x7f070fadebc3fcfcU, 0xe01fec90d2ecf8efU, 0x210420055b0b05eaU,
  0x7ce9f9f85cd7fd73U, 0xc355f0feebc7e1ddU, 0x133fc84e0d2ce6e0U, 0x2021705b75f002bU,
  0x18d40bf477cd1581U, 0xdd30ed1d14aa1494U, 0x161701351aec0226U, 0x4e203947fc2fe307U,
  0xe9e3d13bf184cc17U, 0xf3d12920d4213cfdU, 0xe60545c12000dadcU, 0xe2fc05ec41cb6dfdU,
  0x18c61deafcbc27e2U, 0x4201c9f6e422e6d0U, 0xe6e77fea104fd6ffU, 0xb7e9c10224e723f4U,
  0xdeda21f8c23742f0U, 0xecf881ee009316dfU, 0x20206d218f715feU, 0x6ecdba3da18f92eU,
  0xe22fc1bd33f9b7c1U, 0xbce20724f9dff943U, 0x578a080d1cbdf42eU, 0x74c37ff61af1c4fdU,
  0x426e530050aeb0d3U, 0x70b5b9d1f30df839U, 0x3fb92f0de7e1c41aU, 0x233e2df9e91c3e41U,
  0xcdfdf604f70959c2U, 0x6744e2fdf3240472U, 0xd344f10701daf036U, 0x12c4001d42a6703eU,
  0x3bf4f23c2807f132U, 0x471301ac4e163a29U, 0x106fda1fd7e501f1U, 0xf73c1e01002316U,
  0xd1004cee292d2e7fU, 0x5aef81fdc38d2a68U, 0x150067c429d0d1b1U, 0x4797c2652b24749eU,
  0xe302b047fefd8fdU, 0x23f522e376f0f5e4U, 0x258cead00e9c1722U, 0xa61621fcf5e7e6e4U,
  0xf30ed7da4ebdd0e5U, 0xb17fe60ce7f499U, 0xfdab62c8fb202300U, 0x3321ef1d09f4ac58U,
  0x1cb8e0c423d7c5ccU, 0xf4cef216bdf7c5c9U, 0x90dfbefceeed6f2U, 0xfe83e6a2fd5d8e8U,
  0x64f0b6ac810d8e8U, 0xd2071fd8e9e81800U, 0x1ae1f7e6f3d706bdU, 0xede3ddc1114321f9U,
  0x35eb03fd7f0e040dU, 0x20182bae1de8f644U, 0x4bdef9b3e4U, 0xfffff49cfffff260U,
  0xffffe820fffff51dU, 0x7f500000aedU, 0xd0cfffff262U, 0xfffffe0cfffff867U,
  0xfffffbfc000006a6U, 0x1f44fffffe90U, 0xfffff9fafffff485U, 0x146bfffff6f7U,
  0xa0afffff9a9U, 0xffffeddf00000098U, 0x470cfffffeb9U, 0xffffe1d600000045U,
  0x1a8300001d99U, 0xfce16db9fffff880U, 0x889ecea7d4d614acU, 0xd04624e8f4d31d84U,
  0xd87f817fbb215727U, 0xe7f9bb70f2e5b27fU, 0xc8f121eae70d4e53U, 0x607f38cdc00b6801U,
  0xb4e2012548b5110dU, 0x6d0300e001257ee1U, 0x707bdfe144fcf81U, 0xe16d7f7f4748f6f2U,
  0x942b4b3468f633b3U, 0xfddeed29be9a34faU, 0x3025d4e1f7fdb42U, 0x47bd0330d590ca46U,
  0xfa50c5d40e7fdb7fU, 0x69d47f81d7337e2cU, 0xed1c1609decb0d7fU, 0x559f240b01064dd7U,
  0xc37fb598e3ef1923U, 0xa00955f81c253d90U, 0xb418053361507f11U, 0xc5817f1a7f62093bU,
  0x37795d99ffb3e97eU, 0x42ff7f697f014047U, 0x45fd81aae500c8adU, 0x7f7f7ff8c27b3246U,
  0xfd3f2955a97fe14eU, 0xc10e0b43e5e90908U, 0x2f33f94be0f2b4dfU, 0xfe9e50a9f0257f01U,
  0x4581ff031c7f39cbU, 0x40f7def73afb461eU, 0xffffeb4a000000f5U, 0xfffff144fffffd99U,
  0xfffff959ffffbcaaU, 0xfffff7b6fffffc55U, 0xfffffeae00000361U, 0x16e7ffffdc4bU,
  0x2f000000465U, 0x3a5ffffe0f8U, 0xfffff857ffffe648U, 0x137ffffecf3U,
  0xfffff41ffffffeffU, 0xfffff867ffffc739U, 0x11000000a04U, 0x13100000bd8U,
  0xfffff3950000013fU, 0xd9d9e80067ced7ffU, 0xf985b919f17fffefU, 0xf4c4151bdcb00bfaU,
  0x382cd446b0f94699U, 0xc7ec13ed3c1600fbU, 0xeab7f4a533814b9U, 0x11293f53dccc0ce8U,
  0xe0007fd5a761e0e8U, 0xa4e96f4a9705d3c4U, 0x226493a47b089b90U, 0xae0fc4d23cf43221U,
  0x12226dd7000a3d25U, 0x556b057f42ede717U, 0x2256c21ab91a1ce1U, 0xf535d5e7e60d23f9U,
  0xd7fcf3edff191a00U, 0xebd607f47ff6f957U, 0xf2f60b110f18e242U, 0xbdd300ebe11d2ff5U,
  0xfff22cd3efd57f2fU, 0x1de721fb09e80bfcU, 0xeab6da0e0914fb6dU, 0xa30de4325e00f3daU,
  0x1307f50ec50af06U, 0x181cf20a102fed2aU, 0xe3a4223bf00415U, 0x3134dbed1fad710U,
  0x7fef1846db0af33cU, 0x572620381fc408d5U, 0x162cf1001535fcf3U, 0x3acd7f0cf6e0011aU,
  0x60c51cb1de05c061U, 0xfb7feab10315f145U, 0x4db1502effc00f9U, 0xee1116f525c817e5U,
  0x11e9fbe1bff9702bU, 0x4600eafc01ecf748U, 0x364fb09d5b05f17fU, 0x8f0d54514624e19U,
  0xde1ee015d14eee27U, 0x2cf716dc003a354bU, 0x7f049f1b0f93f1f0U, 0x4e25e40efeac09dfU,
  0x18eeec35ef20ede9U, 0x6c4ad0d21dc9aa00U, 0xf9ca27b6b90db601U, 0xc9b63a81252ced1dU,
  0xbece00f6c8e1543aU, 0xcacc0a1f5c140c1aU, 0x4cb01db8c62b9fe5U, 0x14dc39ddf13781eaU,
  0xf238fe67d7003745U, 0xbc693efe7f20eb01U, 0x1a2f68bd4ab4dcfaU, 0x201f840ae150aU,
  0x160f6d8025df411U, 0x515b7fcdfd73417U, 0xec1efe0e2bf77fc7U, 0xb59fc60077ab9f70U,
  0x9581b6c4fd548bd2U, 0xaf20b5b98b95a01U, 0xe812a201bfe61df9U, 0xb5d914e4bc0a00d1U,
  0x7feaf906670e7710U, 0x6fe1e3d5edb90a79U, 0x92c00004b07U, 0x1defffffdf61U,
  0xfffff941fffff052U, 0x10cfffff44eU, 0xfffff72f01d5c5d6U, 0xfffff079fffff75bU,
  0x1b20fffffa77U, 0xffffe39a000023e3U, 0x37cffffff0ceU, 0x20e2bf3b000001eeU,
  0x444e12b812f27fd1U, 0x57f3df402f83da0U, 0xfbd1817ff85025e0U, 0x7fdd7fe87f811279U,
  0xce4bcd7fbfeee105U, 0x36e83c01e17fbfb1U, 0x79d97f2c01fb4808U, 0xfb00122fef29f50cU,
  0x7a1f7f365b7fbd38U, 0x7f64427fe33bc60dU, 0x2353c173c7f20f1U, 0xd4201d2faa18ec10U,
  0xfb2df20ff91ae947U, 0xe6d5649e257fd62cU, 0xd6d7b135c3ae57feU, 0xdede4259f91d7a5cU,
  0xbf7105cd7d1520f4U, 0xe816c40a790a561cU, 0xefbb7f0e6ff8afefU, 0x9192bf2c970U,
  0xffffffa0ffffe794U, 0xfffffeb1fffff9afU, 0xfffffbccfffff710U, 0x72c4a00fffff265U,
  0xffffdfb00000027aU, 0xfffff916ffffff89U, 0xfffffd240000062dU, 0xfffff04bfffffc8aU,
  0xffffcb47fffff6a5U, 0x55942f4b8b73d3U, 0xb87a30efd84e0e5eU, 0x305d25c822b57fc1U,
  0x811b1e5009090028U, 0xdec52ddd49ceca21U, 0x29e87f00263633U, 0xe71912b20465fa17U,
  0x2506001f7ffc41e3U, 0xc9df48ff23c8211cU, 0xebcae7a149ec78U, 0x4fcd48b9f7d9b881U,
  0xa8b09cfc9ffad053U, 0x6e18d3810dc200a4U, 0x3aa2fd130d0720d0U, 0xd7f16e80051dbe0U,
  0xebe6abdf92bcefeU, 0xd8100ece0edce37U, 0xd23815e8f046e24fU, 0xfbe5325ac742ddU,
  0xb97f06f6fe0a3f67U, 0xb3e5244b26cd4addU, 0xc57f3543229200d9U, 0x9211433fde03f001U,
  0xb81e8b700c9c0cfU, 0x2050b52dcafa603dU, 0xd49c00e1e1e59f39U, 0xe62b4ee67fe705beU,
  0x19b000469b03d5U, 0x5cc4de004ed852U, 0xdbfc1ff362f10081U, 0x45f332174511000aU,
  0x4281e1004607f27fU, 0xfde82d00001fe134U, 0xc8686bbd1ff127bbU, 0x1def0013b41c1cdcU,
  0x2b0803b07fd4dbdeU, 0x9c70000040cU, 0xfffff808000001f4U, 0x4a5f000017e7U,
  0x3e2fffff8ecU, 0xfffffe5afffffa1bU, 0x119d000017a8U, 0xffffe69b00001259U,
  0x106000015aeU, 0x7fc381cf52f8e6d0U, 0x799eefacf8e47ffcU, 0x2ef705c3b4d6e623U,
  0x7f664c0dd6da42fbU, 0xeb0a0db72d818126U, 0x497f7ffbe6ddeda3U, 0xdabc9d6d5c2c1eeeU,
  0x449eda817f7fee4cU, 0xf11703ea63c427fU, 0x1e3b14ff2126077fU, 0x1b1e1603cccd27U,
  0x1d5a2ae81512fff8U, 0xca81df7f7ff3e3e8U, 0x3a1f9a0212fc528U, 0xdce3272ea72308f6U,
  0xf1d5feee1102e733U, 0xd0c7d706b7e5d8f8U, 0x5fceae4f30dcb09U, 0x719fffffcaaU,
  0x257000005f3U, 0xfffffbc7ffffff27U, 0x8dfffffc54U, 0xffffffd9ffffff05U,
  0xffffff46ffffff4bU, 0xffffff60fffff8a4U, 0xffffe875fffffed2U, 0x190130c1880ee37cU,
  0x28367f004404ee7eU, 0x1003010866eef725U, 0x7367f00130f2a05U, 0xe602fbc3ebfb49f3U,
  0x7fefe700b0ebc876U, 0xf203f803f90947ecU, 0x4edddb00c0fdcc7fU, 0xd6fe0158f5253f22U,
  0x7fee4d005c79c5e5U, 0x7300fe7d01f128cbU, 0x1fc6d1004a4d7fb9U, 0xa0030cf932e37fa7U,
  0x23e6c00000469360U, 0x3002fa1d283c45b3U, 0xebc78c007f44ebceU, 0xeefdf7f066dfd564U,
  0x7f615100d7d8013cU, 0x7f000246b3ac83d0U, 0xbfc9390144f96382U, 0xe400047fdae0e9e6U,
  0x6f11400fe3b0fdbU, 0xf501fea2f1eb220dU, 0x7ff5e1ffb3cccf66U, 0xf20000cb2b040452U,
  0x1f83400b6f1ee7fU, 0xe002ec2c05d8dc20U, 0xea1c7f00032feb09U, 0x11000406b10224ebU,
  0x32e2f8007f0f07ddU, 0xd7fd00ff7fc5f74aU, 0x4f2f3affd31bcb41U, 0xf402fcc709074d02U,
  0x70e0ed00c1edc97fU, 0x1fff04337f0115f7U, 0x1ef00100121909d0U, 0xf80108bed9310917U,
  0xd1cffc00d4d4de7fU, 0x7505004842bcbadaU, 0xaaca280120dc6281U, 0xfdfdf1ee7fcecc56U,
  0x71443fffdbec1231U, 0x53fd007f8cb7ebbaU, 0xdccafe00201055deU, 0xd2fe0e177fced609U,
  0xfd38fff019b046U, 0xdb0008eb14e62b81U, 0xc6b3cb00dd2bc34fU, 0xc00002ad00a1d81U,
  0x2981d4005831ddb8U, 0xfffff5d800006a65U, 0x5b700000ae5U, 0x8dc4ffffee0eU,
  0xfffffc1400000e2eU, 0x1636000001dbU, 0xd71fffff90eU, 0xfffffc5400006dd9U,
  0x3f8000020b2U, 0xfffffce100000808U, 0x1d5a0000428fU, 0x74c0000010bU,
  0x10c50000083dU, 0x67397fab00000ad0U, 0x19f87f6a8165ba13U, 0x509e1730408b7f41U,
  0x7f2ccdc47f097f7fU, 0x377f35ef7fa92b73U, 0x9b3a7f7fac6d717fU, 0x2020c66a7f07337fU,
  0x401d6c7107f81ecU, 0x7ff0dd14f3f0067fU, 0x812ca6e5baf6200dU, 0x7fec2e810c401e4fU,
  0x274881347f14e33cU, 0xb4427f50641b9700U, 0x3f059be0602a23c6U, 0x44b61d361cf91f2eU,
  0x3e3e2a365681032cU, 0xe7f3671c05fbfdabU, 0x9e5d6fd72cd08d7U, 0xdbae12d70c3af8f3U,
  0xf5232009dab415f9U, 0xe4f810edffc14902U, 0xe5d5d6cc1f17fff0U, 0x22ebf301c8990822U,
  0x17f0ccd9e97ee2f0U, 0xd9dfea11f7db080bU, 0xf020c1781edf9e8U, 0xfdfb0c090b0de769U,
  0x8d308f8dc0cfb07U, 0xe9fcb7c2ffU, 0xffffedf70008bc55U, 0xfffff820fffffa47U,
  0xd3a299ffffe4edU, 0x33efffff499U, 0xfffff9eefffff2eeU, 0xfffffbccfffff8efU,
  0xfffff3f600406e6dU, 0xfffffd7b0022dd14U, 0xffffe7a4fffffb27U, 0xfffff4f400043e94U,
  0x11afffff610U, 0xfffff158fffffc07U, 0xf9ef0cfffffffa82U, 0xed0b6aeadfe7004aU,
  0x7f002bf5f9001d00U, 0xf00aff00fa051ce1U, 0x766edd9ea0040f5U, 0x2bf5fa021800eeU,
  0xf60000fb051ae57fU, 0x4eb477f010d531aU, 0xdd260500ef001522U, 0x5b231ef1f200U,
  0x1c2bfcff03fdfc7fU, 0xfb160020000b010cU, 0x10815155510011eU, 0xf7f3000ef3f95600U,
  0x2f0007003601251fU, 0x2270c7f1900f406U, 0xe10036d00060ff00U, 0x17f000bfb093e35U,
  0xf3096d0dfffcf635U, 0xf55135150100f6U, 0xeb006c09b80b7f29U, 0xec219701ed571c00U,
  0xd022814ff003c42U, 0x7f140b1ee80a00U, 0x5107ffd32d3100faU, 0xe047f0000ec130eU,
  0xe924020e5a58ff4eU, 0xd80002063a017d00U, 0x195900ff503a3b2dU, 0xfb0a4f32ebfe3a0eU,
  0x1b1073a01190004U, 0x7f0000f204297fbcU, 0xfe58e0d500eed1bcU, 0x27af17005e00dbdeU,
  0xabfc17f1200U, 0x15f7f00245116fbU, 0x2339010b00081ef0U, 0x3c410a25b9ffb0U,
  0x9ce0fe1cddc219feU, 0xb9002e00a36e46d9U, 0xd6d553d07ffd0ed2U, 0xf400ee1f3ae7ff00U,
  0xef007f0402fceaU, 0x2cf419eeffda4d0cU, 0x7fe0dde80000f5U, 0xc75ef3f3cfebU,
  0xc1d75d002dc8eaffU, 0x193b35fdff00cedfU, 0x7f24cc11712400U, 0x32c10003441a00f4U,
  0x9123f0000fefcefU, 0x26a09e2f592000f4U, 0x8100c90b5400fe00U, 0xf10600001145cc61U,
  0xe3ea067fda000aeeU, 0x1fce001011500f7U, 0xe60000f1f0f2f5cdU, 0x3f4d30e0176e7eeU,
  0x2de908ff0200ed7fU, 0xff00e51c23fc51ffU, 0x87f1fff2fe70f24U, 0x112afe190039180aU,
  0xf7181d24d7fffeU, 0x6e43ff10fc091f00U, 0x2e05230122d4a2f9U, 0x195aff0c92008116U,
  0x1d00f027192cfc01U, 0x270012ce7ff4ddU, 0xfd64f85fff0b1df2U, 0xeaead8e7ff0027U,
  0x1800c78154dcfe0aU, 0x56cd6500f6e5ecffU, 0xe7180d48fd00fd0aU, 0xfdaa7f268ddaffU,
  0x1871fe3d171b007cU, 0xd3d08d0200fd1c3cU, 0xbc5617eff08101e1U, 0xa013ba3c900b500U,
  0xed28fd00ac8f39c1U, 0x6461ef0510ff7ffcU, 0x24effbfe2400e6U, 0x80000f90612e47aU,
  0xd5164923020b5037U, 0xc24a210107007f0fU, 0x100fd12db31ce00U, 0x13fb2801df5b3ff5U,
  0x4e25fffa007f0a01U, 0x40411131f000e4U, 0xfffff49afffff465U, 0xffffe6caffffe692U,
  0xffffef71ffffe0c9U, 0xffffe4660000027cU, 0x540ffffd4c8U, 0xffffee45000022f6U,
  0xffffe8e400001be1U, 0xfffff5540000071cU, 0xa89000016eeU, 0xffffe7deffffe2cfU,
  0xffffd995000004e7U, 0xffffe518ffffff8aU, 0xffffecc100003eecU, 0xffffdc24fffffac4U,
  0x9f5f838112dfbf4U, 0x7c2a603291d81f9U, 0xe5ddfdb8f5ea8181U, 0x37ffdfb3ff0c4c6U,
  0x7f1646c27fee7b7fU, 0x7f0afb24f1f67fd7U, 0x790af781b2dd81c5U, 0xf27fadbb13f77f7fU,
  0x7f7f2981f5daf094U, 0x7f7f6381a87ffb21U, 0x9ff00fb897f7fa7U, 0x4ce0a4d01fac412U,
  0xfb16fd01ff0ebc04U, 0x8bf5dee738e704feU, 0xff097ff87ff7ffffU, 0xfd09f4e9fc3735c6U,
  0x302c9fc0316f0fcU, 0x205fefdaee9f3d8U, 0x4e60ca0fc05dff6U, 0xb1140ef4fe0b9fe5U,
  0x81eff10af3ffeefaU, 0x3eacacf05e600feU, 0xfe1dc30fbf81c781U, 0xcefbf101ca15fa03U,
  0xdac904ff520b0132U, 0xef1414a2f7e4a8f1U, 0xab08c3f8ff084f29U, 0x3d190479be02ec08U,
  0x500e8fa26f10305U, 0xfc16f25d0341e0a2U, 0x19091403a6fc0407U, 0x521220cfc35U,
  0x417000003d9U, 0x187dffffecd9U, 0x64600002968U, 0x3fc1000004acU,
  0xb3d4c0000004bU, 0x7ae00000325U, 0xfffff45300000402U, 0x57f0000024eU,
  0xfffff42d00000997U, 0x4c500003952U, 0x15200000f61U, 0x1ee00000c18U,
  0x2cb0000136aU, 0x687U, 0x0U, 0x0U,
  0x0U, 0xf51305f20fef0305U, 0x32f5fbfdf4021d33U, 0xfaf7fb810bf90a14U,
  0xf02f001aU, 0x0U, 0x0U, 0x0U,
  0x0U, 0x0U, 0x0U, 0x0U,
  0x0U, 0x0U, 0x0U, 0x0U,
  0x0U, 0x0U, 0x5230f00000000U, 0xff012adbf8151508U,
  0xe1edf8e903af1481U, 0xe4d0e4dd12772dd6U, 0x0U, 0x0U,
  0x0U, 0x0U, 0x0U, 0x0U,
  0x0U, 0x0U, 0x0U, 0x0U,
  0x0U, 0x0U, 0x0U, 0x0U,
  0x0U, 0x0U, 0x0U, 0x0U,
  0x0U, 0x0U, 0x0U, 0x0U,
  0x0U, 0x0U, 0x0U, 0x0U,
  0x0U, 0x0U, 0x0U, 0x0U,
  0x0U, 0x0U, 0x0U, 0x0U,
  0x0U, 0x0U, 0x0U, 0x0U,
  0x0U, 0x0U, 0x0U, 0x0U,
  0x0U, 0x0U, 0x0U, 0x0U,
  0x0U, 0x0U, 0x0U, 0x0U,
  0x0U, 0x0U, 0x2f67f5800000000U, 0xa0016eafc050b04U,
  0xdd3dfbf1071d0ec3U, 0x8e81efb0d2214d1U, 0x0U, 0x0U,
  0x0U, 0x0U, 0x0U, 0x0U,
  0x0U, 0x0U, 0x0U, 0x0U,
  0x0U, 0x0U, 0x0U, 0x0U,
  0xeefe0cf2f6e0100fU, 0xbffe08efd4fff71eU, 0xfb0c077f0406110aU, 0xf9e9fff9U,
  0x0U, 0x0U, 0x0U, 0x0U,
  0x0U, 0x0U, 0x0U, 0x0U,
  0x0U, 0x0U, 0x0U, 0x0U,
  0x0U, 0x0U, 0x0U, 0x0U,
  0x0U, 0x0U, 0x0U, 0x0U,
  0x0U, 0x0U, 0x0U, 0x0U,
  0x0U, 0x0U, 0x0U, 0x0U,
  0x0U, 0x0U, 0x0U, 0x0U,
  0x0U, 0x0U, 0x0U, 0x0U,
  0x0U, 0x0U, 0x0U, 0x0U,
  0x0U, 0x0U, 0x0U, 0x0U,
  0x0U, 0x0U, 0x0U, 0x0U,
  0xff23050300000000U, 0xffed61225f0f0faU, 0x1fe15dedff905feU, 0x1bf7f91507f9f681U,
  0x0U, 0x0U, 0x0U, 0x0U,
  0x0U, 0x0U, 0x0U, 0x0U,
  0x0U, 0x0U, 0x0U, 0x0U,
  0x0U, 0x0U, 0x0U, 0x0U,
  0x0U, 0x0U, 0x0U, 0x0U,
  0x0U, 0x0U, 0x0U, 0x0U,
  0x0U, 0x0U, 0x0U, 0x0U,
  0x0U, 0x0U, 0x0U, 0x0U,
  0x0U, 0x0U, 0x0U, 0x0U,
  0x0U, 0x0U, 0x0U, 0x0U,
  0x0U, 0x0U, 0x0U, 0x0U,
  0x0U, 0x0U, 0x0U, 0x0U,
  0x0U, 0x0U, 0x0U, 0x0U,
  0x0U, 0x0U, 0x0U, 0x0U,
  0x0U, 0x0U, 0x0U, 0x0U,
  0x0U, 0x0U, 0x0U, 0x0U,
  0x0U, 0x0U, 0x0U, 0x0U,
  0x0U, 0x0U, 0x0U, 0x0U,
  0x0U, 0x0U, 0x0U, 0x0U,
  0x0U, 0x0U, 0x0U, 0x0U,
  0x0U, 0x0U, 0x0U, 0x0U,
  0x0U, 0x0U, 0x0U, 0x3fd7f5600000000U,
  0xa0017ecfa080d03U, 0xdc3dfef2041b0ec5U, 0x2eb1cfe092111cbU, 0x0U,
  0x0U, 0x0U, 0x0U, 0x0U,
  0x0U, 0x0U, 0xf9060e0301fe7f56U, 0x31c0cc20d0016eaU,
  0x8240fbfdc42fef0U, 0x1ee1a02U, 0x0U, 0x0U,
  0x0U, 0x0U, 0x0U, 0x0U,
  0x0U, 0x0U, 0x0U, 0x0U,
  0x0U, 0x0U, 0x0U, 0x0U,
  0x0U, 0x0U, 0x0U, 0x0U,
  0x0U, 0x0U, 0x0U, 0x0U,
  0x0U, 0x0U, 0x0U, 0x0U,
  0x0U, 0x0U, 0x0U, 0x0U,
  0x0U, 0x0U, 0x0U, 0x0U,
  0x0U, 0x0U, 0x0U, 0x0U,
  0x0U, 0x0U, 0x0U, 0x0U,
  0x0U, 0x0U, 0x0U, 0x0U,
  0x0U, 0x0U, 0x0U, 0x0U,
  0x0U, 0x0U, 0x0U, 0x0U,
  0x0U, 0x0U, 0x0U, 0x0U,
  0x0U, 0x0U, 0x0U, 0x0U,
  0x0U, 0x0U, 0x0U, 0x0U,
  0x0U, 0x0U, 0x0U, 0x0U,
  0x0U, 0x0U, 0x0U, 0x0U,
  0x0U, 0x0U, 0x0U, 0x0U,
  0x0U, 0x0U, 0x0U, 0x0U,
  0x0U, 0x0U, 0x0U, 0x0U,
  0x0U, 0x0U, 0x0U, 0x0U,
  0x0U, 0x0U, 0x0U, 0x0U,
  0x0U, 0x0U, 0x0U, 0x0U,
  0x0U, 0x0U, 0x0U, 0x0U,
  0x0U, 0x0U, 0x0U, 0x0U,
  0x0U, 0x0U, 0x0U, 0x0U,
  0x0U, 0x0U, 0x0U, 0x0U,
  0x0U, 0x0U, 0x0U, 0x0U,
  0x0U, 0x0U, 0x0U, 0x0U,
  0x0U, 0x0U, 0x0U, 0x0U,
  0x0U, 0x0U, 0x0U, 0x0U,
  0x0U, 0x0U, 0x1b08040200000000U, 0x10fef6192ff60d1aU,
  0x13020bea060007f2U, 0xe14f8270ef6f781U, 0x0U, 0x0U,
  0x0U, 0xef1030500000000U, 0xf5031d35f61106f1U, 0x9f908132ef5fcfcU,
  0xef2d001afaf7fc81U, 0x0U, 0x0U, 0x0U,
  0x0U, 0x0U, 0x0U, 0x0U,
  0x0U, 0x0U, 0x0U, 0x0U,
  0x0U, 0x0U, 0x0U, 0x30f60f1b1a090502U,
  0x40005f21200f81bU, 0xbf7f88116ff05efU, 0x1013f529U, 0x0U,
  0x0U, 0x0U, 0x0U, 0x0U,
  0x0U, 0x0U, 0x0U, 0x0U,
  0x0U, 0x0U, 0x0U, 0x0U,
  0x0U, 0x0U, 0x0U, 0x0U,
  0x0U, 0x0U, 0x0U, 0x0U,
  0x0U, 0x0U, 0x0U, 0x0U,
  0x0U, 0x0U, 0x0U, 0x0U,
  0x0U, 0x0U, 0x0U, 0x0U,
  0x0U, 0x0U, 0x0U, 0x0U,
  0x0U, 0x0U, 0x0U, 0x0U,
  0x0U, 0x0U, 0x0U, 0x0U,
  0x0U, 0x0U, 0x0U, 0x0U,
  0x0U, 0x0U, 0x0U, 0x0U,
  0x0U, 0x0U, 0x0U, 0x0U,
  0x0U, 0x0U, 0x0U, 0x0U,
  0x0U, 0x0U, 0x0U, 0x0U,
  0x0U, 0x0U, 0x0U, 0x0U,
  0x0U, 0x0U, 0x0U, 0x0U,
  0x0U, 0x0U, 0x0U, 0x0U,
  0x0U, 0x0U, 0x0U, 0x0U,
  0x0U, 0x0U, 0x0U, 0x0U,
  0x0U, 0x0U, 0x0U, 0x0U,
  0x0U, 0x0U, 0x0U, 0x0U,
  0x0U, 0x0U, 0x0U, 0x0U,
  0x0U, 0x0U, 0x0U, 0x0U,
  0x0U, 0x0U, 0x0U, 0x0U,
  0x0U, 0x0U, 0x0U, 0x0U,
  0x0U, 0x0U, 0x0U, 0x0U,
  0x0U, 0x0U, 0x0U, 0x0U,
  0x0U, 0x0U, 0x0U, 0x0U,
  0x0U, 0x0U, 0x0U, 0x0U,
  0x0U, 0x0U, 0x0U, 0x0U,
  0x0U, 0x0U, 0x0U, 0x0U,
  0x0U, 0x0U, 0x0U, 0x0U,
  0x0U, 0x0U, 0x0U, 0x0U,
  0x0U, 0x0U, 0x0U, 0x0U,
  0x0U, 0x0U, 0x0U, 0x0U,
  0x0U, 0x0U, 0x0U, 0x0U,
  0x0U, 0x0U, 0x0U, 0x0U,
  0x0U, 0x0U, 0x0U, 0x0U,
  0x0U, 0x0U, 0x0U, 0x0U,
  0x0U, 0x0U, 0x0U, 0x0U,
  0x0U, 0x0U, 0x0U, 0x0U,
  0x0U, 0x0U, 0x0U, 0x0U,
  0x0U, 0x0U, 0x0U, 0x0U,
  0x0U, 0x0U, 0x0U, 0x0U,
  0xdb1005f4f1e70403U, 0x21f5fafeef002726U, 0xf8fafb8111f9070eU, 0xfd240120U,
  0x0U, 0x0U, 0x0U, 0x0U,
  0x0U, 0x0U, 0x0U, 0x0U,
  0x0U, 0x0U, 0x0U, 0x0U,
  0x0U, 0x0U, 0x0U, 0x0U,
  0x0U, 0x0U, 0x0U, 0x0U,
  0x0U, 0x0U, 0x0U, 0x0U,
  0x0U, 0x0U, 0x0U, 0x0U,
  0x0U, 0x0U, 0x0U, 0x0U,
  0x0U, 0x0U, 0x0U, 0x0U,
  0x0U, 0x0U, 0x0U, 0x0U,
  0x0U, 0x0U, 0x0U, 0x0U,
  0x0U, 0x0U, 0x0U, 0x0U,
  0x0U, 0x0U, 0x0U, 0x0U,
  0x0U, 0x0U, 0x0U, 0x0U,
  0x0U, 0x0U, 0x0U, 0x0U,
  0x0U, 0x0U, 0x0U, 0x0U,
  0x0U, 0x0U, 0x0U, 0x0U,
  0x0U, 0x0U, 0x0U, 0x0U,
  0x0U, 0x0U, 0x0U, 0x0U,
  0x0U, 0x0U, 0x0U, 0x0U,
  0x0U, 0x0U, 0x0U, 0x0U,
  0x0U, 0x0U, 0x0U, 0x5fa01011efc0302U,
  0xfefc02fcfd00010eU, 0xf9fe81fd040dfcU, 0x20bfc17U, 0x0U,
  0x0U, 0x0U, 0x0U, 0x0U,
  0x0U, 0x0U, 0x0U, 0x0U,
  0x0U, 0x0U, 0x0U, 0x0U,
  0x9f97f5c00000000U, 0x8ff12eafa060b08U, 0xd83dfaed091d0fc3U, 0x8e622f70c2115dbU,
  0x0U, 0x0U, 0x0U, 0x0U,
  0x0U, 0x0U, 0x0U, 0x0U,
  0x0U, 0x0U, 0x0U, 0x0U,
  0x0U, 0x0U, 0x0U, 0x0U,
  0x0U, 0x0U, 0x0U, 0x0U,
  0x0U, 0x0U, 0x0U, 0x0U,
  0x0U, 0x0U, 0x0U, 0x0U,
  0x0U, 0x0U, 0x0U, 0x0U,
  0x0U, 0x0U, 0x0U, 0x0U,
  0x0U, 0x0U, 0x0U, 0x0U,
  0x0U, 0x0U, 0x0U, 0x0U,
  0x0U, 0x0U, 0x0U, 0x0U,
  0x0U, 0x0U, 0x0U, 0x0U,
  0x0U, 0x0U, 0x0U, 0x0U,
  0x0U, 0x0U, 0x0U, 0x0U,
  0x0U, 0x0U, 0x0U, 0x0U,
  0x0U, 0x0U, 0x0U, 0x0U,
  0x0U, 0x0U, 0x0U, 0x0U,
  0x0U, 0x0U, 0x0U, 0x0U,
  0x0U, 0xfa1a160124047f5cU, 0xe1f04be11011be0U, 0x121f11dfd740fdeeU,
  0xfe7f5705dc23f4U, 0xe0016e8fa070f02U, 0xdb41fff0031d0dc3U, 0x1ed1a0109260fbeU,
  0x0U, 0x0U, 0x0U, 0x0U,
  0x0U, 0x0U, 0x0U, 0x0U,
  0x0U, 0x0U, 0x0U, 0x0U,
  0x0U, 0x0U, 0x0U, 0x0U,
  0x0U, 0x0U, 0x0U, 0x0U,
  0x0U, 0x0U, 0x0U, 0x0U,
  0x0U, 0x0U, 0x0U, 0x0U,
  0x0U, 0x0U, 0x0U, 0x0U,
  0x0U, 0x0U, 0x0U, 0x0U,
  0x0U, 0x0U, 0x1fff7f5300000000U, 0xe022cdff7151a03U,
  0xd84600e8072000b7U, 0xffdf1ef40d2612beU, 0x0U, 0x0U,
  0x0U, 0x0U, 0x0U, 0x0U,
  0x0U, 0xe1e911edf0f40c0aU, 0xa70afdf1ecfee913U, 0xf8080e7f060d12f1U,
  0xfbe1f307U, 0x0U, 0x0U, 0x0U,
  0x0U, 0x0U, 0x0U, 0x0U,
  0x0U, 0x0U, 0x0U, 0x0U,
  0x0U, 0x0U, 0x0U, 0x0U,
  0x0U, 0x0U, 0x0U, 0x0U,
  0x0U, 0x0U, 0x0U, 0x0U,
  0x0U, 0x0U, 0x0U, 0x0U,
  0x0U, 0x0U, 0x0U, 0x0U,
  0x0U, 0x0U, 0x0U, 0x0U,
  0x0U, 0x0U, 0x0U, 0x0U,
  0x0U, 0x0U, 0x0U, 0x0U,
  0x0U, 0x0U, 0x0U, 0x0U,
  0x0U, 0xc000000000000000U, 0xbfffff80fffff695U, 0xc0000000c0000000U,
  0x52fc0000000U, 0xc0000000bfffff80U, 0xc0000040c0000000U, 0xc0000000bfffff80U,
  0xbfffff80bfffff80U, 0xbfffff80c0000000U, 0xc0000000bfffff80U, 0xbfffff80bfffff80U,
  0xfffff670bfffff80U, 0xbfffff80c0000000U, 0xc0000000bfffff80U, 0xc0000000ffffff92U,
  0xbfffff80bfffff80U, 0xbfffff80c0000000U, 0xbfffff80c0000000U, 0xc0000000bfffff80U,
  0xc0000040c0000000U, 0xbfffff80bfffff80U, 0xfdc0000000U, 0xbfffff80bfffff80U,
  0xc0000000c0000000U, 0xc0000000bfffff80U, 0xbfffff80bfffff80U, 0xc0000000bfffff80U,
  0xc0000040c0000040U, 0xc0000040c0000000U, 0xc0000000c0000000U, 0xc0000000c0000000U,
  0xc0000000bfffff80U, 0xc0000000bfffff80U, 0xbfffff80bfffff80U, 0xfffff6f7c0000040U,
  0xc0000000c0000000U, 0xc0000000fffff782U, 0xbfffff80c0000000U, 0xc0000000c0000000U,
  0xbfffff80c0000000U, 0xc0000000bfffff80U, 0xbfffff80bfffff80U, 0xc0000040bfffff80U,
  0xc0000000bfffff80U, 0xbfffff80c0000000U, 0xc0000000c0000000U, 0xc0000000c0000000U,
  0xc0000000bfffff80U, 0xbfffff80bfffff80U, 0xc0000000bfffff80U, 0xc0000000c0000040U,
  0xc0000000c0000000U, 0xc0000000c0000040U, 0xbfffff80c0000000U, 0xc0000000c0000000U,
  0xfffff51bc0000000U, 0xfffff6d2bfffff80U, 0xc0000000c0000040U, 0xbfffff80c0000040U,
  0xbfffff80fffff4c6U, 0xc0000040bfffff80U, 0xc0000000bfffff80U, 0xc0000000bfffff80U,
  0xbfffff80c0000000U, 0xbfffff80c0000040U, 0xc0000000bfffff80U, 0xc0000000bfffff80U,
  0xbfffff80c0000000U, 0xc0000000c0000040U, 0xc0000000c0000000U, 0xbfffff80c0000000U,
  0xbfffff80bfffff80U, 0xc0000000c0000000U, 0xbfffff80bfffff80U, 0xbfffff80c0000000U,
  0xc0000000c0000000U, 0xbfffff80bfffff80U, 0xc0000000c0000080U, 0xc0000000c0000040U,
  0xbfffff80c0000000U, 0xbfffff80bfffff80U, 0xc0000000c0000000U, 0xc0000000bfffff80U,
  0xbfffff80bfffff80U, 0xc0000040bfffff80U, 0xbfffff80bfffff80U, 0xc0000000fffff956U,
  0xc0000000c0000000U, 0xc0000040bfffff80U, 0xc0000000c0000000U, 0xc0000000bfffff80U,
  0xc0000000bfffff80U, 0xc0000000c0000000U, 0xbfffff80bfffff80U, 0xbfffff80bfffff80U,
  0xc0000000c0000000U, 0xc0000000c0000000U, 0xbfffff80bfffff80U, 0xc0000000bfffff80U,
  0xbfffff80ffffff61U, 0xc0000000bfffff80U, 0xfffff601bfffff80U, 0xbfffff80bfffff80U,
  0xc0000000bfffff80U, 0xbfffff80bfffff80U, 0xc0000000c0000000U, 0xc0000000bfffff80U,
  0xbfffff80c0000000U, 0xc0000000c0000040U, 0xc0000000c0000040U, 0xc0000040bfffff80U,
  0xc0000000c0000000U, 0xc0000040c0000040U, 0xfffff77cfffff4c5U, 0xbfffff80c0000000U,
  0xc0000000bfffff80U, 0xbfffff80bfffff80U, 0xbfffff80c0000000U, 0xc0000000c0000000U,
  0xfffff7bfc0000000U, 0xc0000000bfffff80U, 0xbfffff80000003d5U, 0xbfffff80bfffff80U,
  0xc0000000bfffff80U, 0xbfffff80c0000000U, 0xc0000000c0000000U, 0xbfffff80bfffff80U,
  0xbfffff80c0000000U, 0xf004a509bfffff80U, 0x43a170af0045c09U, 0xf408020b05c6170aU,
  0xfbe51b0ef408020bU, 0x9080ef6fbe51b0dU, 0x1d2b111209060ef6U, 0x93f401fa1dcb1112U,
  0x14e2f80f64f401faU, 0x710080814e2f80fU, 0x1fd0dfb070f0805U, 0x17bf000e01fd0efbU,
  0x11f0ef1746000eU, 0x7f3fd060011f0efU, 0xeb020c1b07f3fd06U, 0xecf90bf7eb020c1bU,
  0xf7fe0aefecf90bf7U, 0x12f91115f7fe0aefU, 0x5d13004512f91115U, 0x1be8f301aa1300c6U,
  0xf8fc16e41be8f301U, 0x12effe1af8fc16e4U, 0xf112ed1310effe1aU, 0x301f8fdf012ed13U,
  0xf0f1fb1a0301f8fdU, 0xf9e20e1cf0f1fb1aU, 0xfce9fbf7f9e20e1dU, 0x20e0916fce9fbf7U,
  0xf0b50200020e0916U, 0x19fe0ba9f0580200U, 0xfa03a71719fe0c5fU, 0xfbebf2e2fa035915U,
  0xf81cfefffbebf2e3U, 0xe8110df3f81cfeffU, 0xfa17ffeee8110cf3U, 0xe5061410fa17ffeeU,
  0xfefa1ffbe5061410U, 0xea18f205fefa1ffbU, 0xf2e60be1ea18f205U, 0xf114f70ef2e60be1U,
  0x10af2fef114f70dU, 0xf509ed05010af2feU, 0xf80d0210f609ed05U, 0xbe0dfee9f80d0210U,
  0x1712e6ff2b0dfee9U, 0x16120be61712e6ffU, 0x1b1615e116120be9U, 0xef04ea0a1b1615e1U,
  0xffea0e12f004ea08U, 0xf6100fffffea0e12U, 0xf08a4eaf6100fffU, 0x181d13ef0f0856eaU,
  0xfb0d05f119d30cefU, 0xfe090105fb0d05f1U, 0xd060b18fe090105U, 0xb1616100d060b18U,
  0xf00f050b161610U, 0xef53250400f00f05U, 0xf08fd01f0a6dc04U, 0xf0c05f70f08fd01U,
  0xf050fefa0f0c08f7U, 0xf0d81f1f0befefaU, 0xe8fef3fd0f0e5cf1U, 0xf7fbf412e8fef3fdU,
  0x7ee0601f7faf412U, 0x11107ee0601U, 0xfffffeefU,
};


ai_handle g_vww_weights_table[1 + 2] = {
  AI_HANDLE_PTR(AI_MAGIC_MARKER),
  AI_HANDLE_PTR(s_vww_weights_array_u64),
  AI_HANDLE_PTR(AI_MAGIC_MARKER),
};

