/**
  ******************************************************************************
  * @file    vww_int8_keras_data_params.c
  * @author  AST Embedded Analytics Research Platform
  * @date    2024-11-11T15:35:36-0600
  * @brief   AI Tool Automatic Code Generator for Embedded NN computing
  ******************************************************************************
  * Copyright (c) 2024 STMicroelectronics.
  * All rights reserved.
  *
  * This software is licensed under terms that can be found in the LICENSE file
  * in the root directory of this software component.
  * If no LICENSE file comes with this software, it is provided AS-IS.
  ******************************************************************************
  */

#include "vww_int8_keras_data_params.h"


/**  Activations Section  ****************************************************/
ai_handle g_vww_int8_keras_activations_table[1 + 2] = {
  AI_HANDLE_PTR(AI_MAGIC_MARKER),
  AI_HANDLE_PTR(NULL),
  AI_HANDLE_PTR(AI_MAGIC_MARKER),
};




/**  Weights Section  ********************************************************/
AI_ALIGNED(32)
const ai_u64 s_vww_int8_keras_weights_array_u64[105425] = {
  0x3e27090fbd92115dU, 0xbe2cd0cb3de50f58U, 0x3f839b33bf71499cU, 0xbf14e9b63f8548b3U,
  0x3db43e103f873d6dU, 0x3fa32132bef20e01U, 0xc01a1e6cbf889837U, 0xbfa00db93f2768f8U,
  0xbefd9151bd77a25fU, 0x3ea659523f353661U, 0xbf1b94473eb22ca3U, 0x3f11035bbfaffc62U,
  0xbfd7b408bb9a5148U, 0x3f27a9403da306b2U, 0x3fa37969bf911c2dU, 0xbeac25823ef52912U,
  0x3e12a4d8bf1a0f67U, 0x3f3be3a7bf9b8548U, 0xbf4ba65e3f03dc1fU, 0x3f863026be8a4d38U,
  0x3f781303bf80b0c1U, 0xbf75bff13f38eb4bU, 0x3f3263563ee66378U, 0x3f79a54ac0058b5bU,
  0xbf9e40853f21bc2aU, 0x3f48c2373f1cf22fU, 0x3e822308bfa36e29U, 0x400a3f893fa59e34U,
  0x3ea75bf33fb6b59eU, 0x3ffc00abbe15d40bU, 0xbfebbb27be36c143U, 0x3f98e05ebf45924aU,
  0x3f84722c3f942a57U, 0xbfe9d4b73d9682d6U, 0xbfeaa4d7bf7b1a97U, 0xbf9566c7bf8dc589U,
  0x3f9b68cabd112b1eU, 0x3f3f7391bf332c4bU, 0xbe2172443e949546U, 0xbfd7a9aabedb464eU,
  0xbf135a5bbe36626dU, 0x3ec365c53edd72b2U, 0xbf30e917bededa34U, 0xbdf1cf22bf190a8fU,
  0xbce142f6bf68398bU, 0x3ef5c3ca3f8631f5U, 0x3ebcc38cbd1e3efeU, 0xbe2d9cc13ed6423bU,
  0xbf03ace8beb9fed2U, 0x3d2ed180be86535cU, 0xbe7f593b3f113b8aU, 0x3f3e030d3f469bf4U,
  0xbdd4be723de72a3aU, 0xbdb5a12d3edc4452U, 0xbee0c65cbf17b7adU, 0xbf3fd720bbeaf990U,
  0xbf1b020ebf933e0bU, 0xbe3afc6bbf2e8b39U, 0xbdf63d0dbeb4f01aU, 0x3cdf4367be1909f6U,
  0xbe1fc88b3e45542dU, 0x3ec042133e48ad71U, 0xbe3850ee3cc2ef63U, 0x3eba21d73e68b466U,
  0x3f4fafcc3ee7832aU, 0x3f1f607b3f216f6cU, 0x3f2740283e395e5cU, 0xbef56cdb3e824865U,
  0xbfcf0e8bbfaed9a2U, 0xbeedb9aa3f132cfaU, 0x3e00075abfbc6f12U, 0x3f5095ca3ec4ab71U,
  0xbf1bfdb03f292f63U, 0x3f4d4c09bf79a18eU, 0xbf8e3ccabf7f83f3U, 0xbe0b15473f56e3f1U,
  0x3f8d284abe7b8463U, 0x3f979da2be4c13f5U, 0xbecb084cbf682597U, 0x3f7a4e063edb1340U,
  0x3f152243be7b13fdU, 0x3e8c5443bf07193dU, 0xbef3f9c93f180097U, 0x3ece428d3df1ad0dU,
  0xbe48490ebd4c47d5U, 0xbe7962c13e05a41fU, 0x3e356f02be416c1eU, 0xbd4c6a94be79a024U,
  0xbf02e2c43f7e9562U, 0x3ef0abd2bdd2f497U, 0xbea83b3dbe930d29U, 0xbd6a58bc3eff2967U,
  0x3e745b11beae3460U, 0x3d7f647ebd2f9e67U, 0x3e4323913e394fe3U, 0xbd58593d3da75967U,
  0xbd9a367f3e423a74U, 0xbb9edcf03db45ca9U, 0x3e644078be295144U, 0xbe5051e43ec663d8U,
  0x3ec9e85a3e409321U, 0x3d647f543daa6ac6U, 0xbeb374b03e02b6d3U, 0x3a44612a3e6293c1U,
  0x3d7dc600bec1e487U, 0xbe3ab6a93e1c0b00U, 0x3d5e59963d0e85daU, 0x3da387f9becd73d0U,
  0x3ed294344008928eU, 0x3e830d81bd07fa38U, 0x3fad16f13f3c06eeU, 0x3f0572243efdb190U,
  0xbea867c83d040927U, 0xbddd83aa3da5a03dU, 0xbeb9fc663f7b7ae9U, 0x3f4021a8be1676d0U,
  0xbf3dbb583d0bf081U, 0xbf985852bd504b63U, 0x400180ddbde2b3f7U, 0xbf7770963eecb1cdU,
  0x3f4848963f8b09c2U, 0xbe9a11f2bd3fb73dU, 0x3d5fbfe53e9051d3U, 0xbf458fbbbf7583a3U,
  0x3e62f1d23d7f67a4U, 0xbf862c24bf1bf221U, 0xbfa7b6fe3f6774b4U, 0x3f8a4ad2bf62a85fU,
  0xbe50a98c3ffa8f14U, 0x3f9e15b7bf8ed18cU, 0xbf8c24a2be15c6b7U, 0xbedea77abf83f993U,
  0x3fd349253e7278edU, 0x3da1092dbf0426d6U, 0xbe5e197a3fbd45e1U, 0xbf103141bee7b9a1U,
  0x3f1c2c19be7d3677U, 0xbed80ca9bd947903U, 0x3f9f31533f4bd7ddU, 0x3e8be3f33e15404cU,
  0xbf46df71bfeb6a4aU, 0x3f00ab803fb4dc86U, 0x3edae9ebbf21fc7dU, 0x3fb853a83ff1cdbeU,
  0xbe3ab116c0647603U, 0xbe9ed6193eea89d6U, 0x3f01128bbfac075cU, 0xbe044d7a3f5862dbU,
  0xbd2080f8bc348b38U, 0x3ed036b33f88e820U, 0xbe106b983f13a14dU, 0x4011b8eebe8f923fU,
  0x3f0e91533f253dd8U, 0xbe2798113e41fc70U, 0x3d2990023e35e93bU, 0xbe8255d33f0c49ccU,
  0xbf29dc553b23584aU, 0x3da0252a3ee64c3bU, 0xbdcb178d3e419cb5U, 0x3f0d05a0be079d34U,
  0x3edefe123e3f0567U, 0x3e11709dbed189e5U, 0xbefe2d57beb24916U, 0xbdf3e7353c5a62c5U,
  0xbe9b7b6ebdcec605U, 0x3d2687213ce88fe2U, 0xbdc38a343c32ac0dU, 0xbc7346513ebb490eU,
  0x3f199810be5da23fU, 0xbd848a6cbb986cd6U, 0xbe4ad3c2bdd09fa4U, 0xbe4581503ecb36f2U,
  0xbe041ca83e84d4c0U, 0xbe6cffd3bead4fd6U, 0x3dc9a4573ed237baU, 0xbe3dd0c3bd7e8821U,
  0x3ece38cdbe33dc26U, 0x3d95f1db3ecda91fU, 0xbeb7f5433e5ef7c2U, 0x3ed3ce133e87d503U,
  0xbe2dd9883f2c156eU, 0xbeec5a473ecd5484U, 0x3f0ef645bf4db1e1U, 0x3d1a22423ea20605U,
  0xbe45949d3e823843U, 0x3eb387003ef4ec17U, 0x3f03db933f12607eU, 0xbe7b5512bca6761aU,
  0x3e0b6072bd033c2cU, 0x3f17e1e7bdbd0eb9U, 0x3e5d9967bed992bfU, 0xbca70f09bdde8d7bU,
  0x3dc7d2883e3ab8a1U, 0xbf1c0ec13f0cc559U, 0xbb09e406bd53c9a5U, 0xbb2d485ebe4787cfU,
  0xbf30ed063f94bcdbU, 0x3f3012adbf10bf94U, 0xbede6d7fbcbf2842U, 0xbe7eadaa3fc32c71U,
  0x3ec8e783bdde3234U, 0x3d23da593c72a8c0U, 0x3ea682183d4801a0U, 0xbe6ea0a8bf284af3U,
  0xbeadd0163e4267a6U, 0x3ec131e2bd902b61U, 0x3eb2435c3f9e3d5dU, 0xbe8d03f2bd0ac760U,
  0xbe190ff13ef7c869U, 0xbeb1a525bcca9b4aU, 0x3edbc83f3df97fe0U, 0x3e5650c73da1eba2U,
  0x3d8a88eabd6e69aeU, 0x3f041e51be373472U, 0xbeba5a99bd2405e5U, 0x3e0b0257be3c72a6U,
  0x3e06e516bf6123e6U, 0x3f28ec6a3f3850b0U, 0x3f3510763e8720caU, 0x3df8a522bec9639dU,
  0x3edbcf0ebf896eb3U, 0xbf5bc4ec3f0b13bcU, 0xbf915ac63ef35218U, 0x3e9e46893e3f28d8U,
  0x3f0205b23ea67187U, 0x3e84c0a23e9859cfU, 0x3e3590083ebb2df0U, 0xbe534876be307a62U,
  0x3e126500be67ce6fU, 0xbdade754bb9fa4d7U, 0x3eabd6173ee6c1bdU, 0x3ed2179dbdcd1fd8U,
  0xbd495c643ef865c1U, 0x3ec747efba1c4769U, 0x3ebfcf2e3eb1829aU, 0x3e9c7f2c3edaf85eU,
  0x3df770853e225cafU, 0x3f664c4e3cb88ef8U, 0xbe2c7b083f592310U, 0x3f423ae83f44ecf1U,
  0xbe88c96b3dc0ea0cU, 0x3c2a55b3be282204U, 0x3da3cc393f2849e9U, 0x3e144c5fbde16852U,
  0xbd11bc6d3f06b410U, 0x3dec7e02bbdf8570U, 0xbe5b0a6c3e769700U, 0x3e209756bf05eaaaU,
  0xbe16a9b9beb0e093U, 0xbe7b6d023e84eae4U, 0x3e2c663e3e4e29dcU, 0xbea598ac3c36d13cU,
  0xbd497a63bee5e3c5U, 0xbf01ecd6be51d4deU, 0xbcedcddc3cc810dbU, 0x3e8db366bcee7971U,
  0xbdd786333c704fddU, 0x3ef484e63eaee60bU, 0xbdd81939bd300938U, 0x3e7f29f13f0cc953U,
  0x3e5ac73c3ea075cbU, 0x3e977a413d37e5adU, 0x3d2a53f23ec88934U, 0xbede916dbef1e0c3U,
  0x3f0177eabe87d1daU, 0x3e1b29683f1ecd6fU, 0x3ed4a9bb3e344f9cU, 0xbc874b9c3f0e0345U,
  0xbdd19bd5bdd0bbebU, 0xbf37437c3db907feU, 0x3f4e7c8e3f26240fU, 0x3f8bde21bfe162d8U,
  0x3e20c41cbdd45d0eU, 0xbe4c65f1bea86c89U, 0xbd0693f7be4ed131U, 0xbe4e20a0be0f8c0bU,
  0x3cb0b2dabe03cdb2U, 0xbbf85b87bd820e70U, 0xbf51c56dbf47cac6U, 0xbe3c0075beafd0b7U,
  0x3f157ce03efff456U, 0x3e8fd26cbe1295a0U, 0xbea4cae93f00719dU, 0xbd16334abe8fba5aU,
  0xbee856babe588cf0U, 0xbd8d95a9bd81f585U, 0x3b70ae83be73cf58U, 0xbe8973893f078f16U,
  0x3f1867bfbea72f4fU, 0xbf0724a9bda459b1U, 0x3e98d7fa3e88b112U, 0x3ee5f58cbf059a2eU,
  0xbd94259e3eaecb4fU, 0x3f2b7bca3e704402U, 0xbd5ebe023e14bc19U, 0x3e79c2b23de28d0aU,
  0xbd239f803af88380U, 0xbe1271b83d54c99bU, 0x3ff6fb8fbf116c72U, 0xbeb05a383fe6183cU,
  0xbebbccb0bd781594U, 0x3f9990c93e240370U, 0x3fbc937a3f3547b9U, 0x3d37f441bd61f8d8U,
  0x3e8722a8be833728U, 0x3eb6fd8f3ebc3112U, 0xbe8555273debf20aU, 0xbe75a760be8c9a3dU,
  0x3f8f54a23e203afbU, 0xbe137acebde50becU, 0x3c978899be59c1c4U, 0xbef3ae9abde8e0e3U,
  0xbdf339853dea563eU, 0xbebf3fb83edcf3fdU, 0x3d897c893e0d50aaU, 0x3d8455173cedf317U,
  0x3e0415b33e295c6eU, 0x3de896c4bd6588ffU, 0xbe7b162a3c91a7c2U, 0x3d374d20ba8f7670U,
  0xbe13f2463f4ecc69U, 0xbf039a373ecc5996U, 0xbe6636703d95a109U, 0xbc4a726dbe8cfb93U,
  0xbe7119db3d86df52U, 0xbe881db23dea0f14U, 0xbdd065b73e624806U, 0xbd81bc88be359c3cU,
  0x3f25c0443fa38176U, 0xbdb2266abd6acb82U, 0x3e123989bea1f390U, 0xbf08c19bbea9e5faU,
  0x3eb153c93e8c8b12U, 0x3dd0eafdbdf6b029U, 0xbe89f64e3e4f7f36U, 0xbd87fd3abf4bd7ddU,
  0x3c8e14dcbc25bb7aU, 0x3d461e91be7831d7U, 0xbdc7a2f53ec8a9fbU, 0x3e91a4933e2d23b2U,
  0xbd2567babe3d70d7U, 0x3dbe1fd23ee220c9U, 0xbe275a97bc03c3bcU, 0x3f18b0e73e58c560U,
  0x3d9d9d14bd53d607U, 0x3ceb8a91be1cbf5bU, 0xbe1dbbb5be08249bU, 0x3ed3e823be2d6dd3U,
  0x3eb21cf6bd8e52a4U, 0xbd2d1a98bf2929beU, 0x3de302533d053642U, 0xbec04d7dbdc5249bU,
  0xbf67a8c7bf04cf44U, 0x3f08198bbe3d66b1U, 0xbe1e181b3eeab003U, 0x3e2346e6bdfc7d24U,
  0xbe90e47abd99bd3eU, 0x3cfff7b7be98e60dU, 0x3ea6500fbe964850U, 0x3e328b823dcba34fU,
  0xbe13478e3e0c0b99U, 0x3f1d68be3eb7a30dU, 0x3e2c9dcb3e60e85dU, 0x3e0111fe3dabee64U,
  0x3d852b823eacad45U, 0xbd68cc4bbbb029d0U, 0x3e58c0163ea7e7a3U, 0x3d9c5e24bdcae6bcU,
  0x3db59a47bbe709b0U, 0x3e40a7c63d89e76eU, 0xbcd018093f1532b7U, 0xbdc69fc6be8701edU,
  0xbe684d0a3daa0515U, 0x3ddb1a8c3d0c7154U, 0x3c8d00123ea89a4cU, 0x3e82f1ef3c45ec27U,
  0x3ecee0013ea8a71cU, 0xbd854bb93e63bb53U, 0xbf2c62debed30450U, 0xbe0abd17bd91890bU,
  0x3e3d1e2d3d3d68b9U, 0xbf1137133e035625U, 0xbe4f38c03f724be5U, 0x3d25fd943f805fb0U,
  0xbee928353eaa8195U, 0x3f409d80be61da59U, 0x3d01f837bf90a175U, 0x3ea089d03f84c151U,
  0x401930b73f0ebb5bU, 0x3e0c90943e831582U, 0xbe02d0273ea32960U, 0xbf417df4bf1bf0fcU,
  0xbeb30f47be025f94U, 0xbf58fb07bd8bfb0bU, 0x3d8545f63e3d4e26U, 0x3e68c4103d8ac768U,
  0x3edce66bbdc8939fU, 0x3d5589193e21666aU, 0xbe9898c3bcfb5933U, 0xbebc6949bdb2a631U,
  0xbea08c57bf99753cU, 0xbf9d63093ea0e70dU, 0x3f2431c3be8763a9U, 0xbc78ecc5beacc861U,
  0xbd2113a03e9532daU, 0xbd78b9babd3ceb9dU, 0xbe82ddc3bf1ffef1U, 0x3dca673e3c42e221U,
  0xbf0eb469be031088U, 0xbe9e860d3e775075U, 0xbe697e783f010507U, 0xbee4f46e3e2289d6U,
  0x3f312250befa17baU, 0xbf4590ec3e06809cU, 0x3f04f228be8471caU, 0x3ec301a13f0b21aeU,
  0x3d4851b03daaa5c7U, 0xbf839af4bf09894bU, 0x3f02dc6e3e46318cU, 0xbea89c0cbec57268U,
  0xbda26a81be4e06edU, 0x3e506bde3e0ad4c8U, 0x3e803cd4beb4e060U, 0x3ed808843ea91642U,
  0xbe9840b9bdb98dd1U, 0x3e1f563bbec00af0U, 0x3ea051263e50fd50U, 0x3f8b3450bf1d1806U,
  0x3ebefae3befd5693U, 0x3ef9808d3c82998aU, 0x3eb73733be3add12U, 0x3ec410743f47db7eU,
  0xbdc935463da6fb06U, 0xbf7b64b43f2b866aU, 0x3d4a001a3ebd1644U, 0xbdb57c27bf3cb0faU,
  0xbcda915abd11d550U, 0x3d24ba55bd3abffaU, 0xbe12a060be57b416U, 0xbb8b7b88bdd9cd84U,
  0xbcbc0d453d5ce642U, 0xbe3d7f49bdf6aec6U, 0xbe3a179bbdfa46c5U, 0x3e25aea33c62fcb0U,
  0xbe11d3a6bda6c73bU, 0xbe071587bdd35390U, 0x3d76f81d3e07fdf9U, 0xbe96f42fbe7de12bU,
  0xbf5c45ee3e4989d5U, 0x3ecc60adbe4d28d3U, 0x3dfc56c7be968e84U, 0x3f5dd6353e21b254U,
  0xbe86a31e3eb7bb9eU, 0xbe61f1a5be284d0cU, 0xbf3a2150bd994e95U, 0x3f8d64df3e91279cU,
  0xbddd605c3ea56f13U, 0x3e3ee222bd747747U, 0xbd9db5833ddab2eaU, 0x3daa60dbbe5c0aaeU,
  0xbe14117abe1bd780U, 0xbea7b5cc3d0b0de2U, 0x3d295d133b95c481U, 0xbdd472c93d940283U,
  0xbecd1287be9ac21bU, 0xbf22b0bf3d976f05U, 0x3d440593be6edddbU, 0xbeb0ecadbe794784U,
  0xbe14daab3dfe7bc7U, 0x3ce156ab3e0fa3a6U, 0xbe8ab1ba3e03b137U, 0xbe0c90f9bdc70422U,
  0x3da4d6843e501519U, 0xbeb5fb49bead1153U, 0xbea6852b3d12f494U, 0x3df1f58abd027c29U,
  0xbe8be5073e9281aeU, 0x3e5d396e3d37ae21U, 0xbefe768c3d94feffU, 0xbe74ddfc3de3ad96U,
  0xbcb9b01ebe3bf289U, 0xbee8aa833dc44c2fU, 0xbc229b8ebe09c412U, 0xbd3c3e18bd9f23d7U,
  0x3c71bcd83cc43807U, 0x3e3fcb47bc5ecf77U, 0x3c4bc9463c2b648dU, 0x3e5253b63cf51058U,
  0x3f54fbb5be7296abU, 0x3ebe16013e5b9719U, 0x3e7b37aabd7b2243U, 0xbee8f8a1be719a3aU,
  0xbdd5dce93e3ff84eU, 0xbe820a40bb682f64U, 0xbebd535b3ec0d381U, 0xbe68ec77be7d56a1U,
  0xbe25f24c3dd48d4fU, 0xbe1246553e74ff6dU, 0xbd4b2d503e24117aU, 0xbce48060be731390U,
  0xbcf1513d3d87f745U, 0xbd3d51063cf586f9U, 0xbc0cf012bd7c9da4U, 0xbd745abd3cb8576eU,
  0xbeb0b18ebe15aa12U, 0xbf14624cbd8a79e2U, 0x3db1a1dbbe411647U, 0xbdacbb25be7a8e23U,
  0xbdbc48b23dfca774U, 0x3d4de5573d358678U, 0xbe25fffcbc83816eU, 0xbcea7f8a3d44c1dbU,
  0xbe1543fcbea843c8U, 0x3e68e7ed3eee3f81U, 0xbeedb7693e913780U, 0x3f12231dbe6b8471U,
  0x3f101afb3f12b3e8U, 0xbf303d1039907eb9U, 0xbd3e177dbe8ae8dfU, 0x3ed3a6adbe54b8b4U,
  0x3d392056be15c7deU, 0xbe9693cbbe110964U, 0x3d46afabbdec06d2U, 0xbd692d87bb9fdbdfU,
  0x3dec92463d67b3f4U, 0x3c84c7dd3c3ffa15U, 0xbd86b536bd8bdcfaU, 0xbd9b0b713cbf1f34U,
  0x3eb7fc643d2f3076U, 0xbd8966053e973e21U, 0xbe1152cbbc64c4b1U, 0x3e2bcdc03e8ed928U,
  0xbd88bb99be269999U, 0xbe8fc8c83d3a8bc7U, 0x3b809f68bdf007b6U, 0xbe5989e9bd977274U,
  0x3e3f0dcbbe1ccdc6U, 0x3d66d6fd3e1fbb26U, 0xbde0fbc2be6341e3U, 0x3cc5cc40bd9574d1U,
  0x3e494f7f3eb382c1U, 0x3d3c1c763e96d7e3U, 0xbf165ac23ca8d811U, 0x3e76d67dbd91141cU,
  0x3e2bcca53d9e007cU, 0xbe77a5813cf9d60bU, 0xbd131397be2742f9U, 0x3ea618723d88ab2bU,
  0xbd9937e03cb0c251U, 0xbd6219e63f260724U, 0x3dec209d3cf912ffU, 0x3e29cc1ebc6e858fU,
  0xbb22527abd5ec304U, 0x3d107ca83e2a603eU, 0x3efa8876baf7fd67U, 0x3d4ce95e3d966bdeU,
  0xbd8d14bd3da99dc6U, 0x3c255cd43caa11c4U, 0x3e1344fe3cddbcf0U, 0x3be61d5e3d1e8312U,
  0x3eb4dc4fbee5202dU, 0xbf26ff073fb3661bU, 0x3f7be407be1d3d84U, 0xc00448a83e30803cU,
  0x3eaf2058be7baea5U, 0x3ff44b97c0661fc7U, 0x3f09cb6a4033a577U, 0xbfa758d03fc74931U,
  0x3fe7d98a3fe54c61U, 0x3f5366aabec79af2U, 0x400ac1074033d164U, 0xbe588fd03f9075ccU,
  0x40172cae3f855566U, 0x3fb95726be3f9a40U, 0x3edbe65a3f28a781U, 0xbe34c2ae3ea40ce5U,
  0xbf84d8183ea93da2U, 0xbefa40823d1b4daaU, 0xbf3c38ca3fc13715U, 0xbf2886713c81b693U,
  0xbf0f668a3eeb9814U, 0x3f6c9a92bef3ba6cU, 0xbe412f5bbf43350fU, 0xbf0da6773fa7355eU,
  0x3e950179bde2a3e1U, 0xbee9549ebde324deU, 0x3c95f4c53e1b15c0U, 0xbedd2727bf51465fU,
  0xbe2311e53e1bd802U, 0xbe70e3af3e7ae59bU, 0xbe067c303de98b4eU, 0x3f1eae1b3e9c7217U,
  0xbdbde19fb91d69b0U, 0x3d08afd93f2d34c7U, 0x3eab148cbda4ec10U, 0xbc503ae6becdc28bU,
  0xbe9c4eaa3fef2fbcU, 0xbfebbe8bbebcc6e9U, 0xbe0803993f4e74aeU, 0xbf04b7d93fbfd0ccU,
  0xbfcaad2f3d7ba884U, 0x3da906363f0b6a1bU, 0x3d8911713e211be8U, 0xbe25a948beb0b894U,
  0xbf0d9ad13e3a6e3bU, 0x3d566fc4be982989U, 0xbf894c43bf18c4a6U, 0xbeedba583edc61cdU,
  0xbe09015abe27e4ceU, 0x3f1f0a873de0f49bU, 0x3bdbba6c3f31c03aU, 0xbe74d5c33f23409fU,
  0x3f9d2e7f3d927e11U, 0xbc37c2c63ec8d895U, 0x3e3c025d3f17d346U, 0xbfa5e67bbf3f328bU,
  0xbea77179bf030e20U, 0x3dc4e6c23e4e1105U, 0x3e7c05acbe2451e0U, 0x3e24bc433e8725a7U,
  0x3e4614633e7a0423U, 0x3c789bca3df2ef28U, 0x3e2b5c16bde23855U, 0x3e8b4d023ed5fe2bU,
  0x3db7fcd5bd5f8d6eU, 0xbdf466ec3e269003U, 0x3f6a97293f1af40dU, 0x3b8ba790bf55c4f4U,
  0x3eb2d1173f288480U, 0xbf0eec5bbf66c355U, 0xbebe01c6be61ad77U, 0xbd0b733dbe63aedbU,
  0x3f37df643e55d5eaU, 0x3f4ca470be8e37c5U, 0xbdd881e03ed2f891U, 0xbe04a34c3d430ed3U,
  0xbf1ad34abe9b1a74U, 0xbab089a6be7a5017U, 0x3cec72193d548d3bU, 0xbdd7990cbd22f28cU,
  0x3de0297fbec1440fU, 0xbeda5c71be7a64aaU, 0xbf1a2f7dbe9df6bfU, 0x3d0811cdbdd8e0bfU,
  0x3e8e3ed4bf625f34U, 0x3f6c69a73d9d8772U, 0xbe4a4015bf263fb2U, 0x3e3ff0423d8e7f56U,
  0xbf45ba78bed9fab6U, 0x3e92436cbeccf0ceU, 0xbe6c959e3e855a71U, 0x3f5bc4803ebf7692U,
  0x3dc04359bdc036ccU, 0xbf0adf883f65ad18U, 0x3fb1ab973e843b7eU, 0xbe83cff6bfb7ccfaU,
  0xbf9331f83ea4588dU, 0xbe9986e4bde33e9fU, 0x3cb45bc9bdbbefdbU, 0xbeccd03ebf2953abU,
  0xbde07d773dc6829eU, 0xbf397713bb483f9fU, 0x3f33d9f93e929676U, 0x3f07823ebfb6a729U,
  0xbf8262863f9ab433U, 0x3ebbb9933e8fd3b2U, 0xbf453491bf3d9134U, 0x3f017d0c3f45bcffU,
  0xbf295c42bf8c1772U, 0x3ec682173f1143dcU, 0xbe40a73fbf80313eU, 0xbe83703ebec77d4dU,
  0x3f54a26ebdcf8f42U, 0xbdbb743e3ef85a45U, 0x3f1fad733f17e195U, 0x3ff922f43f52f630U,
  0x3c57b781be939c85U, 0xbdefb6593faec29bU, 0xc02175febf90d2aaU, 0xbf096ac6be78ed36U,
  0x3e8525f0bd6007c9U, 0x3f1e68d3bdaa8d4cU, 0x3d833de63f65279bU, 0x3cfb9b48bd93d1b8U,
  0x3ebb9a123fa985f6U, 0x3fd009adbfa90555U, 0xbfd82cfc3ef11326U, 0xbed6185f3dac1340U,
  0xbf856897bf76f6caU, 0x3f1a1ba63e5d3394U, 0xbf0759e3bf865760U, 0x3db6401c3fb2d9f8U,
  0x3f47edafbfa668d1U, 0xbf95a871be58c55aU, 0x3ee7652abe0326acU, 0xbe23b1c83fa5c9bdU,
  0xbc2f07abbef96da9U, 0x3e64531ebe5eaaf8U, 0x3ebc249b4003198dU, 0x3f476f413f68c4d7U,
  0x3f8b65f3bfb78953U, 0xbfe24772bfde9dceU, 0x3fe890a43f49ceedU, 0xbfb3bfa63efa5727U,
  0x3d915766beea1192U, 0xbd1d820bbf567b92U, 0xbe27079abf094288U, 0x3ef605a23da07a8eU,
  0xbf6fda37bf5cfecfU, 0xbe33855e3eb01effU, 0xbecc96adbf39543eU, 0xbdb68930bf1d64caU,
  0x3edaf994bf22d442U, 0x3cf089d83fe31c81U, 0x3f0e3d89bd47df32U, 0xbe0bd591bde39e81U,
  0xbf11b5423f3f7381U, 0x403a0c3dbea76dcaU, 0x3f2fbd6cc00e04ceU, 0x3ff1ecbac06da1c5U,
  0x3d5b86943e1979efU, 0xbedc67173fa7660eU, 0xbdae9758bb5952c0U, 0xbf31e6b63f3fd7c2U,
  0xbe1e4afabc8b8308U, 0xbe1cb1f4bf1f1426U, 0x3fb7c74cbe9c5ad0U, 0x3d5ed7f43f662b15U,
  0x3e7af1ecbea82854U, 0xbda3adc03fc378cdU, 0xbeeee6723fa0bdbdU, 0xbe670fc2bda8fc9cU,
  0x3e95e4683e632a6cU, 0xbefcc362bd9cd110U, 0x3fdb922b3e1f1a5eU, 0x3f3464eebf391e34U,
  0x3e0a40c1be2c78eaU, 0x3eb7a2f63e8d2f90U, 0x3e2a65ef3c61156fU, 0xbe18a929bf0135b8U,
  0xbed4dcf03b011bb0U, 0x3e448417bcbae62cU, 0x3e82311c3ede6b99U, 0x3e5d9c54bef0664eU,
  0xbef2a62b3e4ed359U, 0xbe84de343e1239a0U, 0xbe00fe04bdf260ceU, 0x3de31f473ea5170eU,
  0xbf29b619bed863b1U, 0x3d2fc96e3d8dbb87U, 0x3e0e80ab3f1f45f6U, 0xbeaddc54beabf0daU,
  0xbd5c0d8c3e01107dU, 0xbd6b312b3e4e8e2eU, 0x3db5f06e3e13f41cU, 0xbdfa78b1bea12ee4U,
  0xbdc63ad5be92a7f4U, 0x3e24174cbe9e2984U, 0xbd78b5acbd6a5879U, 0xbdb8f551be4557c1U,
  0xbe5a102c3de73cacU, 0x3c7bb977becd419cU, 0x3ec928483e47db13U, 0x3dffbf7c3e85ef99U,
  0x3edf5c313e6259c7U, 0xbe6370333f0dc404U, 0xbf1d89773ec3ad70U, 0xbda471b2bd10d851U,
  0xbc0420b5bd33658aU, 0x3d29d53f3d71f424U, 0x3d91ba20bc1bbbd6U, 0x3d44e930be245038U,
  0x3d8ce3e0bd0a20c4U, 0xbdc918a4bd741425U, 0x3e412e77be32357dU, 0x3e3c5a45bb73a5b7U,
  0xbafb94323e4ff9b5U, 0xbd9840083c2dcbe4U, 0x3ebbfb2cbe1240eeU, 0xbc38c45c3de4cc13U,
  0xbdad5e0fbe3205f8U, 0x3e7f28913d425caeU, 0xbe3e5502bda482a8U, 0x3d6f332b3d06c7dcU,
  0xbeac6546bd888218U, 0xbe3fc7133efc2d98U, 0xbcb93b213dff70c0U, 0xbd21ad29be704828U,
  0xbf13ad9a3df26d21U, 0x3e6c7764bd34bfd1U, 0xbefab81abd0971ddU, 0x3ee71c3ebe35f895U,
  0x3dc9187ebe915bd9U, 0x3e4b101ebf1c7173U, 0x3ec0d4ee3f0e6dbdU, 0xbe6e94d03eb42b3fU,
  0x3d9c68f93b68f962U, 0xbea767103daa254fU, 0x3f9cd13dbf423854U, 0xbe4ce0c13ec6be8aU,
  0x3dda3978be377193U, 0xbece324ebd4f79edU, 0xbd996027bd73a274U, 0xbe3714ca3d6c4385U,
  0x3eb397cabe9e87daU, 0x3d94c2a63d9ed794U, 0xbd9f6a4bbd23034aU, 0x3dd462c4bdd5f925U,
  0x3f63ffbdbe2ad6e9U, 0x3e2d1e49be14456eU, 0x3e7aa9243dff7e89U, 0xbe4fa81abe3a87daU,
  0x3ebd3ea83e5d2a47U, 0xbb94f71ebedccc15U, 0x3ee057d63c4054c1U, 0xbb027a943e57a757U,
  0xbd7b60283de734a9U, 0xbddc21ffbe59c310U, 0x3e03a4c43d970fc7U, 0x3ca2cc37bb76134cU,
  0x3d5187b93b0b9839U, 0x3dc9dab4bda3c9aaU, 0x3c603dba3de33ab8U, 0x3dac3d43bdc0f071U,
  0x3e30ae413e332d7fU, 0x3d824befbe3e19c9U, 0x3dc39c823d73d39dU, 0xbd9139e33e350e7fU,
  0xbcfd773e3d92d44bU, 0x3e0847c7bbb578d4U, 0xbdb4bef83d11f08fU, 0x3d8f02343db0c92bU,
  0x3d9fb0983dbce1baU, 0xbdfa2829bd8c1091U, 0xbe0e0d923db7e83dU, 0x3e9433983e89ecd8U,
  0xbd880e1e3e3c9d8eU, 0xbdd3e8b7bee73725U, 0x3e609b38be05d836U, 0xbd60e974bda2f3bcU,
  0x3e1f03a13e1788c0U, 0x3dc5f77b3db5a1f4U, 0xbe56f3d73d2366e6U, 0xbe036d2cbde2bf9bU,
  0x3c116b27becb9046U, 0x3f3612503d04ed73U, 0x3cfe7e53bd6f295cU, 0x3e8de632bd3be47cU,
  0x3e8831e33e3b6d8cU, 0x3da354203c982e56U, 0x3ea118a63e078befU, 0x3ee8bc333d9010a7U,
  0x3d72e5c43dd0bcf2U, 0x3f010e1d3e2379ecU, 0x3e0a2278be128738U, 0x3e05fd6fbe315789U,
  0x3e30767dbeaadc49U, 0x3dd9ddc0beae974fU, 0xbcdd15183efa17e9U, 0x3997c9cfbd507f71U,
  0xbc8168753e2d0941U, 0x3f1490933eebc90cU, 0x3e749d803e8c8fb1U, 0x3e1b29adbdf14987U,
  0x3da1369a3d8fe5e1U, 0xbdacbc4fbd3b9b50U, 0x3d202111be2e258eU, 0xbe19197a3e2df621U,
  0x3d8fcc22bd7087efU, 0xba1e9b193e4672a8U, 0x3e3bb2d2bb302c5cU, 0xbe435df1bde827a9U,
  0x3d2f3fbabe98d2b8U, 0xbd6d0bed3e814872U, 0x3e9ce3dc3e22e86cU, 0x3eaa5ee7bd8d0580U,
  0x3df816493e2e8db3U, 0x3e1001fcbd02e5b7U, 0x3e177032bc533fdfU, 0x3f32111bbdc470efU,
  0x3d58ec973da5147dU, 0x3d7334d13d10d5dcU, 0x3d5a13683df2f7dfU, 0xbcd98595bd5bfc42U,
  0x3c96e3acbbc128a5U, 0x3d51bc3a3d0c04fcU, 0xbe125f91bd247fbeU, 0x3c69fbb4bdae3d5aU,
  0x3b7ca6483d175861U, 0xbba43f8cbe286263U, 0xbdd079923d509553U, 0x3cd24fd13cec06f3U,
  0x3bd21be63db77c08U, 0x3d7fc58a3d2e19c7U, 0xbdd732ec3dd9001cU, 0x3b7654d2bcf99c8aU,
  0x39c93fd1bd36f683U, 0xbd156f2b3e5a774bU, 0xbdb69d4dbbbcd876U, 0xbe18e24b3ddea8fdU,
  0x3dbc5004be04c5f0U, 0x3e1cf95b3e83cd3aU, 0x3ab254f7bcb9818bU, 0xbd329197be2c3a96U,
  0xbd36308abc410aefU, 0x3dd5aa033e0d8798U, 0x3be3d73dbca34dd8U, 0x3e3912db3df688d1U,
  0x3e2990f43e00dad0U, 0x3e1bd801bde4458cU, 0xbe2c93eebe208830U, 0x3cabab2e3d9cbfa7U,
  0xbbb4178f3cecb5b5U, 0xbe89b6923e3c1a83U, 0x3d1f71febc3bbbd6U, 0xbd43297cbd3d1c8bU,
  0xbe2ddac5be89a991U, 0xbe33e02b3d3d4b54U, 0xbe2d8b893c3ce8d9U, 0x3c254c42bd2336dcU,
  0x3da78be5beae8179U, 0x3e193badbe3668eeU, 0x3e335b96be2fa413U, 0xbd0117fabe8e6fd4U,
  0x3d85b086bed45060U, 0x3e2df7cb3e1f3f7bU, 0xbdad7fa3be2e7321U, 0x3e299399bda54380U,
  0x3e98cdb1bdb305feU, 0x3e6ce70bbe742403U, 0xbdaf972cbdaec86dU, 0x3e0dfd82be2b10ebU,
  0x3dfaba083e7ae2b4U, 0xbda307b03eaf9de2U, 0x3e6a64aabe817602U, 0x3dce3d4dbe997736U,
  0x3e76c4833e92a7f9U, 0x3e3cbbe5be89046dU, 0xbc31a1ce3e3f465eU, 0xbd800b33be9b99c1U,
  0x3cd2a5d73e81a480U, 0x3d9117b3bdf9435cU, 0x3e901e63be16bdebU, 0xbde75ac33d654537U,
  0xbf2b0ead3cb752c1U, 0x3e736a0abee48ba4U, 0x3df0bb123bc653eaU, 0xbdb7ed8d3d8993c8U,
  0x3ead79bfbe4a9326U, 0x3ce7f1f0bdf8edbcU, 0xbe110080bb7471f3U, 0xbb888c053c32262eU,
  0xbc11ce84bede8e73U, 0x3dbe61a9becdcc16U, 0xbeddfe2ebde980a6U, 0xbe293171bdca3c3aU,
  0xbe0c4d3ebe3b3f05U, 0xbe3eccafbe0949feU, 0xbe5685a5bdf6ac40U, 0x3d72eee83ebf3ac4U,
  0x3e004afa3df6178eU, 0xbeac0c5ebf4d8bf8U, 0x3d3172f93d64f6dbU, 0xbe0932a13e2fce78U,
  0x3cc1888f3d5cde66U, 0xbdf40a76bed6c54cU, 0xbd931aa83f1221e3U, 0x3e0f3081be9280a1U,
  0x3e920fc7bdb7b85cU, 0x3d53e356bf0afe9aU, 0x3eb4ad63be6319a2U, 0xbf11487a3edc8f16U,
  0x3ea306bfbd62c199U, 0x3dea175a3e8551d1U, 0xbd89c699bd96705dU, 0x3e0d2a063e090523U,
  0xbb5b41b23df4e5deU, 0xbd361d6f3a2c563dU, 0x3e25795c3e9a284eU, 0xbc3e8aaebdd92a47U,
  0xbdbaadd73d63d20eU, 0xbd8323dc3d225fcfU, 0xbc490060bd370153U, 0x3de4cf8dbccaaf69U,
  0x3d012e553b0a912eU, 0x3baa7def3d3f9e51U, 0xbca8e7c53b273928U, 0xbd7bffc83cba06baU,
  0x3da4fa7c3d718b4cU, 0xbb39f8b1bdcbb783U, 0xbda8eec2bd38f78cU, 0x3e611d973e6e2890U,
  0xbe006f613de7deb5U, 0xbe1ad02bbe48161fU, 0xbd4dd80fbc61a207U, 0x3cc1e7fb3dd31ef1U,
  0x3e1b53eabe37296aU, 0xbc3ba7353c34f10bU, 0x3d85b730be7df873U, 0xbe1b637d3e6e17d3U,
  0xbc110bf4bcff0994U, 0x3ea8a423bcc25589U, 0x3d8d6762bce86c19U, 0x3dacb0543d06c068U,
  0xbd9062133e53cd01U, 0x3eb21d34bd89ceb6U, 0xbd5e7e98bddd7a60U, 0x3f035e41bd28c216U,
  0x3e943b323df9c28bU, 0x3dd873ed3e1417b6U, 0x3e45a5583e0a39b4U, 0xbe3464293de6b49dU,
  0x3ddecaa8be28f576U, 0xbe39f26a3cf95bdaU, 0x3e13531bbe5ffad8U, 0xbd95338bbd829577U,
  0x3e4706ff3ee58915U, 0xbea54cfbbdfc9147U, 0xbea2395ebe19ca1aU, 0x3e8b439fbeb52429U,
  0x3d39ced23e9139d1U, 0xbf121e04be66121eU, 0x3f05b34bbf0a5925U, 0x3e259317be15f261U,
  0xbe6a12ffbd2a2dd8U, 0xbe4bbb543e223745U, 0xbb51f12d3c45227fU, 0x3de2a484bdc4f01eU,
  0x3d1c3230be92b7ffU, 0xbe0acdc1bd1110e9U, 0xbcba36e0be2fd110U, 0x3d320d773e237bcaU,
  0x3e1187f93ec85c72U, 0xbe59625abb182b86U, 0x3e3d5d3e3d82f757U, 0xb933d348bdf22415U,
  0xbe68f5a73eb387e0U, 0xbdbc1f993e314976U, 0x3ca3e00dbc963615U, 0x39a583623cc82a38U,
  0x3d6de3dbbdb25360U, 0xbe9fd51b3d6d4c21U, 0x3ea2c9ee3e3d3fe9U, 0xbeb367243defdb20U,
  0xbc2847d23da23e4bU, 0x3e85dbc0be3fe81dU, 0x3e8b10b2be46cadeU, 0x3f104538be58efcdU,
  0x3d85e4bdbe846072U, 0x3ec6c317be4d5975U, 0x3d91a5d83eeff0b7U, 0x3d8fe3efbc932d31U,
  0xbd9fa106bc8aaf32U, 0xbe4c801ebe2e41d1U, 0x3ce6a5df3e83736aU, 0xbdbd00283eb4ddb5U,
  0xbee84743bddb1292U, 0xbe109de6bdc59817U, 0xbd5aee6bbe378014U, 0xbdae7b7abcb68bc7U,
  0x3eac23ed3ed90189U, 0xbe2133b43e234e73U, 0x3e3288c83ee36998U, 0xbe45f5e6bdb4e9b8U,
  0x3e31f2733eeb045cU, 0x3f1626853d88d4d0U, 0xbdb72e623e423634U, 0x3ebc5a853f7fc46fU,
  0xbee1aee1bed62020U, 0x3eb6c25c3ecd4611U, 0xbd9536b0bda995bcU, 0xbd976e5fbd602a5dU,
  0x3e0745cd3d17a584U, 0xbe1115c1be150127U, 0x3db36f413ce277feU, 0x3b433e053ce778a0U,
  0x3d1dad3c3dbbd82cU, 0xb95876773e5c2168U, 0xbe212950bc82e9daU, 0xbba0a3123b7463ecU,
  0x3dd5ca923bca1060U, 0x3ec8a5c8bdcd6109U, 0x3e32210abded1cc6U, 0xbe172733be0df054U,
  0x3ddd54663d106761U, 0x3db58d16bb23c61bU, 0x3d47cb43bd4ab7e9U, 0x3d8efb85bce05fb9U,
  0xbe44d423bd8d355aU, 0x3dcca6cf3e343e00U, 0xbdfe1aaebc1c6dd5U, 0x3ddeff60be03e9d8U,
  0x3da2b6723e21fc61U, 0xbdaf71eb3e1cefa5U, 0x3d0846d5be5ec2bdU, 0x3d439ca73e056645U,
  0xbde549fabe321b97U, 0x3d8a4cf23e23daa4U, 0x3cf0cd9d3ec2cea1U, 0x3d7640c4bdf8bc90U,
  0xbdf7e51cbd3dc1b0U, 0x3cd31e28bd07fbe3U, 0xbcc54eebbd82c814U, 0xbb4d7dc7bdb468edU,
  0x3ed01dd3be598620U, 0xbe0fc4463d8a62aeU, 0xbec5e431bde961f3U, 0x3d3bb1473e80e314U,
  0x3df714323c49a5adU, 0x3e4b27bc3e172537U, 0xbf365332be2b6b93U, 0xbe16e9a7bc30a4c3U,
  0x3e636f96bd678889U, 0x3e8f74e7be19835cU, 0xbe0344bbbddc7cfcU, 0x3eaf83a4be9021c9U,
  0x3e4e53e33f09fefbU, 0xbd23bc11be3a484fU, 0xbeb7beb7bec0bd12U, 0xbe6c280e3e2f8677U,
  0xbc9e9995bdec29b2U, 0x3c383fadbd9d43c6U, 0xbd80f795bd902de2U, 0xbd0e2393bda70b99U,
  0xbd0870993e1fd9baU, 0x3c3db1d93d07c829U, 0x3defface3e0f5bc9U, 0x3d89427cbe1dbc16U,
  0xbda083b83d0e2efcU, 0x3ea1aa3b3db347dbU, 0xbe4f559cbb3cb049U, 0x3c6955193ea129ccU,
  0x3e4247f13e456a25U, 0x3e3291f7be1c2c9fU, 0xbde588ecbe0b95ffU, 0xbdac6ee43e1bd020U,
  0x3eb32013bce65e7dU, 0xbc3cdebd3d1800c9U, 0xbde09cf1be7b254cU, 0x3ec0a6923c627fe8U,
  0x3c98626f3b820437U, 0xbeda921ebe54afb1U, 0x3e9093e23e8cfe5aU, 0xbe98f0223e87ddb6U,
  0xbd5a757abdab2eaaU, 0x3d83060f3d98d874U, 0x3e87b8e6be87a127U, 0xbd4298a33e092ca7U,
  0x3cc80a5bbc8c624eU, 0x3e2b807abdacf19dU, 0x3e8de882be8f2cceU, 0x3ecf1a66be756ea6U,
  0x3e82b70abd2fd145U, 0xbe0fd5eebc91b41fU, 0xbbec36743e54c65dU, 0x3d9560eabd9d244cU,
  0x3d6231ec3f06b03dU, 0x3ec02cfa3cb38abfU, 0x3e6bb309be9bdeb1U, 0xbe3ba5183e97625fU,
  0x3e3abec83e8fae4bU, 0xbe80bb01be72c4dcU, 0xbdf473e93da16d8dU, 0x3f311d433e0c3a04U,
  0xbc181335bb2b13bdU, 0x3b57e2f23d04ca99U, 0xbdeb1bd6bdb82effU, 0x3d9e76263e56f440U,
  0x3dd21b8c3ebbb679U, 0xbe060561bd2c3eedU, 0x3ed3bc923ef1c560U, 0xbe35ed223e5957c1U,
  0xbed268dabd76d576U, 0x3e129e30b92d1d99U, 0xbdb655f23cca664dU, 0x3ec5499cbdfaf00eU,
  0xbe26b56f3e34b195U, 0x3d1b7ca0bdce238dU, 0xbe39554e3e8bf30bU, 0xbced249e3d24715cU,
  0x3da5972b3e0989bbU, 0xbda3c5a73e0578a7U, 0x3d651c1dbe3ee399U, 0x3e6c511fbe489ff0U,
  0x3e3d6baabb4719e0U, 0x3eb0daa2be9f7406U, 0x3cb02de8bdd7234fU, 0xbeeaea343e8680b7U,
  0xbe7889873d9b1b87U, 0x3ef0421dbd86c827U, 0x3d8ea96cbec59518U, 0x3d8c2fcebdff9ddbU,
  0xbdabfcbd3e5fab25U, 0x3d88eb323cd9f170U, 0x3e811d30bce25422U, 0xbdaeca9e3d1f63e4U,
  0xbcd6bbde3e91cb80U, 0xbe1b56953caf6031U, 0x3e85bf91bcbac0d6U, 0x3cd0b5193e164a10U,
  0x3e1ca05f3cd1cb63U, 0x3e6f96b73da6d974U, 0x3dc10623bcf707d8U, 0xbe98a8143d6a0e61U,
  0x3dd6291abd2a8df9U, 0xbe281009be298c2fU, 0x3edf878b3e038457U, 0x3b7aec79be4aeba2U,
  0xbad298683e782f6dU, 0xbeb971dfbeb8a937U, 0x3e77793fbc6aa2f7U, 0x3ec8e7b3becb30afU,
  0xbe347705be710a2aU, 0xbed90a743e3112f5U, 0xbeb9252a3f0ff152U, 0x3cbca41abdb77232U,
  0x3e214f2b3de9761eU, 0xbb5eda07beec9946U, 0x3e542a72bdd596b1U, 0xbea25dbabe9b6118U,
  0x3dedee17be7d0c65U, 0xbe416358bee9de0eU, 0x3e00d68d3f208de3U, 0x3e83b424bf340089U,
  0x3de784e6bda3e691U, 0xbe8f7595bd8d055eU, 0x3d2cc61abeec8ea8U, 0xbec5fe383db7fbcaU,
  0x3e854a9ebf488693U, 0xbe2cc5ebbbf8967eU, 0xbe2e93f3be3ed3eaU, 0x3be64a163b6d1dc2U,
  0xbebd7470bca5ad87U, 0x3dc9a87ebd8377cbU, 0xbc2e663fbe0639ebU, 0xbe157a69be655569U,
  0xbd96cf503e9935c2U, 0x3cf1743c3e9625a1U, 0x3e7a40bc3e4f8f8aU, 0xbd2f73453e5bd931U,
  0xbdf31618bdd6e5e0U, 0xbebc330cbd84d77dU, 0x3edddf73be52ac11U, 0xbdc8a74c3e2ec6e0U,
  0xbe45e372bd80675bU, 0x3e9ab3863d6708faU, 0xbd845d58bd5798f4U, 0xbde6e3f6bc8cc6b1U,
  0x3ef24f033e156034U, 0xbeb1b2e23ea73c0fU, 0x3ee3c4d7bea33294U, 0xbface200bb83e408U,
  0x3f36d885bfb7edd4U, 0x3f818cf83e316f5eU, 0x3ff488de3e7464d6U, 0x3ea2bb723f24de1fU,
  0xbe519d9d3dc6bacfU, 0xbedaf9d03ef9e1efU, 0x3ec05b3fbef324e6U, 0x3f65043f3ec51fecU,
  0xbf58344f3f0d2447U, 0x3e018829be49090fU, 0x3e7b19303e091abaU, 0x3ec160443fe4d1f3U,
  0x3eb3b7f23dffee18U, 0xbc9e258f3e58122dU, 0x3e8d64903e80a3d8U, 0xbd652834be84527bU,
  0xbd29aac33e7196a8U, 0x3e5b4f5e3e412decU, 0x3e8b0b14be7a7fd0U, 0xbeb0cf053ed18ef0U,
  0x3e5e50b2be6951ffU, 0x3dad1ac93e73d3b7U, 0x3ed23ae4bd483890U, 0x3e7f6c563f04ca0cU,
  0x3f10f1493e40de6eU, 0x3eabbe403ece7e62U, 0xbe0652ec3e754fdeU, 0x3ea2365f3e95cb6aU,
  0x3d35f4f83e26c454U, 0x3e95a9ae3e7fef7bU, 0x3ea2d36b3e322447U, 0x3eaa79703e1af027U,
  0x3e788f413ef45c8cU, 0x3e2c5f873de9234fU, 0x3f18b4d43df46f04U, 0xbf26aaacbe80c968U,
  0xba9e687a3f9955beU, 0x3ed9f684bf7bd04aU, 0xbf34f7b8bdf82891U, 0x3cc37d203eb952e8U,
  0x3f2267b8bed5a5d9U, 0xbf2672583d357c4bU, 0xbd09b50c3ea3af49U, 0x3de724debec8a4dbU,
  0x3dc201db3e597a1cU, 0x3ecaecd93e70378fU, 0x3d9d06e33df3c655U, 0x3cbb08d43e285a8dU,
  0x3f3021ed3f329d10U, 0x3f3d84483db461b1U, 0xbd86ec8b3f20d02cU, 0xbd529cbf3e338e29U,
  0x3f094524be5a2e9fU, 0xbfc1a6e4bf3639aeU, 0x3d48c6993f887131U, 0x3f588c96bf98ad72U,
  0xbe8c617a3f40d554U, 0xbca15899bdb0abcfU, 0xbec90cffbe2e38adU, 0xbeed5b24bf192168U,
  0xbf24ccbabf0fe9feU, 0x3e96bf1abe8ecc32U, 0x3e82736f3ec00688U, 0x3f2d3d473ec36a0cU,
  0x3e3a896e3f029ce4U, 0x3e8b16433ecdcf7eU, 0xbe75c13e3deed283U, 0x3d54dacfbed0f016U,
  0xbec3bdfdbee9ff5eU, 0xbe967818bdee4127U, 0x3e8aa499be89ea4fU, 0x3e0670b23e8fee1bU,
  0x3ed8d08e3e997b47U, 0x3e3863133e52dd57U, 0x3e113f933e767537U, 0x3e97e4383e1002f5U,
  0x3e2eb1693de6a717U, 0x3e66a8183edf4c3dU, 0x3e4766e43daeb32dU, 0xbf15e96b3df47a4cU,
  0xbea10911bf68a8e2U, 0xbfd64e60bf5229a3U, 0xbeb329c6bf4e3152U, 0xbf10d99dbf4cfde7U,
  0x3e3a41663e226966U, 0x3e9635e13e090b91U, 0x3e9375923f00753eU, 0x3ea93a383e3dc83fU,
  0x3e23e1b53e073ec6U, 0x3eb4d3e13e2bb560U, 0x3edb6671be8220edU, 0xbf255eee3f11610cU,
  0x3ee48a173e7ac54bU, 0xbf05e280beb75417U, 0xbec603f2bed1a70aU, 0xbf123e33bf143e75U,
  0xbe1f5cebbe9344f7U, 0x3e15ea77bdea4b8bU, 0x3e6a02783e91d465U, 0x3ed475a03e7403d2U,
  0x3d83035b3e9a2f51U, 0x3e0edde23e241807U, 0xbe43d267bdd1c485U, 0xbe464430be4b0fc6U,
  0xbec8d51ebef4df73U, 0xbe345644be24befbU, 0xbf6f43c5bde7d22bU, 0xbf06a26cbf845f49U,
  0xbd8a04b93e3d4a2aU, 0x3f5c895e3cb5186aU, 0x3ed825d23f29c4b3U, 0x3f2dfcd9bcc9b087U,
  0xbf7566363f6f05e3U, 0x3f1b009d3e5d3e3aU, 0xbf02243bbf2594c0U, 0x3e67440f3d2337a3U,
  0x3dd448bd3e81580bU, 0x3ecbd57f3eae96b5U, 0x3e32eff03e294252U, 0x3dbdea3b3e4b3fa9U,
  0xbf0f75afbeb7d9ffU, 0xbecbf386be87f5abU, 0xbf14cf36bf862b70U, 0xbf1e763dbe664eebU,
  0x3ed68420bf4c6977U, 0x3e22498e3f0fc646U, 0x3f36c4cc3ee540b8U, 0x3dadc8693efa0655U,
  0x3ee90e163ecafb93U, 0xbed707f8be75a75eU, 0xbeb40b1ebe067eddU, 0xbe36b184bf1a282aU,
  0xbe9cec15bdae6e9fU, 0x3e46c901bdadd2a8U, 0x3e6dfcfa3ea12eecU, 0x3f1c4a633ee2f31eU,
  0x3e5392773ea3579cU, 0x3dfc96003ea6d192U, 0x3e7b71283e1bfa71U, 0x3e6aacdc3e299a10U,
  0x3e63970b3e8d81c3U, 0x3e97050e3e9be974U, 0xbe1f58e83e093a29U, 0xbe073dbabe4ccec6U,
  0xbeea67d6bed279f2U, 0xbec73d30bd8dfaaeU, 0x3d4e2e04bec5c837U, 0x3e3d7bda3ee7896aU,
  0x3edbfd62be4cc72dU, 0xbec24ab3bdfec0b8U, 0xbe8396913d60df39U, 0x3eb46ab4be9af338U,
  0xbd20e9ce3eb0affeU, 0x3f15bd443ef66a54U, 0x3dc598a43e3001ccU, 0x3e0828ab3e7e67ccU,
  0xbd891faebe0ed15cU, 0xbf46a6ddbf63f552U, 0x3e87d76e3d0549a0U, 0x3d1d70c8bd83b3e2U,
  0x3e57c1c6bda20f29U, 0xbf91398a400cb992U, 0xbedffdda3fa24276U, 0x4099538e3da2af20U,
  0xbeb4d782bda0e07cU, 0xbed350fa401206b2U, 0x3db7b90b3fba06d8U, 0xbe78fc9bbeaaf090U,
  0xbe8e52244066505aU, 0xbd1511703fcac93bU, 0x3ff2f3d8bf084900U, 0xbe23b40bbd19af38U,
  0x3e9717113e1e2cadU, 0x3e70d8c8bec8ab33U, 0xbccb9f873dee4e51U, 0xbe24c4283d4ad7c3U,
  0x3d701279be3f0ed2U, 0xbdd846f6bddb1d30U, 0x3e51b1ffbcc6a18cU, 0xbbd6c081bdc16f2fU,
  0x3e15a18bbe9ff929U, 0x3da70f9fbcef0dfcU, 0xbb1507fa3e4a1fe5U, 0x3dcdcf943dff0d0aU,
  0x3ce19d7ebe3c602bU, 0x3e3c63683c1b97adU, 0x3eb3b8a4bdfa01bfU, 0xbe66b4a43c1e072aU,
  0xbe31b35e3e1466edU, 0x3d56db8bbe00c9f9U, 0xbdf50a19bec5034eU, 0xbe03a0b1bb8bf706U,
  0xbea621f6bdccec19U, 0xbe52df89bcaed9c4U, 0x3f07a6423be4e2b0U, 0xbc62d99cbd1e59faU,
  0xbe135d0dbd83e050U, 0x3d6872c33e7c1b15U, 0x3d993000bda798a3U, 0xbb7974063e09532eU,
  0xbdc402d1be3bc9e5U, 0x3df335fbbe6eccf6U, 0xbde05b67beda8ad5U, 0xbdf70d6e3d7747baU,
  0xbd84cc4fbe040ec6U, 0xbe264232bd8f0336U, 0xbdec17553d3fa226U, 0x3dfaaddf3ddba1f9U,
  0xbe266c993e1fcb0aU, 0xbe231ab43d76d334U, 0x3d1873d0bde78977U, 0xbe79c68a3e00f00bU,
  0xbd5053573dfc890dU, 0xbd3130843d69da47U, 0xbd31f940be173a17U, 0xbdf7eca3bda13be9U,
  0x3dbf80c0bdaf6bdaU, 0x3d246d30bccc4affU, 0xbe1ca884be24604dU, 0xbda40b49bc9bc018U,
  0xbe2442afbdb6bbfcU, 0xbe95fefa3d302cf6U, 0xbe813bc23ca7b92eU, 0xbeb37aaebce035bcU,
  0xbe3f2dfbbe6567edU, 0x3e9c316ebdcf4029U, 0x3ef79f9cbd947840U, 0xbed3dae43e870333U,
  0x3dbe1f56be395f5fU, 0xbe29ffeabd8349efU, 0xbe252e8bbcd16242U, 0x3e09ba2a3e299235U,
  0xbeb20fcfbc1affc2U, 0xbe42db5ebd2a1298U, 0xbe2e9c22be0992c0U, 0xbef4363dbdb19233U,
  0xbd599ea7bdc75606U, 0x3d6bf9aa3dbe2754U, 0x3d934ca23d60ea30U, 0xbdec39293d7ae6f4U,
  0x3c81f5fc3ee7aacaU, 0x3dc2dc8f3dd37797U, 0xbb7310813e28efbbU, 0xbe42cd04bdfdedbaU,
  0x3db5cf123dcf4ea2U, 0x3e920a573d810d87U, 0xbe0900953e90390dU, 0xbebe158abcff5ce3U,
  0x3eec227bbe50e1c4U, 0x3f144f803e3996f9U, 0x3d457cd3bda3efd8U, 0xbe22a536bd8d88fdU,
  0x3e6beb393e148c99U, 0x3e604feb3daf3dbdU, 0xbc02914fbe798e5aU, 0x3e24102bbe4ae57bU,
  0x3ed7a34ebe6e11a0U, 0xbde869a43dac36bdU, 0xbd4f73bebce293bbU, 0x3e56cb06bdbc9a4cU,
  0x3cef4dd6be58daa0U, 0x3e8149f63cb69bc9U, 0xbc448ef1bd6e9567U, 0xbe6132563daf9a58U,
  0xbe337fe5ba4c2887U, 0x3e94bdbb3c515363U, 0xbdc0f173be1561f0U, 0x3e968e37be33acb8U,
  0xbe79065fbb42e35dU, 0x3d4411de3e1ca15dU, 0xbe0f3be73e992affU, 0xbda6d07d3e28a93eU,
  0xbdd77fa4bd9dc7acU, 0xbdfeb7fabdb78c7bU, 0x3e30d5b63da8b7afU, 0xbebefab73e19cb99U,
  0xbdf5e3febe84584aU, 0x3ec78b343e23b1dcU, 0xbcb774953d9225cdU, 0x3c27dbc83ee3511cU,
  0xbdf97e69becac964U, 0xbef660063c24d949U, 0xbc84cd4cbe990ef9U, 0xbe5696cd3e93def5U,
  0x3cf8ecb23bd13b09U, 0x3dfbc6ec3d9532d5U, 0x3bb3c5323d3efe2cU, 0x3e124e14b9d739caU,
  0x3d1c2a42bd29b4aeU, 0x3ba339433aa34c5eU, 0x3d7bb153bd9478bcU, 0xbdd9a2c3bdaa97d9U,
  0x3bcc4b2dbe047191U, 0x3e738c63bca3c455U, 0x3c909f00bd836945U, 0x3ccb86403cb88f8bU,
  0xbde5cf5f3d294662U, 0x3d818617bd51e239U, 0xbc33bef9bda27482U, 0xbb9462e1bdbe004dU,
  0xbc946156be4d7430U, 0xbc3541153eae1214U, 0x3e6707633d9b0c8bU, 0x3deaf7243dc45cfaU,
  0xbd5d8f773b8012eaU, 0xbe1ac5babe066dfbU, 0xbe242f85bd2f9293U, 0x3d93a1143e764ddbU,
  0xbd4f2f4d3e211028U, 0xbe447a9ebe15f1f7U, 0xbdb5f1b0bddd74f0U, 0xbdd02ed73d1832f9U,
  0x3d028576bd86f646U, 0x3d8f0f1bbe5aa80fU, 0xbd219a86bd9a67e6U, 0xbe9cb1403e877832U,
  0x3ce93464be594c2cU, 0xbdd71ea9be1f74c3U, 0x3e32a6d3be9d83bcU, 0xbddd40a03e83970eU,
  0xbdc87be1bc6b5a8fU, 0xbf1ba6dbbeab5be9U, 0xbcac89b73e4ba2a3U, 0xbd9621db3f3803c1U,
  0xbd7f04213e8a459dU, 0x3d86adf9bdd1ab8bU, 0x3df5005bbe9fc883U, 0xbd6bb3773e8f50ddU,
  0x3c4f899ebf0ac403U, 0x3de04a98bea379e2U, 0x3de5ff84be791422U, 0xbea1fca33e14c8d9U,
  0x3eb49ca93e47857dU, 0x3eed53053db340f2U, 0xbdb9984a3e95dec0U, 0x3db9b5c7bd7b4d69U,
  0x3e1f49373e9afb07U, 0xbd9de098be2903b4U, 0x3d8721b13d0c3218U, 0xbe5202683eac6e52U,
  0x3c583ee4be097701U, 0x3bdf5866bd2486f7U, 0x3e8baaad3e817160U, 0xbe2b475a3ea42225U,
  0x3c4c20f93e054ba0U, 0xbe6318b93d556f32U, 0x3e2a7c5b3df4d919U, 0x3eab9a06bdc4be7dU,
  0xbe6d40a43d836624U, 0xbde86c973dcfa98aU, 0x3e47a15a3ef2b69fU, 0xbd250431bc185663U,
  0x3d84ca523d81e80aU, 0xbe72bb683c120407U, 0xbdcb850ebbf2877aU, 0x3e57ddc03e0724a7U,
  0xbe5acaa73db5a825U, 0x3e703114bc8898a5U, 0xbbd1af67bd012ab9U, 0xbe97013b3dcb48bcU,
  0xbdcf8fa8bd5d693bU, 0xbe11f16bbe6ef490U, 0xbeb18f08be3eecdbU, 0xbecab2dabd7a6e6bU,
  0xbde28485be7a46c1U, 0x3cb9c9a1bdfd97c1U, 0x3d891c13bddd57ccU, 0xbe9f3318be5a0edeU,
  0x3e71f9c2bd348fc8U, 0xbcaf01653d684804U, 0xbea5a695bdedcd22U, 0xbf18767b3f411c2bU,
  0xbee651103da28b5fU, 0xbde2b0b5bf23683eU, 0x3e058d1fbe213c40U, 0xbd008ae33ec1274aU,
  0x3bceb2eabdff3570U, 0x3d72aa103e1b76fcU, 0xbe721417bf00dab7U, 0xbe87d5f43eceaac4U,
  0xbd078213bd94d9ceU, 0xbd9e69e13d02fbedU, 0xbe3845e0bc8d5121U, 0xbbeddcc83d692809U,
  0xbd51f6343e2c7d85U, 0x3c88f97cbd18ec0cU, 0xbdb39be8bde5ef77U, 0xbdbab4ac3e919dc4U,
  0xbc9e67353dd85895U, 0x3dadf314bdbdab93U, 0x3cb2bb863c5a7b9aU, 0xbe045a0a3dd117d4U,
  0x3d789455bc5fac94U, 0x3d69b72c3da5d3b5U, 0xbd85ac193c10ed03U, 0x3bf9fda5be01732cU,
  0xbe31ba4b3e073b08U, 0x3e0434263d818185U, 0x3dfd2c49bd73c63dU, 0xbeddb3eb3d02844eU,
  0x3d55513c3e78dd79U, 0x3c1272793e1b3792U, 0xbc0327293daefe19U, 0xbe13fcbe3d264b70U,
  0xbdc86b093ea56093U, 0x3d0698103e38d87eU, 0x3dd7fdbd3e080be4U, 0xbe885d193de9062bU,
  0x3ec207d03d8086a1U, 0xbf14f8d13e178c75U, 0x3e0e428e3eb15af9U, 0x3e03d984bd18f892U,
  0x3d2fd0d4be24051cU, 0x3e0677b23d0edb39U, 0x3dcee539bdab5b6eU, 0x3edbe5643e83ec76U,
  0xbed11355be9720ddU, 0x3e8e05b03d8f7eadU, 0x3da97656be68ed2cU, 0x3f18b2ba3e1508e6U,
  0xbda99c423ed7072aU, 0x3dfa87b53dddd161U, 0x3d4aa728bea2238eU, 0xbe809df63e9111e1U,
  0x3e51d2b3bf02642eU, 0xbea2c5c5bdd4b60eU, 0x3e4b84b1befae947U, 0xbe51875dbb74a0c8U,
  0x3c8baf5dbd49fc7aU, 0x3d950f5a3d939ccdU, 0xbd0b933abe07a73aU, 0x3dd60b513c764976U,
  0xbd2b98faba733d87U, 0xbdacf68b3e4218ddU, 0x3df4e538bdefcbd9U, 0xbde19b013d908078U,
  0xbdd91c31bcd237ddU, 0xbd237fa23d8b8f51U, 0xbaf5d941bda1cb76U, 0xbd5b3d293d3d4efeU,
  0xbcb7041e3dc7ad10U, 0xbd0fb703bca56b72U, 0xbdf0fdf73db77ab9U, 0x3e998129bdb67e8cU,
  0x3dd78c4d3ce9814bU, 0xbe001ecebed0384cU, 0x3e89a9f63f7e0c13U, 0xbddac4a5bd218c06U,
  0x3f3858773e40daf3U, 0xbe9f63cabe4d6ceeU, 0x3edab80ebdcc6504U, 0x3d0f8c26bcaba2fcU,
  0x3f270bcf3e510089U, 0x3ca2b6df3e8b6c20U, 0xbde9445e3d5c51eeU, 0xbf694f88bdbe75dcU,
  0x3dc212233e929907U, 0xbed5f3953e6c21bcU, 0x3d12ec9c3d3f7e76U, 0xbeb30e5cbefddb06U,
  0x3c5ee811bdf239c3U, 0xbd7da79cbe493419U, 0x3dd4107c3de45f33U, 0xbe734353bcca9a85U,
  0x3b5614bf3deb5793U, 0x3e4f95ffbe82f350U, 0xbe0ca3bb3d33a46bU, 0x3db95084bd283fd4U,
  0x3d560a483e542fdfU, 0x3d866cadbd8b83b4U, 0xbd5f499c3ca5b3e4U, 0x3d1e4cc23dfbcf50U,
  0xbd860287be50307dU, 0x3db34e333dd104d1U, 0x3e432088be574000U, 0xbcf5d56d3d9f6097U,
  0x3d211925bf052233U, 0x3e688bb8be97ad10U, 0xbe22e270bccc63f6U, 0x3e16880ebdbb1078U,
  0x3e0e0e99bd65aa48U, 0x3f612f57bea7b03eU, 0xbe5b9bc93aabef8dU, 0x3d672af0bda556f4U,
  0x3e334b6abe4455bcU, 0xbdbb8513bd888505U, 0xbe531eec3ecd6a14U, 0x3d90cb8d3e2b23bdU,
  0xbe54f7b33e8fc4b9U, 0xbeab1e2a3e5d96d6U, 0x3dfbea4cbdff03f9U, 0xbe3c4c98bec84cc6U,
  0xbe0cb84c3d8c8756U, 0x3e668a293d64b675U, 0x3da381c3bc90657eU, 0xbeabdbffbde466baU,
  0x3d27a428bb911df0U, 0xbef156af3df7ca8eU, 0xbe83a6813eb88f79U, 0x3dc4492e3ef61825U,
  0xbd83ad03bddc74efU, 0x3dd91c2a3e1066a3U, 0xbeb82bb03e1f9b87U, 0xbd25ddf3bd9871c7U,
  0x3dbc3500be502cbaU, 0xbd199a46bdb9d14dU, 0x3d06214fbcc161eeU, 0xbe34c54f3e199e43U,
  0x3e3bfbe2be23bb98U, 0x3e8c8e9c3d9a1d3aU, 0xbd8d19d5bd11b174U, 0x3dc524823d943a82U,
  0x3dd829213cbcf0a3U, 0xbea4e5f63ee71240U, 0x3e65f605bebadc4dU, 0x3d9e21173e46d59eU,
  0xbc2828073da3dedaU, 0x3dcbbe7f3ddf9923U, 0x3c13754e3dbfe2feU, 0xbd737c39bd309585U,
  0xbc4791633e11c9c0U, 0x3cca90ac3aa690b5U, 0xbd3f96203f162e45U, 0xbe36f73fbe71a45aU,
  0x3de2461a3c5f58b8U, 0x3dccd773bd5bc519U, 0xbd2fe1293cc84db0U, 0xbdcdd9a6bdba3ea2U,
  0xbea362c2bd70d2b6U, 0x3df848d83e508d7bU, 0xbe9b8faf3d83a60bU, 0xbee01d703f4635beU,
  0xbdaa54823d4f4f5dU, 0xbda6477dbd1768f1U, 0x3dd64e5bbd8aa7d2U, 0xbe1f057a3ea02e86U,
  0x3e355296be37c9bbU, 0x3ee7afe43dddaad1U, 0x3c862458befd2abbU, 0xbe8470113e155c78U,
  0xbd81c8823d35c7daU, 0xbe2e9bf2bd4aebf2U, 0xbea3a9c53e541a95U, 0xbd892ac3bd9edc82U,
  0x3ca56f01be3bcbd2U, 0x3b59b9bdbc18a7fdU, 0x3e862454bd32b1b6U, 0x3e5f7c33be90106cU,
  0xbdceab3fbe4de902U, 0x3ccf289a3e090c9fU, 0x3cec3bc63d989863U, 0x3e357569be877606U,
  0xbe6a08af3cc7e31bU, 0xbee2641c3e5708e4U, 0x3e01fc843cdf1fa3U, 0x3e234bed3d05cd91U,
  0xbd45389b3e288795U, 0x3de6c03ebd9cb3bbU, 0xbe3841c9be7efbc3U, 0xbc4308e3bc40f7ceU,
  0xbdff191f3ce18c8eU, 0xbe0089373d70a7e7U, 0xbcc52e0abcd9fa50U, 0x3da5649dbe1d5d14U,
  0x3de0c851be6356abU, 0x3d26268a3d703e4eU, 0x3df080343d8a1958U, 0xbe35b6ddbda136dfU,
  0x3c988fea3dd85623U, 0xbd2cd1923d07311eU, 0xbb14f02dbd89fa2bU, 0x3e0c8ff83d978626U,
  0x3da7fe23bcd77ac1U, 0x3ce6498d3e350970U, 0x3bf061133ef3f008U, 0x3f1844f03e0f7937U,
  0xbed66d88bd55e29cU, 0xbef978fa3e21a4f0U, 0x3dccd65ebd386512U, 0xbe2d81b5bc5bdee1U,
  0x3ebaf541be8ef876U, 0x3d3cda773da76c37U, 0x3e2ac7a0be25e19eU, 0xbed00f553d0b754dU,
  0xbe2c32103dc7ad00U, 0xbe64a70c3d3aa897U, 0x3d923afa3df0debcU, 0x3e04b5123da0674cU,
  0xbd6dbc523e5aa8baU, 0xbdb2f6453dbe0b58U, 0x3e720d393df9892cU, 0x3d49f9febd45de52U,
  0x3b073bf33eaca1f7U, 0xbcd092bfbe2ab340U, 0xbd45a5233ea10421U, 0x3ea1c079be9226faU,
  0x3dd6cae53dd8ceb6U, 0xbe13de433e38f122U, 0xbdac57ad3da72610U, 0x3e528216bda2991aU,
  0x3e800a9abd83ae63U, 0xbedd8e6e3e23074fU, 0xbc88923f3e2b975aU, 0xbd366e363e2f32a7U,
  0x3e6c3c423e7957f3U, 0x3ea9af503f061631U, 0xbdc57924beaf56f4U, 0xbe13d4ea3df33b58U,
  0x3e2677823f1a6aabU, 0x3e3fb67dbd63b200U, 0xbf000f24bdc411d2U, 0x3e9a4417be0b7aaeU,
  0xbebebd683f05715bU, 0xbeb4566d3e86df30U, 0x3e8a78813e1b1614U, 0x3e7f75ebbeafa43eU,
  0x3e61f8083e1454eeU, 0xbe2fd1653cf87fe4U, 0x3ef5bc8abed4ff4bU, 0xbdd8c6593d05ee2bU,
  0x3ebb223d3ec53c1bU, 0x3e5f4dd5be13d86eU, 0xbdefa0a0be1927f7U, 0xbe6e7fbdbd9c7023U,
  0x3d06ff193da98b6cU, 0xbee35a473ea67f3fU, 0xbedb8caebe8ecd6bU, 0xbde9c6c63eda3360U,
  0x3e80b78ebec77d3eU, 0x3df9f1df3da1f92dU, 0x3ea229bdbdef9bdaU, 0xbf03c5c23eff0848U,
  0xbe4214c73d4d82f1U, 0x3e4d1d8bbe251265U, 0xbe4201f33eeb788cU, 0x3e9a97d2be7b10dfU,
  0x3dc02c4abe0176b6U, 0xbcfa8ec23e1b2081U, 0xbe756aa9bdf92923U, 0xbcbea77bbe177daeU,
  0xbdf624b4bd66cf07U, 0xbd7c2cb63cba0ff2U, 0x3b9f5676bdfefb7dU, 0xbe7cf80d3f3417bfU,
  0xbe02b62abe768896U, 0xbe9f8d3d3e3f3feeU, 0xbe2ccb7cbe2bd09eU, 0xbc47dab53db5d791U,
  0x3d2efa9a3b96b7f5U, 0x3e4f8690bda66012U, 0x3d0ca563bd04da2dU, 0xbe07c6923e09a4d6U,
  0xbcc89df8bda3f439U, 0x3d803840be0b8f6dU, 0xbc4bae083e874f0dU, 0xbe4fe5e33d9573ecU,
  0xbd3aa8ed3e2f604cU, 0xbe21a2d3bc99ab24U, 0x3dfdb7ca3d3df5d8U, 0xbdf97e9d3e250aebU,
  0xbd9e2a1f3dbe023eU, 0x3b5a13e2bd954093U, 0xbdcee9dc3e0fc23aU, 0xbde481a1be0c0351U,
  0x3d865beb3d765a97U, 0xbe5141773e1bf040U, 0x3dbcb3e4bd896a83U, 0x3da3341e3c06a864U,
  0xbd1b12463e6f94b7U, 0xbdb8a0353dddec36U, 0x3e3315babe5b9435U, 0xbdaa0035bcb19d14U,
  0x3d562a2c3c9d9fc8U, 0x3a2c01e0bd63362eU, 0xbd03725d3e072c27U, 0x3e491f92bdfbea41U,
  0x3d36a0cebd1990f0U, 0xbd8525b23d7df49eU, 0x3de45428be1c53d8U, 0xbd4eb7f63ca9b298U,
  0x3d2cdddcbd5a2d1dU, 0x3c8c0eb6be4273acU, 0xbe4beb1dbd5049cdU, 0x3de4f9723c22498dU,
  0xbee879aebe2ef4d1U, 0xbebc5927bd797b6dU, 0xbda38014bdf8035cU, 0xbf1aa1453c8d6a4aU,
  0xbef6b91d3ea5b803U, 0xbebd32ebbc0eee98U, 0x3e7a15f53e1e9594U, 0xbec1752dbdddfaa5U,
  0xbd7a783d3e9c9012U, 0xbe784aa63e7c4a56U, 0x3eaf0bc43e467044U, 0x3cd203d9bee0e7d1U,
  0x3ee0394bbdc81246U, 0xbd31761dbe906b56U, 0x3df30af4bdcd02a3U, 0x3e1080963d6bad9dU,
  0xbde774323e3df646U, 0x3dfb4a4cbcf9fea5U, 0xbd872eb5bdc01b4bU, 0xbe11f6cd3d5e767cU,
  0xbde601b33d1d039aU, 0xbdedc9c53cd2edabU, 0xbd89a7053daf14d6U, 0xbd95ffe13dc0e73eU,
  0x3c6d9f20bda4fd63U, 0xbdfa0ff03e278f63U, 0x3d33255cbe2abb88U, 0xbda5005dbd50e56dU,
  0x3d66060ebea1bc59U, 0x3da678a13dcd8aabU, 0x3e05f1443e093e20U, 0x3e0f80333dfdb0afU,
  0xbada850c3bea5b91U, 0x3e3e87d73da58ddeU, 0xbce32521bd22a969U, 0xbe257afabda266c6U,
  0xbda5f413be8757ddU, 0xbe0e25e939ba41b2U, 0xbe1d09bebd64ff01U, 0x3e7d9b2a3dcf2cd5U,
  0x3ca3d3a3bde58977U, 0x3d1c9e593d25fa07U, 0xbdb8533b3e124c01U, 0xbe26a714bdcf96afU,
  0x3caba803bde8e71eU, 0xbe123684bd370f45U, 0x3e173d6cbe23bdd4U, 0xbd2055563d6256b1U,
  0x3d5401b1bcffb9c9U, 0xbdf9df7f3cec8f50U, 0x3d93ffdc3cb1a65bU, 0x3e17a43b3d85cc81U,
  0x3dcfc83c3c0d04c4U, 0xbd85a3373cfc9196U, 0x3e3bbf35be035f2eU, 0xbd2cc1943dbd819bU,
  0xbcc2a2713e0eb0b4U, 0x3e283ff63b86eb84U, 0xbc88b51cbca38622U, 0x3d340289bd2390d3U,
  0xbdfa968c3ba86653U, 0x3cfdc334bda73e7eU, 0xbd992d813df723e2U, 0xbdaeb7bbbcb30133U,
  0x3da1deeebe503b7fU, 0xbdd5cf223dfe7d6dU, 0x3e0e9b1fbe2d260bU, 0x3e0a25f83dd32633U,
  0x3c85808c3f127f00U, 0x3eb60904bcef88dcU, 0x3d71d5ecbdb5e533U, 0xbec0e89fbcdf7109U,
  0x3d3bcf483f31fa31U, 0x3cf20a61bdfcdb8cU, 0xbe285000bc02d53dU, 0xbcb0ea623d049e2bU,
  0x3efc84cebcecf1dcU, 0xbdf511b13d875cf4U, 0x3e1fc7543e0fc725U, 0x3c793e663dc5fa73U,
  0xbe980ea0be78ccd9U, 0x3c724b43bd35e5ddU, 0xbe59564d3d026c10U, 0xbe318021bd0be354U,
  0x3dddb165bd94eef7U, 0xbc5f99b6be3fb5b6U, 0xbd8d302cbe20e1b6U, 0x3e09b1583f486b93U,
  0xbe1ef378bef2cfb8U, 0xbead10803e963f33U, 0x3d47185cbe8a27eeU, 0x3dead8f33e870b36U,
  0xbdb218d9bf438effU, 0x3d82c63b3e41a417U, 0x3d67cd353cf8e01dU, 0xbe842625bdf054ceU,
  0xbc9645de3d83d5ccU, 0xbe7d5b8b3eef69e7U, 0x3e043a10bec7773fU, 0x3db8a9143cd06932U,
  0x3bc6f6183e124b9bU, 0x3ea7d70bbc89a2a3U, 0xbea62e53bd787ef1U, 0xbee9b2b53c523c53U,
  0xbe31b740bd8d4e1eU, 0x3e71e25cbef39f41U, 0x3f1392333d0a244aU, 0xbe21ef423e3963deU,
  0xbe2920323e4c9f66U, 0xbe149960bdc8efa0U, 0xbe8577debd9a8123U, 0x3f2946e5bc723af6U,
  0x3c24aa5a3d2f4e29U, 0xbd5f16da3d926630U, 0x3dd4f5e4bd3257bdU, 0x3d32d98e3d1dab61U,
  0xbdb525843e56520bU, 0xbd7fa281bb43bc72U, 0x3d44951dbdb9aefdU, 0x3cb175cf3c1215d9U,
  0x3ca21ad33e6fe0f3U, 0xbe2bb4a1bd48a21eU, 0xbd80bb34be15e539U, 0x3cd42233bbed3ff6U,
  0x3e2079823cba1eadU, 0xbcc232c6be033476U, 0x3d3d8e943e52595fU, 0xbdb82bff3e069416U,
  0xbd8e9e9fbd2c73baU, 0xbb69f3a5be800fbeU, 0xbbba27f3bf00afcfU, 0xbeabb984bdbf50f8U,
  0xbdb41304bd985e5fU, 0x3d2f7dbc3e4c4025U, 0x3deafc0d3e1557afU, 0x3e83cdb5bd21f2f6U,
  0x3db1053c3e1548bbU, 0x3decce4a3dbc7954U, 0xbc1caaf3bc1610aeU, 0xbe367a0f3e56a32fU,
  0x3d2504273e130594U, 0x3ecacc0fbd1a02baU, 0x3dd5b81dbd87c7c7U, 0x3dcb630fbdecc94dU,
  0x3e122db43db0a282U, 0x3e477b4b3d9e2196U, 0xbc2ead1dbdf38b60U, 0xbe104160be2004cdU,
  0x3db9207d3d0d9385U, 0x3d8795fbbd95ea5cU, 0xbe59d881bd42f240U, 0xbe258decbeb29092U,
  0xbe6eeea2be54820bU, 0x3f28bf623d22e16bU, 0xbdc9464e3df4ec84U, 0x3e3d6eb23cc7e13fU,
  0xbe7715093e371294U, 0x3c329b573ddaaf40U, 0xbdf922f9bd61f9ecU, 0x3dc04e85be224c46U,
  0x3e017b873a549beeU, 0x3cbd06193e671997U, 0xbe837772be369933U, 0x3c9b54073e208051U,
  0x3c0cbd0a3e0a8584U, 0xbebadb0c3e8bf8ddU, 0xbe84850b3ea5ce52U, 0xbed4fb663c8b04e3U,
  0x3d16375f3e137d3cU, 0x3dba34c1be792f09U, 0x3d533985bbe48cebU, 0xbebe0cc2bde570b2U,
  0xbd988256be44c57dU, 0x3bd6f381be04e43bU, 0x3efba582bde6f3baU, 0xbd1c3193bdbad5ddU,
  0xbe467d92be411821U, 0x3d6610eebd06c417U, 0x3ce728c83e4b32e2U, 0xbe96eb643e23d4e8U,
  0xbd8714e33ee67a3dU, 0x3e8af679be262f3aU, 0x3e5c0e5f3debb8d8U, 0xbe10dcbb3d43252eU,
  0xbd33e298bbc88766U, 0x3f101f27bd1a0e99U, 0x3e0b46f63e960003U, 0x3e9d8cfb3e39eba7U,
  0x3db395473eb2752dU, 0x3ee5e8e9bd038ba8U, 0x3dbc49723dcc0557U, 0xbea8a9923dfae9bfU,
  0xbe3f1574bebdb78eU, 0x3e0b5486be66acbaU, 0x3e6be62ebd6e5ca1U, 0x3ddc8f78bdb9be9eU,
  0x3cf6dec43d176974U, 0xbebf4cc23cade348U, 0xbe375c1bbdf53595U, 0xbe82fe753e3fd972U,
  0x3d0e10fb3e3141d3U, 0x3eb015fabe90caa5U, 0xbd930496be8cc725U, 0xb9e484753e3f287cU,
  0x3cb4a796bc92df45U, 0x3e92256b3e05e479U, 0xbcb3a71a3e2a4540U, 0x3e89773e3e5d8538U,
  0xbda168ab3d654b3eU, 0xbbff65ef3e270620U, 0x3b863b55be6746dfU, 0xbca16f84bca0ebe2U,
  0xbd0f06743d31f352U, 0xbd2ae17c3ccdb892U, 0xbd33e9413cd034c6U, 0x3c644e043d69be57U,
  0x3c305485bc71a504U, 0xbc91e118bb094476U, 0x3e2404fa3d83d6ddU, 0xbe075b8abd5820b4U,
  0x3d3aaa7ebd578d73U, 0xbe7bfb76bd169eebU, 0xbcdd472ebd6ee6b1U, 0x3da6f069bdeff7d3U,
  0xbdbb443d3dd90673U, 0xbd5d919d3ddf430eU, 0x3e4916eebba1eacbU, 0xbd08ed40bc5eb738U,
  0xbe2f10b63d00440fU, 0xbea3ed523cc1e171U, 0x3e9791ba3e908ad8U, 0xbd3831643d790d16U,
  0xbd0183cebc717b9aU, 0x3d1c4b51bee32255U, 0x3d11af8ebe4d09b1U, 0xbd71dc1abce7669aU,
  0xbcdb27d6bdde8316U, 0x3db8daec3d699dd4U, 0xbcbbe511be948050U, 0x3eab41e43e6448d1U,
  0x3dfc0affbdb2b5ccU, 0x3c61d780bbd23a1bU, 0xbd08f2e7be2a5a21U, 0x3e5787473e1a6b4bU,
  0x3df36309bcb4a87eU, 0x3c611fb4bd5b8523U, 0xbe3fdb67bc0b89faU, 0xbcaf592dbd024f3dU,
  0x3da959da3c83447cU, 0xbe47713ebda9515fU, 0x3d1719d33d69242eU, 0x3e9e06163c799cfcU,
  0x3bd89b7a3d8e85b6U, 0x3d3fe4ecbe2c5747U, 0x3e90a6083d009c06U, 0xbdebdd48be24d8a5U,
  0xbe0df4f6bc599b5dU, 0x3f00967f3e55cb15U, 0xbe4082d3be41f16cU, 0xbdf8ed3ebdfa9f65U,
  0xbe45a1b8be1b5e39U, 0x3e95d5eebdcdf32eU, 0x3edfb66a3e0c76faU, 0xbed9d2813de3d832U,
  0xbdb8d2d43e66b8a6U, 0xbdecb7e83e545661U, 0x3dab35ab3eb29e26U, 0xbec43d6a3e54a57cU,
  0xbd32f7c3be5b8292U, 0xbcdbdd3d3e1a6636U, 0x3f12c550be743194U, 0x3e3a92a8bd8976b2U,
  0x3d5e32dc3da74b4cU, 0x3c8212383e600656U, 0x3954d25cbda9f124U, 0x3ce108e33d3c4c29U,
  0x3bb570bcbd3e42f1U, 0xbd5b9c493dc96685U, 0x3e3648ebbd03bce1U, 0xbdc3acc93cbf170dU,
  0xbdb3d18ebda397cbU, 0xbe1a3e0b3bdc63bfU, 0x3d728a24be1e11edU, 0xbcc593fb3c3ea3c9U,
  0xbda9098e3d56aa1eU, 0x3d1e0360bdc76cdeU, 0x3c8bc1623c8e9d24U, 0x3e99b8f23d017c98U,
  0xbe4389a43eca4c76U, 0xbe2f7f52bf1196fbU, 0xbea3bfa13ec5cd8fU, 0xbf2f26b1bcaecdedU,
  0xbe8a320a3c2c9d61U, 0xbd9b75df3f5ad51cU, 0xbf232e933dbbf116U, 0xbe1040463e9c813aU,
  0xbecce5eebe9a18b3U, 0x3d84b929bef0022eU, 0xbf033f63bf128b28U, 0x3e29e9b03e1d0f31U,
  0x3e856378be864670U, 0x3e6ec0933f914459U, 0xbe4a8d0d3e877ec6U, 0xbde4ac393e6c5f10U,
  0xbd62a8313dce48e7U, 0xbc099c32bdf21205U, 0xbd24ed81bcfe3f1aU, 0x3d04776e3c876967U,
  0xbc70dd1c3cfb67dfU, 0x3dbd127ebe8f0c8fU, 0xbe01551b3ceb86f6U, 0x3c26fa673d6ec4c2U,
  0xbd1ee729be2bd7ecU, 0xbca2344d3dc652ddU, 0x3c252bc9bcb547d8U, 0xbc41f82dbdae6f91U,
  0xbcfe117abe3f6b8cU, 0x3da7959f3d32954dU, 0xbbe1ed9bbd23a03dU, 0x3dcca2dbbd1b8193U,
  0xbd59f0173e1f089cU, 0xbe37f3f6be393878U, 0xbca1987c3df514caU, 0xbe1db5643d3e3dccU,
  0x3e0c70d13cedf370U, 0x3e890089be957d1aU, 0xbdaae7633d37d883U, 0xbd1833a73e84dcacU,
  0xbda99c15be18930fU, 0x3bb947d33e8d0cd6U, 0xbb28e4c53e32fbf2U, 0x3d8a4f20bdf26ae1U,
  0xbd52f1cabe986850U, 0x3d27b81c3e3593fcU, 0x3dbd53743dab2ed5U, 0x3de401dc3dbe2f2eU,
  0x3d3065043b4289a1U, 0x3c77c728be1c80c1U, 0xbde143ac3e0f12c1U, 0xbd5a95443e8e277fU,
  0xbdc2d79c3dd04a8cU, 0xbe0d4b74bd0716d4U, 0xbe1c3db2be037763U, 0xbde5d308be1fb4f1U,
  0x3dc24a363d6c775dU, 0xbc4095b83d77fb29U, 0x3be22642bd070d85U, 0xbd938bcebd06f083U,
  0xbdb515b8be95468eU, 0x3d8685a8bdb2ae87U, 0x3ebf9b81be27fffdU, 0xbe04f1ce3e82cadeU,
  0xbdd05a47be44e5baU, 0x3d9200e53e530441U, 0x3df1bbd8be069941U, 0x3df5c1bebcbd02b9U,
  0xbe458d8fbe25c543U, 0xbe9e7147bd359e81U, 0x3de58b8dbe7e5019U, 0xbe1c8bd23e92e849U,
  0xbdd363963eae89fbU, 0x3df4d4333dc62992U, 0xbd91bcbbbe94278eU, 0xbbe6395abd71b22aU,
  0xbd84bfabbd9d208fU, 0xbd937755be411b6eU, 0xbe119cdabe82721fU, 0xbe151873be0751c6U,
  0x3d245273bda898faU, 0xbcd9ffb9bd7dcae7U, 0x3d4079e53e6dc966U, 0x3d292df63db51700U,
  0x3cc717c5bd73b6f0U, 0x3d7b9fe7bd96033aU, 0x3da59c8d3d037536U, 0xbdb773393cfe66f3U,
  0x3d1419493e18288fU, 0xbb8c532b3b390ccaU, 0xbc9d7e87be07ccb8U, 0x3ddddf19bcbdeffcU,
  0x3d372ebc3cb6ef63U, 0xbd91b597bcf87901U, 0x3db5d0a3bc8aeb3eU, 0xbe30b1b13c4d25e1U,
  0xbe6ad4ba3d9623bfU, 0xbd8173153e2eb044U, 0xbdab1c8bbea69575U, 0x3e396656bd2c6a3fU,
  0x3cc65bb03d5e6437U, 0xbe8c57273e1d1ed2U, 0xbeaaaf9fbe15f530U, 0x3e6a347cbb13da2eU,
  0xbe46b38a3e3683acU, 0xbe0f5a9abd77d8daU, 0x3e9389a0bdb82395U, 0xbe8c8cdb3deab73dU,
  0x3d92f97abd0e6879U, 0x3de99addbe990cd7U, 0xbeea39a8bd865d3fU, 0xbe06b16abdefe532U,
  0x3cb40ce83d76fbd3U, 0x3e1a9f323d705d97U, 0x3e45d2ff3da0b042U, 0x3dafd9debc2df760U,
  0xbc04ad11bca24278U, 0xbd043528bd2fb2b4U, 0xbd8967acbdaf6cddU, 0xbdcf3025bcac8c34U,
  0x3cd98dc0bdc907b2U, 0x3e919ba0bd2c8e64U, 0x3dfab362bc14e4c9U, 0xbbdaef833e01d603U,
  0xbda33ebebc0a40e3U, 0x3e3b27f83d3eb40dU, 0xbb0623f0bcbd7eeaU, 0x3d86e215bbdf7722U,
  0xbcff140abdc3b5abU, 0xbe341fd53d695d5cU, 0xbe2718003e40ec1dU, 0xbef9bcd7bd5e2cd7U,
  0x3daee82bbeee472aU, 0xbe1e7879bef04437U, 0x3d387a2f3e6624fbU, 0x3e214cf9be73a586U,
  0x3e0e64b4be57dfd8U, 0xbde783c53d3f53e1U, 0xbe226abbbe36a096U, 0x3e9ea1353e3cde9cU,
  0xbe651df2bf0819a5U, 0xbeec2d0b3d48687aU, 0x3d342c2abe0e4bf8U, 0xbedad29cbbc4b1b7U,
  0xbdd641d13d003e8cU, 0xbc965bd23dc79193U, 0xbba3082a3ea327a9U, 0xbd5bfb923ddd90b8U,
  0xbcb8ef65bd6ba446U, 0xbe13f2abbcb10a9dU, 0xbc76706cbe859de6U, 0xbe33cea83e01e201U,
  0x3db56bcf3e6d4dc0U, 0x3e9ab5a2be881d83U, 0x3d8f5339bddcca9fU, 0x3db641c5be1751f4U,
  0xbde16a463d6dd41aU, 0xbd1fd27a3e2220ecU, 0xbe5c91663f03ef32U, 0x3ae40d8abe5d52abU,
  0x3badd6e4be85223dU, 0xbd00d2573e4616dfU, 0xbce56941be73c425U, 0xbe0e0a703daf370aU,
  0xbdc2a9503e741e45U, 0x3d2fe44cbdfae521U, 0xbd4d9f86bcb498c2U, 0xbd593ccb3cf8a4d9U,
  0x3c0a24b5bc082614U, 0x3e40de003deac2d0U, 0x3e4857a6be17b6eaU, 0xbd2585eabe1f01a5U,
  0x3e28dad0bdbec510U, 0x3ebfc16ebc837029U, 0xbcb85b1d3e8afbecU, 0x3d67208fbe23377dU,
  0x3b838b83be77f47bU, 0x3d2fbc183ebd0c94U, 0xbe63a4f43ec1606eU, 0xbdcfdc63bdc12b26U,
  0x3e6ec44ebe0aa45cU, 0x3da7b1b1be2e1a21U, 0x3e17af0e3e5e3118U, 0xbe70784d3e1680cdU,
  0x3de2c8383ae2fd2fU, 0x3ea20153bb8b032cU, 0x3cca8c5d3e7a3686U, 0xbdf886cd3e421ab1U,
  0xbdde1ed1bde4c2e0U, 0xbf077b54be1c81dbU, 0x3da2e14f3e8d7407U, 0x3e92de73bd7c8360U,
  0x3e84435c3b747d34U, 0x3bf655d3be0ba6abU, 0xbe0516913ebd67b8U, 0x3dddd303bd402841U,
  0xbe2cdc7abd260a55U, 0x3e88c570bdf29e25U, 0xbea8b67f3c95972eU, 0xbc5951353f065e44U,
  0xbe264b79be1ffd36U, 0xbe9b66f9bc0b3653U, 0x3c52be67be587851U, 0x3e2805373e16d364U,
  0xbdd9fa093e4de230U, 0xbcffd338be23afd9U, 0xbe7ab738be0693aaU, 0x3e0f6b8a3e293a46U,
  0x3e7b7247be72fd70U, 0x3e7f36b5bd66ed25U, 0xbe02f9af3eba3718U, 0xbe6bb8f13e6e8b28U,
  0xbe8cfda8be66f0efU, 0x3cbacace3cc3bf18U, 0x3dee281d3c5bbf3bU, 0x3eee8a66bd5decfdU,
  0x3d6223e63e9ca334U, 0xbe5ecf1cbe445a7cU, 0x3bddd4adbdc3011bU, 0x3f039e5b3ea7ee43U,
  0x3ec5efa8bdbf2d6aU, 0xbf5b4c553e3e4cceU, 0x3d114920be46301cU, 0x3df89e5fbca373cdU,
  0x3fbe816b3ddfc68cU, 0x400263223fa01643U, 0xbda0ff71bf56c24cU, 0x3f25f7453fb9895eU,
  0x3f5ce5793f463941U, 0x3f786270bf8b7060U, 0x3f058aa83fd08f80U, 0x3df2a1753c7a9624U,
  0xbebee2f73f06a201U, 0x3edc94723eb59ba2U, 0xbf1a324f3ed54f48U, 0x3f4136ccbeb21a6eU,
  0xbd37b61d3f813c24U, 0xbf689a30bd60cd5eU, 0x3ee2b99c3ec4580bU, 0x3f73fb603f0b141cU,
  0x3f0080d43fab4f66U, 0x3e5456ed3f632e4cU, 0x3f637951bf266c7eU, 0x3ec68ac43f309af5U,
  0x3f386a6dbeb72d7aU, 0xbfec66973f75853bU, 0x3f9d71a43d5771ecU, 0x3ec3ad6a3ee64ff2U,
  0x3ee2d9b7bf4ff9d6U, 0x3f4975953ed64af2U, 0x3f6fd58f3cf44e24U, 0x3ed227763fb32f5eU,
  0x3d172f443fc26efdU, 0xbca7f53a401f2f66U, 0x3d3f5788bded83faU, 0x3d15ccfd3db12118U,
  0x3ec5e0f53d8d6d29U, 0xbf40790dbec0f2b3U, 0x3f02633c3f73e9f9U, 0x3f4465d5bf0ea841U,
  0x3e91aacf3ee93361U, 0xbedae92abdb26400U, 0x3f4486653ecd2961U, 0x3e6ce3503df3783bU,
  0x3e795c903f008808U, 0xbeab3739bf632e87U, 0xbf87ea633ee49704U, 0x3f3f40fb3c9961acU,
  0x3ee23adfbee6ddb9U, 0xbeedcae13f0a18b5U, 0xbe929cd8be6b4955U, 0xbedcbbb2beca0d3bU,
  0xbd254131be435862U, 0xbec6069abe933d24U, 0xbe4dcf51beec7655U, 0xbed32ad1bebce13cU,
  0xbe9d8e14bf4cc592U, 0xbdc79dbdbe551c5dU, 0x3e5077ab3d0b6571U, 0xbe486c36bd29b039U,
  0x3f6767f33e0d693dU, 0x3ce578003f434023U, 0x3e1214193dead32eU, 0xbe941a163de64a04U,
  0xbf409db3be0ef0bdU, 0xbe5adde4bf18f5a1U, 0xbe969647bf31d37eU, 0x401dcb01be38b8eaU,
  0xbf8ba659bfb26302U, 0xbfc313503f0d832bU, 0xbfa05388bee458bfU, 0x3f8d30bcbed1266aU,
  0xbe4e0fcbbf576162U, 0xbddcf09b3ef3415bU, 0x3ca1a6eb3fde9868U, 0xbf3f3526be65091fU,
  0xbe487996bea72b5dU, 0xbe28d339bd779decU, 0x3f650f823e2b1806U, 0x3dd6c7c63dbd8a8aU,
  0x3d89ed723e793e7cU, 0x3f6e63fc3ea680f1U, 0x3ee52773be73a617U, 0xbf0aed023dde16adU,
  0xbf32ce2cbe83220dU, 0x3d4066a03d89c688U, 0x3e55e0853f8bdf25U, 0x3f0c39433e03c01aU,
  0xbf3f3f273e25a0ddU, 0xbf84d7ddbfb03263U, 0x3f5b1102bde97f83U, 0xbf1d97153e427a54U,
  0x3f3530383ca4ff17U, 0xbf4ac019bc663933U, 0xbfd7fc6abeedebf4U, 0xbfa60daa3f69f431U,
  0x3fa4092fbf302c54U, 0xbd8fa800bed5946eU, 0x3df7fe57bcfe9ccfU, 0x3e97353f3e33e26aU,
  0x3f0d5448bf1f0b6eU, 0xbf9902e03f8390a9U, 0x3e452446bdde2e51U, 0xbe5f9804be097d7dU,
  0xbe948118befb6217U, 0xbe8dfcb9bedbb2b5U, 0xbeb927ecbe90551fU, 0xbe0f5f58bc6a42e8U,
  0xbf320e11bf7c14adU, 0xbf36cfc53fa2a398U, 0x3f812beabed2d364U, 0x3e6f0439bf0b9ad0U,
  0xbe7b87113f6f2b9bU, 0xbebd5b58bdfba547U, 0x3e6e0e763e187ebdU, 0x3e9b8d17ba3046b4U,
  0x3e2ffe1b3f149715U, 0x3e775807bf48b8e7U, 0xbf6bbeca3f0b5bb3U, 0x3ef0ba173ef90e8cU,
  0x3f595c6ebf513cdeU, 0xbe9250fb3dc14b1eU, 0xbeb5ed9abf79c0ebU, 0x3e085fae3e5b4039U,
  0x3e114580bd63de38U, 0xbd5f06363ebd0831U, 0x3f3e4964bed76914U, 0xbfc0b1323e41ac89U,
  0x3f2cbe9e3ebe5b35U, 0xbf17d2c4be7ec792U, 0xbf1857e03ed41781U, 0xbe2263a7bf3d5a85U,
  0x3f95715f3f7b7804U, 0xbf02ef02bd527ba3U, 0xbde97909be3b750eU, 0x3e6d7c803f948477U,
  0x3d842f2dbee8b2deU, 0xbe5c5ac2be9f8012U, 0xbc4ea7dabf0b2d24U, 0xbee528d83dc25609U,
  0x3f8179cc3cf9a4cdU, 0xbf3adbee3c8f9de8U, 0xbee2fe9c3f0977d0U, 0xbe192358bea15e4dU,
  0xbf561cee3f1ad18aU, 0x3f69a3c33e837795U, 0x3f635aeec004b10dU, 0xbf96f2893e6ede94U,
  0xbd807c213ec6d4d7U, 0x3d9c1ef63eab2431U, 0xbee2b264be0a6a33U, 0xbeadef1d3f9649acU,
  0x3e40f437be7d3acfU, 0xbf094b97be092b69U, 0x3f2290e4be59e1f4U, 0xbf26a2cfbe273410U,
  0x3f1f89b23f78d14eU, 0xbe982dfabdf9dd45U, 0x3e065eef3d686340U, 0xbe95b3eebec21479U,
  0x3de8c296bf016bbcU, 0xbed09553bd216f3eU, 0x3ecf95a03e4e8d89U, 0xbf39d04f3c6ed771U,
  0x3f44832b3e8b4a7fU, 0xbece6b98beb6add5U, 0xbf17f473be516a2cU, 0xbec8e49bbf010fbbU,
  0x3e6104833f012759U, 0x3eac8739bf7a1430U, 0xbe6405bc3f100296U, 0x3e93ab19bf0c965eU,
  0xbd03d9dd3f7ed967U, 0x3ed704d43f8757dbU, 0x3e9897c23ea039ebU, 0x3e06db3cbf6c3062U,
  0x3e3f594fbd6ddfecU, 0xbf2bf730bee35c88U, 0xbef261943f89a400U, 0x3f8d5666bf418d78U,
  0x3ebcaac43e301201U, 0x3e9eea123e0a1151U, 0x3c0aaf313f37b7dbU, 0x3eadee273e849c71U,
  0x3fa4db1a3dde6493U, 0xbe9a25c73fb52fd5U, 0xbe026d2bbbb43174U, 0xbf218217bea757d5U,
  0xbe546b28bf7ed7baU, 0xbfc367a2bfb4c018U, 0x3ed8d435bdf98eccU, 0x3e46571c3fb0fbc1U,
  0x3fa433313eb14230U, 0x3ccb5f0fbef8dc19U, 0xbf10a3bc3f7720f6U, 0x3fc69924bf336bf9U,
  0xbf669e393ef60947U, 0x3efdeebcbea945acU, 0xbe936e0bbf1da367U, 0xbe48c0c63eee55f0U,
  0x3c80e2d9bf2d8c8bU, 0xbe23f9933dca20e2U, 0x3b828aaabeaa71f6U, 0xbe403227bdd758d7U,
  0x3f88929b3db84c51U, 0xbe9915e7bf3bd767U, 0xbecf50a3bf383e0fU, 0xbda0717bbe7d65d4U,
  0xbd6af37bbeaaf790U, 0xbddc3ce8bedab19cU, 0xbe8a196abe2d0683U, 0x3ff8531dbe87c668U,
  0xbf2b504d3d0c6245U, 0xbf211c33bf0f76c4U, 0xbf12d299bd6b304dU, 0x3e8717c1bdaf8d35U,
  0x3f868d1c3ef998acU, 0x3e08c6ea3e3dfdffU, 0x3e60f3463efa3572U, 0x3e92ce53bcb86b60U,
  0x3e878a083ca56ff7U, 0xbe8f793dbee51d6cU, 0x3e8414ac3fa27b4bU, 0x3e6d7a7ebf8fb4f3U,
  0x3cd1a56f3e993763U, 0x3e03793fbec33506U, 0xbe94fecbbdffb6adU, 0xbc91fe373d30c39aU,
  0x3f54d6d13ec95ddfU, 0x3ea6ef663efe61b7U, 0xbdcca0573eb30397U, 0x3e9216563e957e16U,
  0x3e532021bd6edbfaU, 0xbe32ff81b97cf135U, 0xbf48b306bee73224U, 0xbf1d650f3ec83cc8U,
  0x3eba377d3ddbe639U, 0x3d58126ebdd14561U, 0xbfac7bc2be1191dcU, 0x3e781ed7be985406U,
  0x3fcb01f2bde571c9U, 0x3f0de8ea3f43bd39U, 0xbf3843a23e927d81U, 0x3e9c7e81bf0c74f7U,
  0xbf9fdc5fbcd07c6bU, 0x3ed22d7c3f7cda76U, 0x3f5c286abf323c17U, 0x3f32fe713dd7d454U,
  0x3f521e6b3fb2be4fU, 0x3dd35a7cbe07700eU, 0xbf2f5950bf0695e4U, 0xbedc4369bf8bf55bU,
  0x3e0f12383d921027U, 0x3ee9dec83ddd1761U, 0x3dbfd3cd3f2376b3U, 0x3e55bb193e345c2aU,
  0x3f9b94543e38d24dU, 0xbf3daea9bf6d1550U, 0xbf00f3403fb30388U, 0x3f2d5756bf269d0aU,
  0x3e016178bed71d00U, 0xbd45107a3e3dc9eeU, 0x3e69c1a8be1e8d25U, 0x3cbd8bce3f52a598U,
  0x3e9dfed6bd36bc8bU, 0xbf8b06c03d055ce1U, 0xbf41bd48bfc4a69bU, 0x3e800c40bef7b9f4U,
  0x3f3016203fa3e9e1U, 0x3f3cca153f83497fU, 0xbec7be403f34911fU, 0x3fc2413dbf085efaU,
  0xbed2b0fabdaae936U, 0x3ddbb6b3be47b2aeU, 0x3ecb943dbf288928U, 0xbe6f51f03ec0433bU,
  0x3ee3a3863f5a4394U, 0x3eede91dbe378e26U, 0x3d1aeb0fbe37c5a2U, 0xbec4b8453f0c5d3fU,
  0x3f439948be6ac8b9U, 0xbf284bfb3bd2bcc3U, 0x3def8d673e4fd133U, 0x3f57ebf2bf6516deU,
  0x3e69a62f40278d29U, 0xbf26fca2bf7da3d3U, 0xbe75d182beb488deU, 0xbe9299d6bf82236eU,
  0xbede4250bf11333aU, 0xbe8cd895bee7ec6aU, 0x3d7db216bec8de30U, 0x3f9868ed3ed5bff4U,
  0xbeb6a5623e8b48e2U, 0xbff68c6f3fc1e623U, 0x3fc8b7cfbf32c875U, 0xbd2c7d873d872ac1U,
  0x3ed7a5dabf32fd5bU, 0xbf43b3423e4db059U, 0x3dc5db9ebd8a820fU, 0x3e986635bf128308U,
  0xbe0e73acbf28fb0dU, 0x3f09ab6fbf13b07cU, 0xbe32fac23f6b1e0fU, 0x3b812da4bdaed11eU,
  0xbf231691bf263694U, 0xbeca7f53bf2f2c86U, 0x3e2e4ca43e32d110U, 0x3e136d853e43305fU,
  0x3f205d163d6d70bdU, 0x3e402a5a3c2b4617U, 0xbe4ae2bd3e48d07fU, 0xbe4b5173be3505c5U,
  0xbe6ddf05bea24992U, 0xbf096ecabe9fa395U, 0xbe92e639beb856cbU, 0xbe3e4ceabee252b0U,
  0xbf459a613ca94696U, 0xbc9b5655bf38ccc8U, 0xbd1d0d273df0dd65U, 0x3e3789743dab27a8U,
  0xbe405e963f53469aU, 0x3f2c73613e1521f8U, 0xbe5857ebbd82ac4fU, 0xbd8445cd3e5b812aU,
  0xbf9d3f29be92701cU, 0x3fc2e5c93e8141efU, 0xbf42a0ee400a9ae6U, 0x3ff56c873fbdc476U,
  0xbe8788b1bd646d48U, 0x3e2ec382be0a0178U, 0x3f27e9dcbe16e290U, 0x3f9e5d95bdba5340U,
  0x3bb5d4223e42baa6U, 0x3f45c647be49b8d5U, 0xbe0ebf053e0423d1U, 0x3f170916be2d84f5U,
  0xbf1660e73f8a8446U, 0x3f792c58becbc060U, 0x3e96e81cbe7c2e58U, 0xbd10fa48bf904038U,
  0xbecea7a1bfc9d957U, 0xbf5ff315be905eecU, 0x3e89fe4a3fb139e8U, 0xbd2592043f9f2ffdU,
  0xbf29f2e4bfbbdcd7U, 0xbf59212fbe7ebce2U, 0xbda94a883f802f03U, 0xbda38a7dbd69f742U,
  0x3d949994bf91344aU, 0xbe9751babf6b1cf7U, 0xbed56d9ebe71cdbaU, 0x3e378c643ef446ebU,
  0xbe25c1ae3e1b35d4U, 0x3e86a7cd3f9b30ccU, 0x3f939cd9bf48306bU, 0xbf515e2a3fa44d0aU,
  0xbc1b5a0d3e72c959U, 0x3ee174a93e01d848U, 0x3d14a36fbf1da54dU, 0x3eaac2dc3eb133dcU,
  0xbe3b8afa3dd48550U, 0xbdf47b79bcbdcf91U, 0x3e71aa39bdc3ba0fU, 0x3e950f3d3e9e4a62U,
  0xbe0a87dfbedee0c4U, 0x3defe63dbd9866aeU, 0xbd09d96abdebcb02U, 0x3e8ac386bca3fcf3U,
  0xbe3d41ed3e6552a7U, 0xbe5f5dcd3dd6dbb1U, 0x3de3942f3db0b85eU, 0x3f0b9ecf3eb17032U,
  0xbd62da973e9b5b26U, 0x3db1bd083e9f4fdeU, 0x3e00cb51bdfae2b2U, 0x3f2b2fee3e8f75c5U,
  0x3bb52ae1be0eac23U, 0x3efb89693d4c9f2dU, 0x3bc956c13e134ef2U, 0xbe1b00413e807e63U,
  0xbe74ac983e5c420dU, 0xbdc873e6bdb94e78U, 0x3e5d30f93eb3dd6bU, 0x3c327f0e3e8622c3U,
  0x3e999a593dc8ebedU, 0x3e30b9a93da5b7c8U, 0x3e1b80383e5dd8bfU, 0xbe90f67a3da163d4U,
  0xbd8f3ebebb844393U, 0x3d9c389ebdf9b630U, 0xbe347393be897ecaU, 0xbd12c2eabc951b59U,
  0xbd75017bbd0a2235U, 0x3d1d95503deede4eU, 0xbd8c4ea1bd79c82cU, 0xbd182fd13dddf814U,
  0x3d6d76bd3e31a0f3U, 0x3d27c1073db8a5b3U, 0xbe78ca31be0d0cf7U, 0x3e3f74653c961c65U,
  0x3db8d8283db7dd6cU, 0x3d6f3e3d3d00c56fU, 0x3ce5f7053d6a82f0U, 0x3d27ff6c3c7e6ae7U,
  0xbe30bc4d3e1cb117U, 0xbdd9fc483e20bc31U, 0xba0e1dffbe152bb9U, 0x3dcb0048be245d08U,
  0xbb81b50abdd35e1fU, 0xbe9656ed3e130224U, 0xbe168a3ebe06075cU, 0xbd4229b8be4b95f8U,
  0xbd94ef743e1f277aU, 0xbde26f7b3c36bd21U, 0x3e38b21d3d824869U, 0xbe0565d8bc8764b5U,
  0xbd8d2b70be3ff98dU, 0xbdace57abdcde416U, 0x3be07dfa3dc98093U, 0x3d878ee53d9b6fb8U,
  0xbd094105bd9aeba0U, 0x3cb46f71bd2c7103U, 0xbbd13f92bda1a4a1U, 0xba2619c4be273258U,
  0xbdb127e63c3e1f06U, 0x3e0990773de840beU, 0x3d82ebf4bc8d6bd1U, 0xbd67d77d3d96ab7eU,
  0x3bd6babebe218c51U, 0xbdc9c6d0bdc1298dU, 0x3d80accd3d8c4ffeU, 0x3cd0b6343d54f892U,
  0xbceb33f33d7451b0U, 0xbda5f412bdf9d419U, 0x3d0c9eb0bb9aa753U, 0x3d98b763bcf6d273U,
  0xbd93e056bdc0e61fU, 0x3e0d4b51be016e73U, 0xbbaa2170bd7b181fU, 0xbd53a602bdf57002U,
  0x3cb8fa65be21bb50U, 0xbcac414a3a29a3daU, 0xbd91c310be1ad4a7U, 0x3d88388e3d797fc3U,
  0x3c9d6cbabd98f70dU, 0xbba2a37abcff3248U, 0x3ba22856bde0cbfeU, 0xbe02e4f43d8a5dcdU,
  0x3d6004643d2c88c3U, 0x3e3a2f7f3d659a67U, 0x3d110eab3d926973U, 0xbd737587bdbea240U,
  0x3c1da494be2633c6U, 0x3eaf16053e8b3a3bU, 0xbccd24b93d0d680fU, 0x3daa13f23e88d7feU,
  0xbc4e25cd3bad907dU, 0x3f016f33bc57ca67U, 0xbd9b576fbda8be18U, 0x3d4086043dbd0155U,
  0xbed96dda3e775a26U, 0xbd72014e3b83770bU, 0x3db1a338be5c298cU, 0x3c9f3dfb3e50f807U,
  0x3c7e3ef3bc8d9df9U, 0xbe8605133da02181U, 0xba9ab7423e04507cU, 0xbd9dba1b3ec2f6abU,
  0x3ea8d2813e49c759U, 0xbe7792843d8e815eU, 0xbe01489a3d84deafU, 0xbd488fa83d021482U,
  0x3e2ef99d3f13c25bU, 0xbe868a6b3e7aab33U, 0xbd4196833e0725ddU, 0xbd9cb973be555090U,
  0x3e53a7773ec1e014U, 0xbd21c6c93e42bd49U, 0xbe068e0ebdd689c2U, 0xbe2386a9bcf33aa0U,
  0x3e252c9c3ec033beU, 0xbd66985bbe9c059fU, 0x3ef3c98abde865c7U, 0x3d05e0803e7614f2U,
  0x3d73b270bec5d049U, 0xbe21537fbd231258U, 0x3db0a1573dd96674U, 0xbd7d7a853e3f1c07U,
  0xbda9b35dbcc6cc4fU, 0x3edd392abe098c01U, 0x3d60ca313e835abeU, 0xbdf43cc3bde24c91U,
  0x3c94bb79be8e71dfU, 0x3e81e8e3beb9a7f5U, 0xbd0b919dbe888bc7U, 0x3cd319b03dada480U,
  0xbe912201be14729aU, 0x3d9aef79bd5b9618U, 0x3e02d871be0c6debU, 0xbe3b4cf7bd948fc8U,
  0x3de137cfbb99c0cdU, 0x3d8fce353eeb2c00U, 0xbda00648bc46403bU, 0xbcfcd8083e50992aU,
  0xbe60aad23d5bfc48U, 0xbdb063813e21d459U, 0x3e1d6a19be0d62c0U, 0xbe2c3031bd2cc70bU,
  0xbe0b867f3d869c2eU, 0x3d64fc3ebcefc54dU, 0xbea96d3abe84bdf6U, 0x3e7efeba3c9de14fU,
  0xbda39c613ed82aceU, 0x3d1b4a97be79794fU, 0x3e3154a4be385597U, 0xbe1e4dbcbd62e5bfU,
  0xbe47d24a3d5078baU, 0x3e1a48193e405a72U, 0xbdabce0f3e685901U, 0x3eb7a5543e89e888U,
  0xbbe71adabd0f76b3U, 0xbddb3f5abd84b34dU, 0x3e840819bee2c484U, 0xbdf6ba913ea341fdU,
  0x3da9dbbb3ef76f0eU, 0xbe352bad3e7d931cU, 0xbd874a8d3cba767fU, 0x3e707e903c8912bcU,
  0xbcac71603e129dbcU, 0xbd23d45d3d455c8eU, 0xbe6c249a3d756494U, 0x3ea8e5993f0472f8U,
  0xbe0381423dda3efaU, 0xbdbbddc23e35e389U, 0xbc9b7df6be99be04U, 0x3d86b2983d2494bcU,
  0xbdf48d79be3b409fU, 0xbe32f6debe249aceU, 0xbe27e8df3dc9ade6U, 0xbeb259c33de13ee1U,
  0xbe856645bdbfdcc8U, 0x3ed589aabe7dfefbU, 0x3dd011d83e86d949U, 0xbea102a53e13ad33U,
  0xbec2166cbdafa8d8U, 0xbe0080f6be8575baU, 0x3d5d407bbd995335U, 0x3df91aa73e871014U,
  0x3de165aabe071f21U, 0xbdb9205fbd8ab565U, 0xbe48b627bed64e07U, 0xbe33a6a3be04d5e2U,
  0xbd7b2a13bbccf9c6U, 0x3dbef2113e7c07b2U, 0xbdd717683ebbc4deU, 0xbdc28a80be1facb4U,
  0xbe8efdf1bd68e3dbU, 0x3e1979ddbdc844b2U, 0x3cc35f243e1f58daU, 0x3d827cc23e6b3ee8U,
  0xbd8549ffbdc9a076U, 0x3d4a1b063d830f10U, 0xbd91057abe2ffbc8U, 0x3b8e1edc3eb65424U,
  0x3c3ab46cbe6f3142U, 0x3e792f25bd5f97edU, 0xbe7ba76bbe8c1738U, 0xbd4541a13d8166ffU,
  0xbe0befbabe8eaf94U, 0xbcf11f38bd7d1088U, 0xbe9714663d54190cU, 0xbea0ab693d9fc6dbU,
  0xbe21aaccbd302665U, 0x3ee8be7e3d9c79abU, 0xbca06087bd475439U, 0x3d2054803e95a96bU,
  0xbe426592bed199a3U, 0x3e18d23c3e1ab7ffU, 0x3ca8fe87be942471U, 0xbed70c4cbed5b0d0U,
  0xbd215c5cbd24c7bbU, 0xbe16d24abea17691U, 0x3dfd7cd8be4a2258U, 0xbd7f7383bde6d3b2U,
  0xbd9362b23d3f63a3U, 0x3dcaa9c5bda252bfU, 0x3e2915c0be5ef2f3U, 0xbda1acf03cbd064bU,
  0x3d19000bbdc13ab4U, 0x3daed020bd47a1caU, 0xbe73eb6dbce7c941U, 0x3dc10d4cbccd1a66U,
  0xbb8fa9793e27330fU, 0xbddfab8cbce68a77U, 0x3e01404a3d0d4c35U, 0x3e1dcfdfbdd22c63U,
  0xbe127b863db7cbb4U, 0x3b159c2dbe34f2c7U, 0xbd99681fbeaac089U, 0x3d11c755be102380U,
  0xbc5eb2993d7550cdU, 0x3ecbed743dfabe2dU, 0xbe05ed34bdae8c27U, 0x3df24b9e3e59e8a7U,
  0xbda5eaee3df43220U, 0xbb5f4e5e3d665170U, 0xbbf185c4be707d83U, 0xbe16fe17bd2abe3dU,
  0x3df40b1e3dce9df4U, 0x3c87a79a3dc7c5adU, 0xbe19a6a63d77d74dU, 0xbd846237bd7073eaU,
  0x3e1052cdbe8fa710U, 0xbd6a06b4bd35b841U, 0xbe3486cf3cbee654U, 0xbddf6f163e4f7369U,
  0xbe61c50fbd11a39dU, 0x3db191cf3d9a9017U, 0xbd524135bdd966f9U, 0x3dc63542bdce56d9U,
  0xbe2b9862be0390aeU, 0x3dd2051abd366deaU, 0x3c8b87b1bd16e559U, 0xbe0de3a3bd0e2993U,
  0x3c28cea9be655fe4U, 0xbdad36d7bd920bb2U, 0xbe4f8549bddbe2ceU, 0xbe127a50be0d5b0cU,
  0x3d46cceb3e320399U, 0xbc0de1663e47525dU, 0x3d09b89c3bf1d075U, 0x3dc590c2bc3695a8U,
  0xba57d3973b82a029U, 0xbd3a98e53d40c5e8U, 0x3d48afb6bcf9deddU, 0xbdcb39ef3dbe4f97U,
  0xbeaafadb3e430575U, 0xbd989d82be453293U, 0x3d17eacfbdc2cba2U, 0xbd1bc1363d831ab0U,
  0xbe1177c13e8260ffU, 0xbcd614433e06270aU, 0x3e743931bdd0133fU, 0xbd0b50b03e3b11e5U,
  0xbc8e6c6bbda3a4d8U, 0xbe692a91be0f170bU, 0x3e0252e83e3c1ba0U, 0xbe1a9f043e36139bU,
  0xbdb0da20be27437cU, 0x3ea7d4c33e9492e0U, 0xbc6058e1be87f1aaU, 0x3e02499a3e2579c9U,
  0x3c8fb52bbdeaec9dU, 0x3cd66a113e140572U, 0xbd0826523c4ef040U, 0x3d808500bddd191fU,
  0xbcc10c8bbe90e347U, 0xbe360b363d3b7bdbU, 0x3dbba2333e48c58fU, 0x3d21ab81bcf5418fU,
  0xbce8d5f33d1d7b21U, 0x3e0ebe6e3e60605eU, 0xbe11aa533ca78a19U, 0x3dc3f308be21141bU,
  0xbe115ec83c80a6f8U, 0xbdc149ecbd1f6c91U, 0xbe7244c7bc79dc97U, 0xbcc54e51be1ca770U,
  0xbd5098673d523c0fU, 0xbd948a1b3d9de394U, 0xbc349f923d707487U, 0x3e8acc6bbe0ffa57U,
  0x3e514fefbcf34a50U, 0x3eb8f764be4936a4U, 0x3e489a7bbd966ec7U, 0xbd8ea327be6f1a6fU,
  0x3d1779cd3d9f8579U, 0x3e17bdcf3e0eb463U, 0xbdd8ab4c3d098cbaU, 0x3e8312423db8dc93U,
  0xbd9433013c73d1e0U, 0xbc9f0fc03e188577U, 0x3e1fdfc3bd38204bU, 0xbc251b69bb0167f2U,
  0xbd3d6b7ebdc92311U, 0xbdc3c309bbec7f00U, 0x3e18ab05bde67d02U, 0x3d1392fa3d602be8U,
  0x3d5fb5bdbcab2f3aU, 0xbd5ae69cbde26021U, 0xbe027a6bbe03bd9cU, 0xbde2f8b13e39f79aU,
  0x3df16e7fbaab7aa1U, 0xbe1d7e523e165d7fU, 0x3d0298943d8684e6U, 0x3c4048d6bce1e781U,
  0x3cb3304bbd0dfa01U, 0xbe25d2c2bd94bbfaU, 0x3e2e7974bd39ae8dU, 0x3e0af17b3d8392cbU,
  0x3cd9fa30bbc59a04U, 0x3de047a4bca33678U, 0x3c3c11e3bd2baf73U, 0x3d89fc1fbd8b7019U,
  0xbd55b338bcd10fdbU, 0x3e3abba73d53d449U, 0x3d133d283c613229U, 0x3e10c2e8bcae2758U,
  0xbddbb979be4faba8U, 0x3deb545e3eba2077U, 0xbec804443d972c6aU, 0xbe48b7e5be97ae6eU,
  0x3d4d5eee3e8491e5U, 0x3db45ed23e69e21eU, 0x3f062fee3e13ab0fU, 0xbe4538a33b43b197U,
  0xbeb1559fbbd46ac4U, 0xbe04db0d3e1ffacfU, 0xbd2b03f83daba1aeU, 0x3d2633c33e8c3824U,
  0x3e69a8c1bc757274U, 0xbcdf9fd83d599638U, 0x3ebd976fbe9ce14cU, 0x3e60d1c0be2adcadU,
  0xbe3d4ff7bf148df0U, 0xbcd211ca3dc47c3dU, 0xbde25481bdbf6f4bU, 0xbd6812a7bdd64341U,
  0xbda181983ccc6ca8U, 0x3dd1b078bcf629dbU, 0xbe5fa82b3e8f069fU, 0xbef967dc3e3be63cU,
  0x3d62a6153d669f8bU, 0xbde993af3f52c617U, 0x3dab56613e2b374bU, 0xbee6baf7be30951dU,
  0x3e3a804ebcbb8bcbU, 0xbeb8e41a3e3124faU, 0xbb4888cbbdcea1a5U, 0xbeb97acabe2ed42cU,
  0xbea59950bd8eb3efU, 0xbce7937abde49128U, 0xbe92f039bb75c532U, 0xbd0514693db645f7U,
  0xbe4f020f3d5ad18aU, 0xbe38d7593e681b9cU, 0x3e84e28ebe48a3f4U, 0xbc00f001bda530a5U,
  0xbe9685873d89626dU, 0x3e38e5a83daf9076U, 0x3ef7430abdcd91a9U, 0xbc3d19ddbe523f81U,
  0xbe0a1dbd3b9f74ecU, 0xbe5492b9be8d01c3U, 0xbde18982bda7dd7bU, 0xbdc39b49be08cac4U,
  0x3ec1f4e4bdf7f9b9U, 0x3d4fc2833e0cb08aU, 0x3e080190bcda30baU, 0xbc905496becd6f4cU,
  0x3e390586be8e8ca5U, 0xbddb29ef3e3796beU, 0xbd204ae33e1775bdU, 0xbd013fb73e8577bfU,
  0x3e64d5333ec2aeb9U, 0xbe07cf9ebe5aea2bU, 0x3ecce97c3ee44b9cU, 0x3e36ad39bdc627c5U,
  0xbe303ffd3e4b650dU, 0x3d0f70d7be003d12U, 0x3db98dfe3d82280cU, 0xbe39459c3c8153b7U,
  0x8d56d4c18d1078eaU, 0x8d7ed51b0d01395cU, 0x8cbb001a0d1094d6U, 0x8d5584518ca4f8d8U,
  0x8d4f8b7b0d54be9fU, 0xd4a6b4b8cda64e8U, 0xd27f61e8d459452U, 0xd9d25a70d0aa795U,
  0x8d6124510d0e963aU, 0x8c95600e0d1cb22fU, 0xce6a5688da35eb5U, 0x8cf742b50d525024U,
  0x8cd90fa78d0e4293U, 0x8a77969b0d04faecU, 0x8c62df438d2c1799U, 0x8c92e1a20d267990U,
  0x8d2cb1958d342ecfU, 0x8d3ce08e0ce9acd3U, 0x8a975d820ba9274dU, 0x8cecd2128d827c84U,
  0x8daf2eab0c549c57U, 0x8d072d040d33c3c8U, 0x8c9ed7400d48cb30U, 0x8ca7d1228d3b7d95U,
  0xd28e3a18d0f211dU, 0x8a3e17bc8d175adcU, 0x8d1743ff8d7bb3e8U, 0x8d298e5f0d236935U,
  0x8d22abe38d36aa53U, 0x8d0c64850c79f5e7U, 0x8d7bcb058d268c83U, 0xce323458a11c65dU,
  0x3d6f3caabe201cdcU, 0x3d2a98e23de1f83cU, 0xbe35ba3dbe98df30U, 0xbbfe51753dceaaccU,
  0x3e7b99023d1e0633U, 0xbe06eddd3e5315d0U, 0xbdc5c5d5bdd6e411U, 0xbba35b483e690b01U,
  0xbdcc3948bdf26905U, 0xbdc1681b3e07ec54U, 0xbe298c18bd5d821dU, 0x3d7f05a23e0d6e4eU,
  0xbd957f323e2c1decU, 0xbd1fdb3b3e41b540U, 0xbdc0a45cbe2c7f41U, 0xbd485c793e7ce7b8U,
  0x3e3190063d168c53U, 0xbd4593413d952a7dU, 0xbc8f907fbe6c42e2U, 0x3dbd776dbe18680cU,
  0x3b854c293e6119deU, 0xbe3155bb3dbe0fdcU, 0x3e6daf153d448484U, 0xbe1aee98bd0b80b4U,
  0x3ea70aa03ad23193U, 0x3e2403373db8fafdU, 0xbe831d9f3cd77370U, 0x3dd305033e80c459U,
  0x3da482c6badb514cU, 0x3e8a1fe7bc90f10eU, 0xbdffc8c63d92e75eU, 0xbd7449cb3dde395dU,
  0xbbc742a3bddfbcc5U, 0xbdb3d27ebb021b16U, 0x3cd795623df7224eU, 0x3e44c29cbc194d77U,
  0xbdef4adc3d64efc8U, 0xbc56a802be1f8b68U, 0xbd3a1567bc7bd14cU, 0x3ccb169ebdda394bU,
  0xbe75bf57bdb398edU, 0x3d32626b3e735ff3U, 0xbed861dbbd740eafU, 0xbd1183923d8602c9U,
  0xbdd728753e2d511fU, 0xbe177d35bdfc34cbU, 0x3e14d5b7bd7054fdU, 0x3dc64b203cf18bb7U,
  0x3da575a73cfb23f8U, 0xbd5ebb3b3d320567U, 0x3d20106fbe32ac82U, 0x3dfa832fbe3490d2U,
  0xbdfa146bbd96ce7aU, 0xbafc5791bb0332f7U, 0x3da91f023ca23b7bU, 0x3dc366a73dcc21c0U,
  0x3e764180bd8b51d9U, 0x3c275b793dd9e435U, 0x3d3124bebdfc8d9cU, 0xbd50f859bd737ad5U,
  0x3dbbfda2bd3a97e3U, 0xbdc498a3bc0bbdb2U, 0x3e304b11bc013f2aU, 0xbde717a7bd9484f3U,
  0xbe5ae2d7be6b4b49U, 0x3da5e3a2b9345bbdU, 0xbe225d7ebb011c19U, 0xbd70f8fb3e8dbe0cU,
  0x3ecd5ba73dc3ed90U, 0x3d5b7b7abe4a34a5U, 0x3e62ed203e54bb43U, 0x3eb17bbebe5cafaaU,
  0xbe2dbb60bddf383dU, 0xbe4040f1bcdb5483U, 0x3d5b0a79be56db90U, 0xbd56cca63cc79ae0U,
  0xbcad1c723e122735U, 0x3e4b581c3d2290eeU, 0x3e044d053bfd4039U, 0x3cc9b7e8be9f5ec5U,
  0x3de38c373dc522c4U, 0xbe3194043c7b88daU, 0x3eb97e1e3df1976fU, 0xbe2d4e7c3cdea0e5U,
  0xbd28e9e93cc8d8f8U, 0x3d32e45a3da21922U, 0xbea09cdc3dec6fa3U, 0x3e0381b03e3b8761U,
  0xbebb9658be2631a6U, 0xbd5b674ebdd91ca5U, 0xbe06b7e53d0c7900U, 0x3d8f16febdd5c398U,
  0x3d0af780bd99b373U, 0xbce3eeb43e4d2b4fU, 0x3e3724e53d889ce7U, 0xbe85e326be72ce1fU,
  0x3e5162883db99917U, 0x3de6ecf0bce602eaU, 0xbcaf1f4abe4956d6U, 0xbdd1b5ecbe747beeU,
  0xbea1c7543d1e1674U, 0x3d48b10c3e8559c7U, 0x3b9922ca3da94072U, 0x3cbaf97f3e361ac9U,
  0x3ebbcb0b3e2c1b0dU, 0xbdec304a3d322f6fU, 0xbdebb5e53da67632U, 0xbdc15e8ebda7784cU,
  0x3e6526cf3d2c2df4U, 0xbe3a93fa3e39e6cbU, 0xbe6d539c3d47a9f7U, 0xbe023f4c3e30ec8dU,
  0xbe3e91eabe5fe859U, 0x3c8e8b023e045431U, 0x3d198af3becdfc82U, 0x3da936abbe26c976U,
  0xbd0a2b773dfc4415U, 0xbe1770d93de1ae36U, 0xbcc632373ea9e099U, 0x3e77f2b43e660190U,
  0x3d1b75503e5219b0U, 0x3cddf630be6eb35bU, 0x3d4c1096be31f0bfU, 0xbe7935083d393044U,
  0xbd3af39fbd98666fU, 0xbc0f1910bd6ffdbdU, 0xbea005ecbd346162U, 0xba7f98d63df79f00U,
  0xbeaf45eebdc38d33U, 0xbca9cbb13dfe48d9U, 0xbe43faa7be468bdcU, 0x3ea5110b3da347b8U,
  0xbda6c70c3e516bfcU, 0xba125cd13e1721b5U, 0xbdfa84253b0c6d59U, 0xbd0a841d3e74832bU,
  0x3c02d6f13ebcdaffU, 0xbd62646f3e1bdb99U, 0x3cef9c6e3e2bdf8dU, 0xbd73c404be2bfa6eU,
  0x3e359d263da03faaU, 0x3c612a6a3db27b4aU, 0xbdc132ebbe42a112U, 0x3e02b4253ded884eU,
  0xbe48fd9c3e7eab63U, 0x3e048905bda23d1bU, 0xbd6083d6bd68eafcU, 0x3d9477d6be6eda46U,
  0xbd963c0e3de51ac3U, 0xbaa57157bd241a29U, 0x3e820a8d3e21caaaU, 0xbbb87dc8bdb35d7cU,
  0xbe49c520bd5afe18U, 0x3e9b12013e8c7b94U, 0xbe301e463dd8c966U, 0x3dc9bb10bdb8ef71U,
  0x3d6885153dee6f25U, 0xbd1c64b4be435022U, 0x3d8fcba53d6d8bfaU, 0x3e1c63e6bb86c3e5U,
  0x8d8e95e70d8a40beU, 0xd875ec60d98bebeU, 0xd915da20d9658b2U, 0x8d9b48c40d97ee89U,
  0x8d9e4fcd8d929b8dU, 0x8d8f78280d8418e0U, 0xd3eb9ab8d8d0832U, 0x8d90a6040d887fbaU,
  0xd87000f0d92a1f5U, 0xd8d3b8c0d9846d7U, 0xd7afc808d25e589U, 0xd9828b58d8fb532U,
  0xd91f8848d9f619fU, 0xe0833b30d73963eU, 0xd9424c50d8d0d40U, 0xd90a8960d89c83bU,
  0x8d9824150d8591dbU, 0x8d8b4f628d8a5ba7U, 0x8d881f288d7f2022U, 0xd80bf9b8d76bca5U,
  0x8d4558490d8c3574U, 0x8d795a0a0d96d601U, 0x8d9233470d8e2341U, 0xda90a168d9c6899U,
  0xd8eeb4f8d9c4139U, 0xd86b5d18d93c081U, 0xd8a30518da11a16U, 0xd9e9db60d84aec8U,
  0xd8f66a38d96a43eU, 0xd93fe188d8168caU, 0xd87f3da8d97c80aU, 0xd949d218d8a46d8U,
  0x3c27ea87bdcf4f68U, 0xbefdd4ea3e8b3b6aU, 0xbf0ee5b73d4db49dU, 0xbe807731bdd22b33U,
  0x3e8066a2bd81ba09U, 0x3e952761bd7302b5U, 0x3ece7af63e8ebf44U, 0xbe748335be480a4eU,
  0x3d11dd92be7f0039U, 0xbe596366be869c5aU, 0xbe3b99353dd72375U, 0x3c8c13c5be2ea407U,
  0xbd3ee6f83ed8c746U, 0xbe23f7a0bad9235eU, 0x3e92e0c1be406221U, 0x3e584e873edd6498U,
  0xbd6538b1be5fbe80U, 0x3d2ec3fcbd683ba0U, 0x3e72487ebdf44643U, 0xbe54c6eb3e3dfadcU,
  0xbed49ddbbeb928a8U, 0xbe352d52bd23fe6fU, 0xbe7e7dd63e47b9b2U, 0x3ead7caf3eb1ae27U,
  0xbea73b833c6aebc9U, 0xbe7a3c2a3e3f807aU, 0xbe9fe5e8be977abeU, 0x3eb001bfbe13b659U,
  0xbda92760ba1eec92U, 0x3e83ff3b3e5243c4U, 0x3eb02478bebbb3a7U, 0x3cd931a73b6aacabU,
  0xbc6472953c90e6f6U, 0x3ddd7247be0e0af7U, 0x3e54897abdb98b02U, 0x3de113f43db49bf1U,
  0xbb1fab99bd4c5ab8U, 0xbd66f2c23dc23d86U, 0xbcef7fc3bdd09d25U, 0x3d971a433d9fa283U,
  0x3bb292b0bced23cbU, 0x3b7405c3bddca831U, 0x3e0b5078bd5f0a6aU, 0x3c605b09bd11d04aU,
  0xbdd7d48dbd89cff2U, 0xbd376627bdc297fdU, 0xbcd0096e3d7d1532U, 0x3d4d1ff0bc40df38U,
  0x3d8a920f3d52a642U, 0xbd8e3acc3d68550dU, 0xbda163623e0468a9U, 0xbdd2a993be721f3fU,
  0xbd852f313c9620f4U, 0xbc48fb00bd1b306eU, 0x3e169cefbb920511U, 0xbc8cd959bbf7f7f0U,
  0xbdaddb2e3cffcb3eU, 0x3ddd1e6b3d679f54U, 0xbe374d71bd707372U, 0xbc0c8bbf3c3d0147U,
  0x3debbd88bc9ba083U, 0x3c378a5ab984a1f8U, 0x3bdfcbd3bd2d9487U, 0xbe109f523cf5465fU,
  0x3dee45413ed7eb77U, 0x3e237fcbbd2b783fU, 0x3de74921bdda75cdU, 0xbcd553f73e9a7de4U,
  0xbd5723edbda63764U, 0xbe58e9e4bd3d623aU, 0x3d9b83febd9d7bb9U, 0xbe0ee98a3dfb3aefU,
  0xbd5e222cbde0906dU, 0xbde9aa71bdb089a7U, 0x3d622e073e3fb627U, 0x3d593c0cbca119c2U,
  0x3d51f8aabd9fe3eaU, 0xbda855aa3cf88858U, 0xbbab0caa3d537afeU, 0x3d6071e5bc1e2670U,
  0xbd4887a83e758a5cU, 0x3deab4383cff48b7U, 0xbd63f80d3d85fb29U, 0x3e1fba853d15f3d7U,
  0xbc8429e83d185055U, 0x3c92538b3da5ef8fU, 0x3caeed373d99e4c3U, 0xbd6454a4be3ac100U,
  0x3e481f0f3d0bccacU, 0xbe3deeeebda6bb14U, 0xbc99d33dbdd67b29U, 0x3d3bf67d3e069ef5U,
  0x3e41ccf9bd4f621aU, 0xbe0d0b78bc4cf10cU, 0x3df1d738bd2df6ceU, 0x3e347abf3dc83ff5U,
  0x3c1baa14bc012cfdU, 0x3d964501bd0963acU, 0xbd83e4a3bddb3745U, 0x3e172764bca650c6U,
  0x3d6a21383e33db57U, 0x3da26cee3dc31ee1U, 0xbb1d39d53e2d5c74U, 0xbda6180ebd059ee5U,
  0x3d8bd042bccf2bd0U, 0x3d5bd5f13ceeea9eU, 0xbb92476a3e485a50U, 0xbdc7ba593caa2ac2U,
  0x3da90fbebcb802e2U, 0xbdb00d633dd8623fU, 0x3d1eb201bd198178U, 0xbd8d2af9bd31a7b4U,
  0xbcd10ef3bd98dca5U, 0xbc3bccfbbd50285fU, 0x3e654a3fbbe23a09U, 0xbd71d49abb4b591bU,
  0x3d59f89abdb27c12U, 0xbc681f353d6a8126U, 0x3ce50ca23e0d86f3U, 0xbcd0f7463c927047U,
  0xbc53f8d0bdf093f5U, 0x3df1f1d5be09caccU, 0xbdc08d41bda8090bU, 0x3d74b717bd2e30c1U,
  0xbc9f1fa73cb9c06eU, 0x3e443305bbafa3c1U, 0xbc136d97bd0ae9f2U, 0xbc242ce13d13b137U,
  0x3dbf2f0cbe20d4c0U, 0xbe3855703edf99ccU, 0xbd9c249cbdbf98b3U, 0xbd9766f1bd62fe8bU,
  0xbd100de43d808079U, 0xbd5fd797be6492f7U, 0xbcc2df263e54dad3U, 0xbd723ff5bdba2621U,
  0xbe93aff53e7119b8U, 0x3a922346bcbf9beeU, 0xbdfe21e03dd963c9U, 0xbd883632bd448621U,
  0xbd2704b9bcaf6f8aU, 0xbcdfe2b63e905a38U, 0xbd054dd6be295518U, 0xbe6b160b3d4802dcU,
  0x3d7cd45bbda10c99U, 0xbd32f2253e51732aU, 0xbdaf26923e83dbc3U, 0xbd2d44113e04b270U,
  0x3db288e2be227732U, 0xbd2c12943c820767U, 0xbe0f6aeb3e73eb96U, 0xbe31fbc3be3dc5b9U,
  0x3ca73c53bc699419U, 0xbdea391bbd8ab841U, 0xbd982b8cbe54f838U, 0x3d9d0087be631b0eU,
  0xbdee75b83d362d0aU, 0x3ca756bfbdb1f647U, 0x3e34f08c3e41fde0U, 0xbd9dda033dc410b8U,
  0x3bc3aad5be5a05c8U, 0xbd59cc75be14fdf7U, 0xbe3c77603dd4b7f7U, 0xbd875accbe65dc93U,
  0x3ea603d93e2c6838U, 0xbe721bb1bc60c84dU, 0x3e963b3abca39c26U, 0xbef88d6ebcb13eaaU,
  0xbce9451e3e1988ceU, 0x3e2130c03dbe9952U, 0x3dd6d733bdafdccfU, 0x3dbb0aa4bda18a2bU,
  0xbdf155ec3e144768U, 0xbda8eb2cbe30c594U, 0x3e90f4a53d797888U, 0xbcb801723ba45087U,
  0x3d659e40be0b6ec3U, 0x3df45d9dbda79438U, 0x3d9d81e0be6cc2bfU, 0xbd8fb18cbe44099bU,
  0xbd819900bd066bf5U, 0xbe1939f53d55ba05U, 0x3d356c95bda1ff99U, 0x3e9b9fbabcd6ebe3U,
  0x3da9e568be113b63U, 0x3ea7422ebd01d0a9U, 0x3f1e54f7be66ce0cU, 0xbc96c39b3df4f907U,
  0x3c96da5c3d746800U, 0xbe51e3fcbce34aa2U, 0xbd9027d33d0e20f5U, 0xbdf2dfd43e18832dU,
  0x3ba899c03d30cc01U, 0xbc1245163d2f5150U, 0xbdcad234be1255c0U, 0xbc0086bdbd3e73a0U,
  0xbd7cd3a43ca59dacU, 0x3dc961423db3b209U, 0xbb0d6c57bdb21ad4U, 0xbd15dae9bd764675U,
  0x3d126af8bda1d1e8U, 0x3d0bbe193d4e701eU, 0xbca9a6b93d9d5c2cU, 0xbd9910a83d17c0c3U,
  0xbc25c8fa3e2fd532U, 0x3cdb718fbc831f0eU, 0xbc8135cfbd3f9015U, 0x3ddc9a6a3d994d36U,
  0x3c3bd764bc7efdfcU, 0x3de9b959be3d8b05U, 0x3b735bc3bd244b18U, 0xbd0f2f223e061021U,
  0xbc945141be065d42U, 0xbd64b9c5bdd2dddfU, 0xbe04c005bcbce997U, 0x3d5910f13d9e00b7U,
  0xbd5de15ebd3cc9caU, 0x3ce3f09ebd7a7bbcU, 0x3d8c38ee3c552f99U, 0x3d9c074dbdd09adbU,
  0xbd10a18ebda4b307U, 0x3dd9b9d03d57ec0fU, 0x3cd31a083c550612U, 0xbd1b4b2bbd2ccbdcU,
  0x8d2932f38e1ce496U, 0xdbd64c40e0c3b6cU, 0x8de8338e0df5e99aU, 0x8e0ae8c20db8e753U,
  0x8e03e7190dfdbe76U, 0xe0a45298e0e5b8dU, 0xe0597d20e09b41bU, 0x8dbe93a10e1763b7U,
  0xe0d1eed0e0b3564U, 0x8cb2dbf98e09844cU, 0xdc31cb08df70132U, 0xe0eb2be0e0cb187U,
  0xe1369668e0e8386U, 0x8de4d6580e048bcdU, 0x8d728af40e0cfa7dU, 0xe0aa86c0e12a6acU,
  0x8e0ae8348e18c2faU, 0xe000a160de0101cU, 0x8e304d350e00497aU, 0x8e05838e0d994a83U,
  0xde12b2e8e05bc75U, 0x8df84dd18deaac64U, 0xe0222870df16c43U, 0xe13b2970e0bc31dU,
  0x8e0024300d586dfeU, 0x8dfdc92d8e15695eU, 0x8e04574a0e0dd0a5U, 0xe0c09d30e096ca7U,
  0x8e02035a0df51fe2U, 0xdf3b0fc0df49db2U, 0x8e405f940decf2a2U, 0xe1b1d020db3c1c0U,
  0x3ea6c6823e0b2396U, 0x3dc945523dad6d92U, 0x3d898b1c3e06ab82U, 0xbf0151213e25de50U,
  0xbd3cc88abe20d44cU, 0xbd448d8fbd4ead5dU, 0x3e41790e3df0c74cU, 0xbdcc26d9bc683483U,
  0xbdd7eb593dd17a41U, 0x3d5f0e633d2155c0U, 0xb9a7f8583e93a8feU, 0xbe05d34bbe93f280U,
  0x3cc8484e3d971d87U, 0x3d426009bd44155fU, 0x3d00b7ad3ee7ed33U, 0xbdc38365be2ee523U,
  0xbe92fa6abe9972f2U, 0x3de5305f3df63db5U, 0xbd54fe4f3edc861cU, 0xbe82c8aebd3729c8U,
  0x3e7e5d023cc5fdc7U, 0x3dc0dd34be260489U, 0xbe784ecb3ca47280U, 0xbd9c9a60be34058dU,
  0xbdd7390b3d0bdeafU, 0x3dc75c093e442a4bU, 0x3e5f96343ea86377U, 0x3f15dc12be2278f0U,
  0x3c902d893de33cd5U, 0x3da668a13d9b2ef1U, 0x3dfef9a1be96ced4U, 0x3e8c4be43c10ce5eU,
  0x3bb1cf033e8df8a2U, 0x3a7b7780bd80ef78U, 0x3ec5ff07be01dde6U, 0x3daf85d7bc1d4c2fU,
  0xbe11b78e3b1d8060U, 0x3e1186cebc7e5843U, 0x3db4c1723d69f48cU, 0x3d00e6853d30b05aU,
  0x3d3f9beebdaa9d48U, 0x3d9ae5a6bdad087aU, 0x3df3390d3cf0d473U, 0x3e282cba3d640d6fU,
  0x3d93829b3cb9270bU, 0xbde100553dd82888U, 0x3e07e5c33c7ad83cU, 0x3de11a47bd831779U,
  0xbc60aa90bd870b74U, 0x3e695a4d3d904cdcU, 0xbd9c5ee63d7a8d54U, 0xbd8d18cc3d1107cdU,
  0x3ce7075ebe319391U, 0xbd13c7dc3ddf2c3dU, 0xbdf08fb43dc17bd5U, 0x3da62d9f3c406a99U,
  0xbdf0cd563d4b4572U, 0xbc2a18633b9dfca5U, 0x3d4f9794bd0fbd50U, 0xbd8b74b1bc7b447eU,
  0x3ec9cac5bc8f76dbU, 0x3d77ee123c2c9285U, 0x3da210663d0bea1dU, 0xbe4bc9a0bcfef666U,
  0x3dd50d953d47b1f1U, 0x3cfa9a3b3cbd9a6aU, 0x3d2f323b3d63af49U, 0xbe06b1c1bd98aa4dU,
  0x3e113953bca0e504U, 0xbe2f4751bcdb58c0U, 0x3ce880963df612c6U, 0xbd69b520ba68b130U,
  0x3d78401bbb737b50U, 0x3df506e53c9f8b33U, 0xbd4f1c4b3e5ca0b1U, 0x3e16d6543d12d11fU,
  0x3e3202533cc32117U, 0x3d5d43893bf37268U, 0x3debcfa53dd443a5U, 0x3d1d8b50bd840c12U,
  0xbcc9beb6be030ad3U, 0xbd13c20abdccd738U, 0xbd12b55e3da6220fU, 0xbdcaedcd3d94104cU,
  0x3e183de03d92f428U, 0xbbe17c68bd87f290U, 0xbd6f5eb93d0b1ccaU, 0xbe13b21a3d815c86U,
  0xbdc7ea9abe845a13U, 0x3c2cffc23dc6d59cU, 0x3e0c01643e8e744eU, 0xbc0209673d44c5d8U,
  0xbd083bf4bd8572b5U, 0xbe09daebbe283ce6U, 0x3cb491b8bc02b3d0U, 0x3d3a9212be06486bU,
  0x3e5553d53d0a4fb7U, 0x3d2bc454bddfad69U, 0xbe8469533d5c1cf8U, 0x3eae5e4fbc6da13bU,
  0x3e3ddfc1bd4731b9U, 0xbe8524c4bca76211U, 0x3e616bd0bc03bdafU, 0xbe3a1189bd583107U,
  0x3c4767c73d883174U, 0xbe84fa15be758e94U, 0x3d9dc6cdbd616e75U, 0x3ec561c93e2fbab0U,
  0xbe841eb7be46b350U, 0xbe57ae123dfcea36U, 0xbc61b91fbe39793aU, 0xbe4b4ab4bdb32573U,
  0x3dda57f5be0fa2a1U, 0xbd6f7219bd8b3a41U, 0x3e0b399b3d868301U, 0xbe3f535d3e341f6aU,
  0x3d5440a93c0073dbU, 0x3e25ef71bbcf7716U, 0x3db4d7a0be647f8fU, 0xbe7e8e47be26f2d2U,
  0x3e1217263d7c9a0dU, 0xbec115a13cfcd9faU, 0x3e1ab3983c11696aU, 0x3dbeb4a23e9e4f37U,
  0x3d928c63be50816eU, 0x3e57a6233d9e313aU, 0x3eb07fffbe5a9eefU, 0x3e65277d3e8fbc1dU,
  0xbe179a1d3e18b8d4U, 0x3e0b7a87bdc3f5beU, 0xbe023b3cbe59dce6U, 0xbd6bbec63d90d708U,
  0xbe388dd83dce3d5bU, 0x3d7bd4babd882d7eU, 0x3d5e62403d423d0eU, 0xbd6015e73e853b82U,
  0x3ec6acca3c1b844fU, 0x3db0cc60bd485320U, 0x3dd4d6363deff7b1U, 0x3c76f0383e8235abU,
  0xbd8cf26ebe1558c3U, 0x3d4545243bae310aU, 0xbe2c626e3dbc71f3U, 0x3e2fc28d3e2bc282U,
  0x3e6cc039be2f6ee2U, 0xbdfdcdebbdb4cf49U, 0x3d823596be612e96U, 0x3ddd38fd3e3c53c3U,
  0xbdbabd63bc58c554U, 0xbe31835fbd9606f9U, 0xbe42d9a83b06e8b0U, 0x3d89f90fbc8852feU,
  0xbdcc172a3d529cb6U, 0x3d8c5f3fbc1152bdU, 0x3e2da8d83d957383U, 0xbe149fce3ca1fc68U,
  0x3e5682dd3deb3af6U, 0xbd65b5073e19acb3U, 0xbd924d30bd841ec5U, 0xbe33a5233e336505U,
  0xbd9fb65ebc383275U, 0xbdc8cd49bd3cb253U, 0x3d11fc31bd42cf92U, 0xbe888bb1bd831c58U,
  0xbe15853bbdecbdd2U, 0xbd0aa0943dd6202eU, 0x3e0b93fcbe53d689U, 0xbcee7aa73e39ff5bU,
  0x3d99bebfbd3aa310U, 0x3da345953cce6344U, 0x3dabb049bb6f57d3U, 0x3d5150fcbe899301U,
  0x3d8ec349be86850eU, 0xbe13e7f7bd962500U, 0x3d79d2243c5b9873U, 0xbd2417d3bd8efa30U,
  0x3defe6c4be19050eU, 0xbdb094f0bd8d11b2U, 0xbd22b2b5bd9a0f3dU, 0x3d35d2603c18d3c6U,
  0xbafc3612bc9ea13bU, 0xbd6bc42c3b25b4c6U, 0xbd19633d3e388970U, 0x3d844c463d8367ecU,
  0xbb7dcb6bbe16797fU, 0x3bd953393e672940U, 0xbe02da443d9519e3U, 0xbdd489b9bcc67589U,
  0x3da1de6dbbdd70d2U, 0x3c2385103c9a339bU, 0xbd06cd72be6c0932U, 0xbcfd2aadbd38a9a8U,
  0x3d0d1b053d1f52ecU, 0xbd5ff674bcd3930fU, 0x3d4241ecbc9812b6U, 0xbd8d3d11bc4805f4U,
  0x3c5775b5bd9ee3dfU, 0xbccf42a4bd848e95U, 0xbdf904c2bcfe4389U, 0xbc4085cebdb86c18U,
  0x3cc04f203d8f4424U, 0x3b0b5d55bd00c7e4U, 0x3cc056c63c7a5fabU, 0x3d34e624bd4c53d0U,
  0x3d302bfc3d06f29dU, 0x3e514947bd372297U, 0xbd11c15fbcb2fe42U, 0xbd29efc2bcc6dfeeU,
  0xbc88b49abe137072U, 0x3db02d55bbb5e934U, 0x3ca42f2a3e1ac9b2U, 0xbd8185833e030583U,
  0x3d8342a5bd0ed405U, 0x3da6657bbd4babeeU, 0xbd72ffd6bd15b3b0U, 0xbbab9b98bd27881bU,
  0x3b9226813c7c86b1U, 0xbe385c893cb8bca5U, 0x3c9aab703ba700d7U, 0xbc38a70fbd243b13U,
  0xbc9839373c044d80U, 0xbd813624bc27ce10U, 0xbdb40d153c89670aU, 0xbde6af393d0e99cbU,
  0x3ef57ce13ea0cc76U, 0xbd276528be71277aU, 0x3e83bbbcbe8abd88U, 0xbd8d98ddbdc42579U,
  0xbe61556abcf4fb98U, 0x3eeee0c73e87adadU, 0x3d9b0a623c69595dU, 0x3e912b9e3b67f810U,
  0xbe6b8783bea1316aU, 0x3e194a7f3da0cb28U, 0xbd172deb3d92bbf9U, 0xbe1711a4bd6ee08eU,
  0x3db195f2bdde1c41U, 0x3c72d0853e5e78c1U, 0xbd77b1133eb00f2bU, 0xbdac220e3d90c6daU,
  0x3d30ebc3bcf5698bU, 0x3eb15be2be423aeeU, 0xbd9d36533e2963d1U, 0x3d63e336bdd5f2a6U,
  0x3d02fd70be3a4630U, 0x3b71b020bcbca8b0U, 0xbdf0d6993d379c61U, 0xbe3ec002be18d959U,
  0xbdd93288be005d4dU, 0x3e107187bc83c049U, 0x395f394e3e19b226U, 0x3df79f7bbe784eeeU,
  0x3d07fa9fbe1147dfU, 0x3e097978be5c6fbaU, 0x3e885f813cc30371U, 0xbdb6759a3d00bc89U,
  0xbebb66e33d015ac8U, 0x3e4eb8413ab6b515U, 0xbc8c49d73d42a43fU, 0xbe14e1dc3df9c70bU,
  0xbe074eb4bda478aeU, 0x3b9f2ccc3d6b5111U, 0x3dae78ad3dd4fb5fU, 0x3daf2fb8bc83e6a6U,
  0x3e5c082abe29fe6aU, 0xbda73d1cbe56e4d1U, 0x3db74098bcb5cc21U, 0x3e7f6a143e092853U,
  0x3e4a094fbe3fa92fU, 0xbdc79af63e7dcb7bU, 0xbd67af633e251743U, 0x3da27d0d3dfd75f0U,
  0x3d329a78bda4db0aU, 0xbdb5d1353dccae02U, 0x3e37e4bc3d4a98abU, 0x3cce99cd3e3f6387U,
  0xbce5c871be1aa0dbU, 0xbe0b1151bd9dcac3U, 0xbeb0cbfd3e1f4f7aU, 0x3e5564693dc87782U,
  0xbe2adddabe037f5aU, 0xbdbee8413ed6a78dU, 0x3e19eaa8bdd019cbU, 0xbf08637a3ddae595U,
  0x3e9e46dbbe6373a2U, 0xbcc2dd2e3d45c65fU, 0x3db9d87d3e04ea59U, 0xbd4e34fbbddf77b8U,
  0x3e5ee7ab3e68b5fcU, 0x3eb0516d3e642f99U, 0x3dffe94a3dd2c0a2U, 0x3e5925a63dd52b47U,
  0x3c94aec93c4a2ea1U, 0xbda6786d3b5054eaU, 0xbd92a2c63d75b578U, 0xbe02295cbd2b967bU,
  0x3dc0d2c83eb2def3U, 0x3e3f35443e7fc3a7U, 0xbe889480bdac5b90U, 0x3d2595b6bc05dc8eU,
  0xbe860c2dbeaf3cedU, 0x3dc872a43e01cb89U, 0x3e38f4c1bf0e185bU, 0x3dd44902bd167898U,
  0x3e31aa2f3df689bfU, 0x3d8603933f5e4aa5U, 0x3dc47cb53e7e8481U, 0xbe32b14a3deaf60bU,
  0x3e3e265a3e8a07b9U, 0xbd29e520bd2bf507U, 0xbe026e893daf7ce9U, 0xbe03ea48be0e4785U,
  0x3e17a1d73e889700U, 0xbd1332993ef3149aU, 0xbedc42f83d44992eU, 0x3d59bb00be8d799cU,
  0x3da001623e60241aU, 0x3e35a6ae3d9079deU, 0x3e7b801f3de70033U, 0xbd8d697a3d8b4787U,
  0x3e232a53be4db985U, 0xbe6cda19be0591a2U, 0xbe709b0ebd854040U, 0x3e1c7232be8d8821U,
  0xbe0018503b5d7af7U, 0x3dd2ace33d445d3fU, 0x3d65243dbd89fc74U, 0x3e2803dcbe3cc863U,
  0xbe9b249b3c9ca5ffU, 0x3c7301c03c897b4aU, 0x3e514729bd4b4958U, 0xbd3e2664bdffc250U,
  0xbe1098b3be811aecU, 0x3e068bb1be73aa87U, 0xbdb1984e3d67da62U, 0xbdf1421d3e24ca2cU,
  0x3ea37e963e00eaccU, 0xbea8339fbe925395U, 0x3d7bd10e3c445b52U, 0xbdea20e33990c4dcU,
  0x3c591ed6be9315f4U, 0xbdd760d43e41c003U, 0x3d779823bddb6319U, 0x3ea0cc2e3d9f6500U,
  0xbdffbc993dc85d3fU, 0x3efbc9abbd974794U, 0xbe1b02e0bdacceebU, 0x3e078728be5b4e2aU,
  0xbe7c52643e0768ebU, 0x3e460a73bc9839c8U, 0xbd8ea222bcf3917fU, 0xbde2d7cd3ba7a683U,
  0x3d55c188be9c83a0U, 0xbd69f018be0045a6U, 0x3de093cabe97d185U, 0x3d8bb48cbd6fc1d2U,
  0x3bcdd7fb3ee1ec15U, 0x3eaebb1abd90cdc4U, 0xbd80738cbdaedfefU, 0xbe529475bddee994U,
  0x3e3e42053ec41a00U, 0x3c0544c43e7b900dU, 0x3c038024beab9639U, 0xbe41c5fa3ec6ec40U,
  0xbd711e4c3d9c9910U, 0x3e5e6f0fbdeabe15U, 0xbdf7bd88bd3836e0U, 0xbe6e06373d8dabb5U,
  0xbd2437d73e8008e4U, 0xbe85c9ddbe2b4c2cU, 0x3e99acc33d2dbf57U, 0xbe4793b73dbd2847U,
  0x3e4364e4be2feb7cU, 0x3ea06ed2bebc3f49U, 0x3e8279fcbe599c47U, 0x3d9a0d973e863102U,
  0xbe05d9b3be260e0dU, 0xbd6d2ac53f14ca1bU, 0xbebe75e63e6f7784U, 0x3e5671f9bd98ee69U,
  0x3d37ea9c3e0f1440U, 0xbe98d1ce3e32cc2eU, 0x3e0074683e012ea2U, 0xbe3e5ffb3bc12ec6U,
  0x3e397bb63ee87686U, 0x3e80983c3ef7dc40U, 0xbe4fcceebeb7444bU, 0x3df13da6be17a8b3U,
  0xbee8d2b4bc72d88cU, 0xbe08ec033c04ae20U, 0xbe8d69afbe7f2a6dU, 0x3e462c373e28616bU,
  0x3e906f36be833dc0U, 0xbd40fcf8be1c371cU, 0xbe1aca4f3eab1789U, 0x3ccf205bbdd95f7cU,
  0x3f00d8ed3ca1e091U, 0x3e179a5a3bbe00aaU, 0xbef6d8603e3ef4caU, 0xbecba1973e28a40aU,
  0x3d0184ec3e696ce4U, 0x3edc19503f15ff0fU, 0xbec8c139be8a1adcU, 0x3e6a600d3b9721f7U,
  0x3bea0ae0be98c904U, 0xbeb1223f3cded791U, 0xbe20e27d3e82b3bcU, 0xbe1e69d4bee04cfcU,
  0xbde17effbd7d08a0U, 0x3e143403bec55fa0U, 0x3e94df0dbe27c5f4U, 0xbe94c66fbe2ea4beU,
  0xbe8492fb3e156c40U, 0xbda52027be4fe87dU, 0xbdcda8793e988fd8U, 0x3e8cdd8e3ea2e7daU,
  0xbd48dc813deff51fU, 0x3e593312be59359bU, 0xbd3430aebe154814U, 0xbba1e93a3e91cae8U,
  0x3db80501bd9e7db6U, 0xbe96b894bdde38bfU, 0x3d0a5eb23d2ffdefU, 0x3d557ec1bca6488dU,
  0xbdb1c15a3db49c5eU, 0xbd31572b3ba80348U, 0xbe20cbb6bdfc8779U, 0xbda49f1a3d3e25fcU,
  0xbe0b92a53cb6e6edU, 0xbdb51bf3bc7dbbcaU, 0xbe1bf1203e1ad3f1U, 0xbdbe06f6be874a9aU,
  0xbe3296b1bd55a72dU, 0x3d0bd01d3ce45044U, 0x3dea7101bd81dcc0U, 0x3ec35dfc3c28b962U,
  0x3d04141bbd952e00U, 0xbd33fd993df1322eU, 0x3e0a792b3dd25171U, 0xbdc3bef83e0315f8U,
  0x3cb8931cbdcc6c14U, 0xbe7926083e6c82f5U, 0xbde2ccde3c54a061U, 0xbe9c7febbda6ed4fU,
  0xbde62505be3de939U, 0xbdd0e62f3e95e306U, 0x3ebfbbc63ee7a2ecU, 0x3e461cd8be34dd21U,
  0xbc2a06acbda847efU, 0x3c910b323bab9b82U, 0x3d9c19533d7becd8U, 0xbcfbb13f3ad06006U,
  0x3b3f0ae13c7e0fc1U, 0xbdaa082c3d4f689cU, 0xbca8b9463d2c4db8U, 0xbd6234fbbce33744U,
  0xbd00a2f53d372efdU, 0xbc7c85b1bdb55509U, 0xbcc986fdbcf2ed1cU, 0xbc0885d4bcc0c59bU,
  0x3d3964c4bd4bcf18U, 0x3d965805bc80458bU, 0x3c2d16353c137c9cU, 0xbcaaf9dbbd23da30U,
  0x3d0780473d19df80U, 0x3c923ccb3e45dbdbU, 0xbcc0a8143bd0baefU, 0x3d01a581be2d67c7U,
  0x3d5e4eb93c47f68cU, 0xbdaac2dbbc55567cU, 0x3d54e925bcf87b41U, 0x3c5be3ad3da7f28eU,
  0xbd25ed44bd943ac7U, 0x3ced8a0ebd3db057U, 0xbdf40762bcdc0297U, 0x3d8080acbd268863U,
  0xbbed7c16bd67138eU, 0xbcd10a163d283001U, 0xbdf71ea1bd33694aU, 0xb992109bbd6fb147U,
  0xbd7efbe639c9c126U, 0xbdda9b3b3c20ce8eU, 0x3d7797eabe2ff869U, 0xbdcb9448be2280c0U,
  0x3e4097653e1480fbU, 0x3c9de8213d8b0de8U, 0x3e6204433d5e4000U, 0xbe2d316abdbf1572U,
  0x3dc11795bd21a742U, 0xbe0e63a6be0d1380U, 0x3d87ac6fbd8af812U, 0x3df430c43e4c68c1U,
  0xbd91147bbc79332fU, 0xbb4f22e13cbebef3U, 0x3d9edb50be03ede9U, 0x3d47d24e3d6b5639U,
  0xbe2631ad3da7d3f6U, 0xbe27c151bd162b2aU, 0x3d87ff123c8586a5U, 0x3d7947fe3d9fcb5aU,
  0xbd88e5ecbe0378e0U, 0x3e0fa8cc3dc14758U, 0xbdd788753d52bf4fU, 0x3d99a8353db3fc85U,
  0xbd8d24293ddc6883U, 0xbd5d6b04be19c6deU, 0x3d14e626bdc53de7U, 0xbe26b410bca91acaU,
  0x3e37e24ebd9e0c6cU, 0x3bff223a3d516708U, 0x3d324d2bbc6f259fU, 0xbdbf6635bdcda0aaU,
  0x3d389ea23ecb27daU, 0x3ee604d33df6b4ceU, 0xbe7f2503bee34d60U, 0x3e40c9853cc25891U,
  0xbe75c775bdeab576U, 0xbe1cb852bc930766U, 0xbe6ee7a5bd9ed8f3U, 0x3de442853e1008c0U,
  0x3e43a6b5be2947aaU, 0x3e3098d5bd5073acU, 0x3ea736d73e56497cU, 0xbe8054d7bdf8288cU,
  0x3dd09ca23ed5c25eU, 0xbd9e60963ed6f490U, 0xbac9b76f3e946f6fU, 0x3e59c365bd8bcee6U,
  0xbddadbb4bdff6cf3U, 0x3f05eef7bdee27b3U, 0x3da2e7f6bd9e2258U, 0x3ddb070e3ebe70dcU,
  0x3d8122403cea99f2U, 0xbde49cf2be8f3b59U, 0xbec554c1be0ec967U, 0x3ea43740bde741dfU,
  0x3e491c073e18a809U, 0x3e5bd2913e48953aU, 0x3e2051c13eb28ba3U, 0xbd0198173e1f399aU,
  0xbd058199be184ee3U, 0xbe8dc450be6d6dc7U, 0xbed07aedbe6f1382U, 0x3c5b9a423d14c18aU,
  0xbde960de3eb146b1U, 0x3cf623fcbc736b25U, 0xbe563c533e39a188U, 0xbdb0387ebc844eecU,
  0xbd64628d3dda4a8cU, 0x3e195e923db90ae2U, 0x3e114444bcda448aU, 0xbde833903e0f6c21U,
  0x3dab96b7bc8a9a9aU, 0x3d8682b33e44b1abU, 0xbe8a62863e8ffa11U, 0x3e0398edbdb4e75aU,
  0x3e62a37c3ebdbf02U, 0xbdefe1123d87664dU, 0xbe07f7963dafb61cU, 0x3e31957fbde1386fU,
  0x3e1c495abd86caa3U, 0x3d74e990bd959613U, 0xbe38c3f9be77681eU, 0xbd7e872f3e57a85cU,
  0xbe19e05abdafa45cU, 0xbea62370be974211U, 0xbe2c5bd1bd09de39U, 0xbd676744be1ea6f6U,
  0x3d9758683e49d336U, 0xbd20fea33dd6f860U, 0x3e2e8b553e9cd6bbU, 0xbe00bac03efe2794U,
  0x3e06d5bcbd422fd3U, 0x3dc65136bc3202a9U, 0xbd34a2d1be07b06eU, 0x3dd9f6f03dcb8be5U,
  0x3ce26bad3d829237U, 0xbd3c8a24bd00f7b4U, 0xbe147701bebdd0eaU, 0xbd551a6abe20026fU,
  0x3dfc0999bc0dacfeU, 0xbc963fe43ccdef15U, 0x3dd2ac49be257ce1U, 0xbda0b0853d4e9504U,
  0x3e202ce9bd9fcee5U, 0x3e1fab8cbd0bab67U, 0x3e2a5137be12363dU, 0xbe3d454dbcc4b1abU,
  0xbe70ee903daaf283U, 0x3d7f77a53d19a560U, 0xbe99861cbe721a82U, 0x3dded51d3e5157ffU,
  0x3ce09ac3bc9fd990U, 0x3e9d6decbe0ce202U, 0xbaa3ebdbbe58bddbU, 0x3e670d563db27cd9U,
  0xbdf691bbbea17096U, 0x3e73f466be9f83deU, 0xbe791d0fbd8d6886U, 0xbe58f0473e8979e8U,
  0xbd4a7d72bd83bd71U, 0xbe566b2cbe05ba6aU, 0xbdc3a74cbe3258b7U, 0xbb54aed2bd9e71e1U,
  0x3db9bb583dc2ffa8U, 0x3ccd5a5c3e7b0812U, 0x3d5bb8b93eb9b4b6U, 0xbe89431bbe641fceU,
  0xbecb60af3e99f70fU, 0xbe1e4e60bdd4f1b6U, 0xbddaa4083f129706U, 0x3e858f17bd873b7aU,
  0x3cf89be6be937c52U, 0xbe1ebd7b3d7a4e97U, 0x3d98d06dbc4530b9U, 0x3d5f3fcc3d2cbfc4U,
  0x3e0ef3b23e813caeU, 0x3cb525cc3e6c3516U, 0xbda5cae73d414fcaU, 0x3d4336acbdf3f9afU,
  0x3bec1e2d3e8f0fffU, 0xbd83c55f3e15045dU, 0xbeafcd643c932eceU, 0x3e7e6ce1bcf58037U,
  0x3df3f624be84436aU, 0x3db2b86b3ec2ee49U, 0xbe6abda03e0e8499U, 0xbc90b15fbe9ede57U,
  0xbd3f6580be8e7941U, 0xbecf537bbcfaafb8U, 0x3e617487be7fb982U, 0xbdfc1925bcf89f9cU,
  0x3cecf027bbbea70dU, 0xbe4e00833e44f067U, 0xbde39b423ea58003U, 0x3ebb71483de99e64U,
  0x3cc5d511bd8e34ffU, 0xbd854b2abd11f2adU, 0xbe6b6fa8be1a7fa3U, 0xbc909452bd7c0bffU,
  0x3db8015abcfcea19U, 0x3ee05235bd49c936U, 0xbdc0dca0bb5cf1e5U, 0x3e4d83713dce3b7aU,
  0x3ed859f7bd8662a8U, 0xbdd232213e8da4c5U, 0xbdcbb96bbdaee2fdU, 0xbdc81bb63eb2482dU,
  0x3e4d27e73e84450fU, 0xbcdf25b7be1d880bU, 0x3ed9850a3ecb4f1fU, 0x3e330afebdbfb424U,
  0x3e817082be2a6322U, 0xbd82f861bcf23db5U, 0x3eb8707d3d6f5d56U, 0xbe4cff97bd07e86cU,
  0x3dd533ef3d6d3b67U, 0x3eaa87b53e9a0ebdU, 0x3e0a2f2d3dc1a456U, 0x3d9ed7203f02ecfcU,
  0xbda10558be84663cU, 0xbe5866c83e31b672U, 0x3c55c5253ceb2e73U, 0xbd4b1c9d3e113171U,
  0x3d0b30f23c90b14aU, 0xbcd0bdeb3f0e1521U, 0xbcf5caa9bc849d25U, 0xbd1c0054be23b0eeU,
  0xbd61b71d3e4a7e2dU, 0x3e4261433e85a1e5U, 0xbe434dca3d2b3362U, 0x3d4d9f80bdfecd8aU,
  0x3d2fe05a3d8e4414U, 0xbd60a7833cf52bb8U, 0xbdbc8bd93e01d0eeU, 0xbed41d2a3e3f6fc7U,
  0x3d20dfa23e5d2ffeU, 0x3e8b5f6cbd71dd53U, 0x3d6dd8e43e5104d4U, 0x3d7ae291be0cb68bU,
  0x3e899b973e4a90e3U, 0xbe5d1869be140154U, 0xbd886c7a3e5a6127U, 0x3ec9e2903e19f292U,
  0xbdf9a4d83e067515U, 0x3df417fbbe1a7e61U, 0x3e7e28103ccc3af2U, 0x3e00461bbca8bc21U,
  0xbdd13cfcbdd5cde5U, 0x3e5b86443d18f21bU, 0x3cabe3f03ead468dU, 0x3dcbbfea3d3b0a71U,
  0xbd9f04633d039894U, 0xbde10c6cbd28058eU, 0x3d4df6b23cc563f4U, 0x3dff342b3ef33f01U,
  0xbea7e868bde9861cU, 0xbc4a435cbeb06730U, 0xbe00dff5bde350d8U, 0xbe54c1ea3edf8d4cU,
  0x3ead16743daa3018U, 0xbda9b5753d5ca75fU, 0x3f029d6cbe92bc39U, 0xbeb132683ddd45f1U,
  0x3e443fb8bda38dc1U, 0xbd87ac3b3c835abfU, 0xbe2e2bc43e0a4950U, 0xbe75afe7bdc424deU,
  0xbd52fc24bea47907U, 0xbcc41063beac5ffbU, 0x3db9a33a3b7ba870U, 0x3e19066fbe848c82U,
  0xbd3345b93e4fd2fdU, 0xbd87cb0b3dd912ceU, 0xbe9efb11be67fb61U, 0xbe241a5ebe2bfbaeU,
  0x3d9e770abb691f58U, 0x3de72548be286708U, 0x3d3b915cbd023504U, 0xbd5a5743be1ce6d0U,
  0xbdac8d95bd93f9ddU, 0xbe3a3eb0be2c8977U, 0xbe4d483a3d894183U, 0xbe34226fbe51d13cU,
  0x3dd5aab03de353daU, 0x3dcd27ff3e2f99e1U, 0xbdb846113dcd54b5U, 0x3e2b912b3e0c0a19U,
  0xbdbcdb443e83806cU, 0xbc513908bb5aedf0U, 0x3daa3d11be266d93U, 0xbe733113be974e6bU,
  0xbb5325febd98b1b1U, 0xbec5e94c3ded0d3eU, 0xbddd4c173d9f88eaU, 0x3e702723bd07abefU,
  0x8d687a0b0d735174U, 0xd73012e0d7e2df8U, 0xd83cfd40d69b2c9U, 0xd8266778d94357bU,
  0x8d73c9768d7f90dfU, 0xd80f4628d7e5c6aU, 0xd789ac78d6866d9U, 0xd72fdac0d847b0dU,
  0x8d6cf4f20d801ea4U, 0x8d7cd7150d62720cU, 0xd6a5cff8d85e533U, 0xd5ec08b8d81023bU,
  0xc5cb1c88d7638c3U, 0xd1592fb0d8f0a62U, 0xd7f4d8e0d6bc0f7U, 0xd8cb9498d6169deU,
  0xd74096c8d73e287U, 0x8d7653ab0d8a3c11U, 0x8d60262e0d5f5987U, 0x8d4b0ad98d72eae7U,
  0x8d5fa1e28d75db24U, 0x8d62eaa78d835635U, 0xd7418320d6fefb8U, 0x8d637bcc0d72908bU,
  0x8d8246558d4e7abeU, 0x8d751c760d85ce3dU, 0x8d792e148d7d69d1U, 0x8d70f1e58d858a09U,
  0xd81b08e0d7d03adU, 0x8d7d750d8d63a24aU, 0xd4b176e8d78b7a6U, 0x8d9aaa2b8d7c366cU,
  0x3edb28e3baa1403dU, 0x3dbda425be302492U, 0x3ce37d393c1262a2U, 0x3ce029863d8a6c74U,
  0xbe4a4038be02777fU, 0xbc8150aabdc7c4d2U, 0x3dfca7bdbe774ccbU, 0xbe6951aa3e6a9bf0U,
  0x3eadc0efbd880fb7U, 0xbd81ff5dbe3b7bf9U, 0x3e1ed5583d828217U, 0x3cc2524bbd492385U,
  0x3c8fa55fbe5c9106U, 0x3ce7cd9fbe67a0dfU, 0x3c3059623e48a78cU, 0xbe775467be5b1dc7U,
  0xbd8cc741be0d720aU, 0x3bda6c893e23a1e8U, 0xbd9d5a4abc402b02U, 0x3e0d7c413cd32814U,
  0xbd8092663d16b789U, 0xbdf5876f3c87c3c2U, 0x3e8cc7c43e960e2aU, 0x3e600ee03d304bd2U,
  0xbd110fc83cc8c2d1U, 0xbed84cf5be020015U, 0xbe8f68de3d6b080dU, 0x3dc854353da9d68eU,
  0xbe4db410bea5b0d4U, 0x3e4e9534bddc4959U, 0x3dee7d1fbe5d811cU, 0xbe62091f3e53be63U,
  0xbdb9ad28be00e56fU, 0x3d056ca5bde68eeaU, 0xbe84b4ffbd42034fU, 0xbdf346bdbd50d175U,
  0x3e3b71463ea3722cU, 0xbc9d7af73bfa035fU, 0x3e3e71183e1703d5U, 0x3d10a2fcbdb85de9U,
  0x3d9ff86cbe6f715cU, 0xbe026866bdcdf07fU, 0x3e42a9cd3da284feU, 0x3e47dedcbd013402U,
  0x3dd6093a3e113a3cU, 0x3e69ad7c3e11c3caU, 0xbdc6524f3e0e6e99U, 0x3cae66b6bcc968c1U,
  0x3e1f379bbe178110U, 0xbd9b99ec3d33470dU, 0x3d971f5cbe1e071dU, 0xbdff6c513d9a30d8U,
  0xbe5085ff3a1f68e6U, 0xbdc85fe5be5ff6a0U, 0xbe7acdcc3ddb56ddU, 0x3c690d2b3d812770U,
  0xbc1612d23dc81765U, 0xbdb9143bbe5e4aeaU, 0xbe8a19aabde6243cU, 0x3cfeacc33e0a522bU,
  0x3ab55e943b1a5643U, 0xbc8c22d13e311d16U, 0xbdd6d4adbd45daa2U, 0xbe441b0dbe076606U,
  0x3e8aeea8bf058836U, 0x3d97fa64beac85e4U, 0xbe96668b3d88eeddU, 0xbeaae4ed3d9e2d8bU,
  0x3d29f9dabd4b5278U, 0x3e86f69bbe3c412aU, 0xbe042e0ebd81b833U, 0x3ea46c1cbe7cd94bU,
  0xbe27b5a3bea4c8eaU, 0x3e9cd1e9be5af817U, 0x3e2fd0a2be1fbda9U, 0xbd7edf79bdb589e1U,
  0x3c246af5bea40039U, 0xbc8bd083be568d20U, 0x3e7e2d133e5694e2U, 0xbec7f550be8f56a0U,
  0x3e9cebad3e16b617U, 0xbe486c1cbe832159U, 0xbdad5fee3dc96d31U, 0xbe0fb4893e0698f9U,
  0x3efc143d3de531d5U, 0x3e3a26d63e8d3040U, 0xbe5f6ac2bed238c6U, 0x3dbe2edfbea902c7U,
  0xbe8929833ef30c4fU, 0xbd0b60b53e5802e9U, 0x3d0dbc57bd937c1dU, 0xbe23c74ebe9ee6bcU,
  0xbe1077113e221ef5U, 0xbcc0f8a13e8aba0eU, 0x3e7b16d03ea1b572U, 0xbe257cc43ef9b598U,
  0x3d9dda5c3c1e8ab1U, 0xbd54089fbc85a472U, 0xbe706eb83e6131a8U, 0xbe18bd3cbde070e9U,
  0x3ebd22843e2faccbU, 0x3e3380babdaf955eU, 0x3ddbb9873e221f2aU, 0x3df774b1be85debeU,
  0xbe5e6441be7f8831U, 0x3dbc87a9bd0941a9U, 0x3ab84a77be018362U, 0x3e97473c3eadd3acU,
  0xbdc206db3b437f9bU, 0x3e0427673c57649cU, 0x3e6afe2c3caa1febU, 0xbe261513bdc0ec1fU,
  0x3e215e123dc94ea0U, 0xbdba22c3beabdcd6U, 0x3e579d323dd86402U, 0xbbaf4fdb3dfa469eU,
  0xbdee7b103e4f1376U, 0xbe4844723d07e830U, 0xbe1ba825bdb5b794U, 0x3cc414a3bc97243fU,
  0xbda9f4d23d693e9eU, 0xbe46767e3e1ca4dbU, 0x3d3406e73e5c8d90U, 0xbe21d4953c91617dU,
  0x3d265db0be36d4a6U, 0x3bfd08c63cb52830U, 0xbd8f85c9baf998ffU, 0xbe49a376be47d453U,
  0xbd8709b7bdc67ad9U, 0xbdb6ad393c88bbb5U, 0xbe99ebd73cd843cfU, 0x3f02fc8e3e4cd15aU,
